{
  "version": "1.0",
  "truncation": null,
  "padding": null,
  "added_tokens": [
    {
      "id": 0,
      "content": "<|endoftext|>",
      "single_word": false,
      "lstrip": false,
      "rstrip": false,
      "normalized": false,
      "special": true
    }
  ],
  "normalizer": {
    "type": "Sequence",
    "normalizers": [
      {
        "type": "NFD"
      },
      {
        "type": "Lowercase"
      },
      {
        "type": "StripAccents"
      }
    ]
  },
  "pre_tokenizer": {
    "type": "ByteLevel",
    "add_prefix_space": false,
    "trim_offsets": true,
    "use_regex": true
  },
  "post_processor": {
    "type": "ByteLevel",
    "add_prefix_space": true,
    "trim_offsets": false,
    "use_regex": true
  },
  "decoder": {
    "type": "ByteLevel",
    "add_prefix_space": true,
    "trim_offsets": true,
    "use_regex": true
  },
  "model": {
    "type": "BPE",
    "dropout": null,
    "unk_token": null,
    "continuing_subword_prefix": null,
    "end_of_word_suffix": null,
    "fuse_unk": false,
    "byte_fallback": false,
    "vocab": {
      "<|endoftext|>": 0,
      "!": 1,
      "\"": 2,
      "#": 3,
      "$": 4,
      "%": 5,
      "&": 6,
      "'": 7,
      "(": 8,
      ")": 9,
      "*": 10,
      "+": 11,
      ",": 12,
      "-": 13,
      ".": 14,
      "/": 15,
      "0": 16,
      "1": 17,
      "2": 18,
      "3": 19,
      "4": 20,
      "5": 21,
      "6": 22,
      "7": 23,
      "8": 24,
      "9": 25,
      ":": 26,
      ";": 27,
      "<": 28,
      "=": 29,
      ">": 30,
      "?": 31,
      "@": 32,
      "[": 33,
      "\\": 34,
      "]": 35,
      "^": 36,
      "_": 37,
      "`": 38,
      "a": 39,
      "b": 40,
      "c": 41,
      "d": 42,
      "e": 43,
      "f": 44,
      "g": 45,
      "h": 46,
      "i": 47,
      "j": 48,
      "k": 49,
      "l": 50,
      "m": 51,
      "n": 52,
      "o": 53,
      "p": 54,
      "q": 55,
      "r": 56,
      "s": 57,
      "t": 58,
      "u": 59,
      "v": 60,
      "w": 61,
      "x": 62,
      "y": 63,
      "z": 64,
      "|": 65,
      "}": 66,
      "~": 67,
      "¡": 68,
      "¢": 69,
      "£": 70,
      "¤": 71,
      "¥": 72,
      "¦": 73,
      "§": 74,
      "¨": 75,
      "©": 76,
      "ª": 77,
      "«": 78,
      "¬": 79,
      "®": 80,
      "¯": 81,
      "°": 82,
      "±": 83,
      "²": 84,
      "³": 85,
      "´": 86,
      "µ": 87,
      "¶": 88,
      "·": 89,
      "¸": 90,
      "¹": 91,
      "º": 92,
      "»": 93,
      "¼": 94,
      "½": 95,
      "¾": 96,
      "¿": 97,
      "Â": 98,
      "Ã": 99,
      "Ä": 100,
      "Å": 101,
      "É": 102,
      "Ê": 103,
      "Ë": 104,
      "Î": 105,
      "Ï": 106,
      "Ð": 107,
      "Ñ": 108,
      "×": 109,
      "Ø": 110,
      "Ù": 111,
      "Ü": 112,
      "à": 113,
      "á": 114,
      "â": 115,
      "ã": 116,
      "ä": 117,
      "å": 118,
      "æ": 119,
      "ç": 120,
      "è": 121,
      "é": 122,
      "ï": 123,
      "Ċ": 124,
      "Ġ": 125,
      "Ģ": 126,
      "ģ": 127,
      "Ĥ": 128,
      "ĥ": 129,
      "Ħ": 130,
      "ħ": 131,
      "Ĩ": 132,
      "ĩ": 133,
      "Ī": 134,
      "ī": 135,
      "Ĭ": 136,
      "ĭ": 137,
      "Į": 138,
      "į": 139,
      "İ": 140,
      "ı": 141,
      "Ĳ": 142,
      "ĳ": 143,
      "Ĵ": 144,
      "ĵ": 145,
      "Ķ": 146,
      "ķ": 147,
      "ĸ": 148,
      "Ĺ": 149,
      "ĺ": 150,
      "Ļ": 151,
      "ļ": 152,
      "Ľ": 153,
      "ľ": 154,
      "Ŀ": 155,
      "ŀ": 156,
      "Ł": 157,
      "ł": 158,
      "Ń": 159,
      "Ġt": 160,
      "Ġa": 161,
      "he": 162,
      "in": 163,
      "Ġthe": 164,
      "er": 165,
      "Ġs": 166,
      "on": 167,
      "Ġ,": 168,
      "re": 169,
      "Ġw": 170,
      "Ġc": 171,
      "Ġo": 172,
      "ed": 173,
      "Ġb": 174,
      "nd": 175,
      "Ġf": 176,
      "at": 177,
      "Ġ.": 178,
      "it": 179,
      "or": 180,
      "Ġin": 181,
      "Ġp": 182,
      "en": 183,
      "is": 184,
      "Ġm": 185,
      "es": 186,
      "ar": 187,
      "Ġof": 188,
      "an": 189,
      "al": 190,
      "Ġd": 191,
      "ing": 192,
      "Ġand": 193,
      "as": 194,
      "Ġh": 195,
      "ro": 196,
      "Ġto": 197,
      "ic": 198,
      "Ġl": 199,
      "ion": 200,
      "ou": 201,
      "Ġn": 202,
      "Ġre": 203,
      "le": 204,
      "Ġth": 205,
      "Ġe": 206,
      "Ġg": 207,
      "Ġ=": 208,
      "Ġ\"": 209,
      "ent": 210,
      "il": 211,
      "Ġ1": 212,
      "st": 213,
      "am": 214,
      "ĠĊ": 215,
      "el": 216,
      "om": 217,
      "Ġ@": 218,
      "ad": 219,
      "ac": 220,
      "Ġon": 221,
      "Ġwas": 222,
      "Ġst": 223,
      "Ġbe": 224,
      "ur": 225,
      "ly": 226,
      "Ġhe": 227,
      "Ġfor": 228,
      "Ġu": 229,
      "Ġ'": 230,
      "Ġas": 231,
      "ol": 232,
      "im": 233,
      "id": 234,
      "iv": 235,
      "ir": 236,
      "ter": 237,
      "ig": 238,
      "-@": 239,
      "Ġ@-@": 240,
      "ct": 241,
      "th": 242,
      "ow": 243,
      "ith": 244,
      "ay": 245,
      "Ġal": 246,
      "Ġ2": 247,
      "Ġr": 248,
      "ot": 249,
      "ut": 250,
      "et": 251,
      "ver": 252,
      "Ġwith": 253,
      "ation": 254,
      "ce": 255,
      "Ġthat": 256,
      "Ġis": 257,
      "Ġit": 258,
      "Ġwh": 259,
      "Ġcon": 260,
      "Ġj": 261,
      "ch": 262,
      "Ġby": 263,
      "us": 264,
      "Ġan": 265,
      "Ġat": 266,
      "Ġde": 267,
      "Ġse": 268,
      "Ġk": 269,
      "ul": 270,
      "Ġ)": 271,
      "Ġ(": 272,
      "Ġv": 273,
      "Ġch": 274,
      "and": 275,
      "rom": 276,
      "em": 277,
      "ag": 278,
      "ain": 279,
      "Ġ19": 280,
      "os": 281,
      "ers": 282,
      "um": 283,
      "Ġhis": 284,
      "Ġcom": 285,
      "av": 286,
      "her": 287,
      "est": 288,
      "00": 289,
      "od": 290,
      "Ġfrom": 291,
      "ri": 292,
      "Ġpro": 293,
      "Ġsu": 294,
      "pe": 295,
      "if": 296,
      "ist": 297,
      "res": 298,
      "ies": 299,
      "Ġy": 300,
      "un": 301,
      "Ġne": 302,
      "ill": 303,
      "ap": 304,
      "se": 305,
      "ere": 306,
      "ld": 307,
      "ort": 308,
      "op": 309,
      "Ġmo": 310,
      "Ġor": 311,
      "Ġsh": 312,
      "Ġro": 313,
      "Ġwere": 314,
      "Ġpl": 315,
      "ab": 316,
      "ak": 317,
      "ate": 318,
      "igh": 319,
      "ard": 320,
      "all": 321,
      "ong": 322,
      "art": 323,
      "Ġex": 324,
      "ich": 325,
      "Ġun": 326,
      "qu": 327,
      "ant": 328,
      "Ġle": 329,
      "ud": 330,
      "ber": 331,
      "gh": 332,
      "ity": 333,
      "ated": 334,
      "ame": 335,
      "ess": 336,
      "oc": 337,
      "Ġare": 338,
      "red": 339,
      "Ġtr": 340,
      "Ġar": 341,
      "ive": 342,
      "Ġâ": 343,
      "ie": 344,
      "ack": 345,
      "Ġhad": 346,
      "ĠâĢ": 347,
      "rou": 348,
      "ip": 349,
      "Ġwhich": 350,
      "ast": 351,
      "ian": 352,
      "Ġnot": 353,
      "pt": 354,
      "ment": 355,
      "rit": 356,
      "ge": 357,
      "ine": 358,
      "ord": 359,
      "ally": 360,
      "ia": 361,
      "our": 362,
      "Ġaf": 363,
      "ell": 364,
      "Ġwhe": 365,
      "ight": 366,
      "Ġcomp": 367,
      "ther": 368,
      "cl": 369,
      "ish": 370,
      "ave": 371,
      "oun": 372,
      "Ġ3": 373,
      "pp": 374,
      "ary": 375,
      "Ġcl": 376,
      "ust": 377,
      "Ġthis": 378,
      "cc": 379,
      "Ġad": 380,
      "Ġfir": 381,
      "Ġ200": 382,
      "Ġsc": 383,
      "Ġbo": 384,
      "Ġen": 385,
      "Ġbut": 386,
      "Ġwor": 387,
      "Ġher": 388,
      "Ġtw": 389,
      "Ġtheir": 390,
      "ous": 391,
      "Ġfirst": 392,
      "ore": 393,
      "Ġcont": 394,
      "Ġ;": 395,
      "Ġab": 396,
      "so": 397,
      "Ġint": 398,
      "ction": 399,
      "ra": 400,
      "ide": 401,
      "Ġits": 402,
      "og": 403,
      "ure": 404,
      "Ġman": 405,
      "ical": 406,
      "ire": 407,
      "ial": 408,
      "Ġafter": 409,
      "ould": 410,
      "ĠâĢĵ": 411,
      "hed": 412,
      "Ġone": 413,
      "Ġall": 414,
      "Ġthey": 415,
      "Ġam": 416,
      "Ġte": 417,
      "Ġsp": 418,
      "Ġ20": 419,
      "Ġper": 420,
      "ome": 421,
      "Ġalso": 422,
      "ub": 423,
      "Ġrec": 424,
      "Ġ:": 425,
      "te": 426,
      "ition": 427,
      "ign": 428,
      "Ġfe": 429,
      "per": 430,
      "ok": 431,
      "ru": 432,
      "ue": 433,
      "out": 434,
      "ov": 435,
      "ater": 436,
      "Ġtim": 437,
      "Ġmar": 438,
      "ass": 439,
      "Ġcomm": 440,
      "Ġus": 441,
      "Ġnew": 442,
      "age": 443,
      "Ġtwo": 444,
      "Ġi": 445,
      "Ġshe": 446,
      "Ġhave": 447,
      "Ġres": 448,
      "orm": 449,
      "ear": 450,
      "Ġdes": 451,
      "own": 452,
      "Ġ4": 453,
      "ree": 454,
      "Ġhas": 455,
      "Ġme": 456,
      "Ġser": 457,
      "ond": 458,
      "Ġplay": 459,
      "Ġdis": 460,
      "Ġ5": 461,
      "ry": 462,
      "Ġpo": 463,
      "Ġag": 464,
      "du": 465,
      "Ġpart": 466,
      "Ġbeen": 467,
      "Ġbec": 468,
      "Ġwho": 469,
      "land": 470,
      "are": 471,
      "Ġco": 472,
      "Ġgo": 473,
      "ence": 474,
      "ans": 475,
      "Ġ18": 476,
      ".@": 477,
      "Ġother": 478,
      "Ġ@.@": 479,
      "ile": 480,
      "uring": 481,
      "Ġim": 482,
      "ough": 483,
      "ted": 484,
      "Ġyear": 485,
      "pl": 486,
      "ance": 487,
      "ory": 488,
      "ect": 489,
      "Ġover": 490,
      "ations": 491,
      "Ġev": 492,
      "ff": 493,
      "iz": 494,
      "ach": 495,
      "ade": 496,
      "ang": 497,
      "Ġwe": 498,
      "wn": 499,
      "Ġoff": 500,
      "Ġfin": 501,
      "ely": 502,
      "clud": 503,
      "ric": 504,
      "Ġ201": 505,
      "ts": 506,
      "Ġpre": 507,
      "ound": 508,
      "Ġcol": 509,
      "ib": 510,
      "Ġup": 511,
      "Ġout": 512,
      "ions": 513,
      "ke": 514,
      "Ġfl": 515,
      "Ġcan": 516,
      "ite": 517,
      "Ġinter": 518,
      "urn": 519,
      ",@": 520,
      "Ġ@,@": 521,
      "Ġcent": 522,
      "ace": 523,
      "Ġduring": 524,
      "Ġwhen": 525,
      "Ġinclud": 526,
      "ice": 527,
      "Ġspe": 528,
      "ress": 529,
      "Ġtime": 530,
      "Ġap": 531,
      "act": 532,
      "Ġear": 533,
      "nder": 534,
      "Ġind": 535,
      "Ġsong": 536,
      "ved": 537,
      "ult": 538,
      "ks": 539,
      "Ġbr": 540,
      "we": 541,
      "ens": 542,
      "Ġatt": 543,
      "ced": 544,
      "Ġmore": 545,
      "ail": 546,
      "Ġinto": 547,
      "ces": 548,
      "Ġsec": 549,
      "one": 550,
      "ount": 551,
      "Ġbl": 552,
      "oll": 553,
      "ward": 554,
      "Ġpr": 555,
      "Ġform": 556,
      "Ġgr": 557,
      "Ġpe": 558,
      "amp": 559,
      "ren": 560,
      "Ġwould": 561,
      "ason": 562,
      "port": 563,
      "man": 564,
      "Ġ6": 565,
      "able": 566,
      "ied": 567,
      "Ġchar": 568,
      "rough": 569,
      "ings": 570,
      "ited": 571,
      "Ġhim": 572,
      "Ġjo": 573,
      "ase": 574,
      "ve": 575,
      "Ġmost": 576,
      "ents": 577,
      "rib": 578,
      "ased": 579,
      "Ġmus": 580,
      "les": 581,
      "Ġno": 582,
      "Ġbet": 583,
      "ild": 584,
      "ix": 585,
      "Ġkn": 586,
      "Ġgame": 587,
      "Ġ7": 588,
      "ates": 589,
      "Ġsou": 590,
      "ious": 591,
      "ath": 592,
      "Ġsome": 593,
      "als": 594,
      "Ġqu": 595,
      "ose": 596,
      "Ġrem": 597,
      "way": 598,
      "Ġass": 599,
      "Ġwhile": 600,
      "round": 601,
      "ors": 602,
      "Ġthem": 603,
      "Ġacc": 604,
      "Ġpar": 605,
      "Ġmay": 606,
      "iss": 607,
      "ake": 608,
      "Ġreg": 609,
      "Ġwar": 610,
      "Ġfil": 611,
      "Ġver": 612,
      "Ġonly": 613,
      "vel": 614,
      "Ġthere": 615,
      "form": 616,
      "Ġeng": 617,
      "Ġgen": 618,
      "Ġhow": 619,
      "fer": 620,
      "ubl": 621,
      "Ġrecord": 622,
      "gan": 623,
      "Ġunder": 624,
      "Ġcar": 625,
      "aw": 626,
      "aus": 627,
      "Ġcons": 628,
      "Ġnor": 629,
      "Ġfr": 630,
      "Ġthree": 631,
      "old": 632,
      "Ġrel": 633,
      "ered": 634,
      "Ġlater": 635,
      "Ġmin": 636,
      "Ġ9": 637,
      "Ġso": 638,
      "Ġ8": 639,
      "ood": 640,
      "ters": 641,
      "Ġabout": 642,
      "Ġac": 643,
      "att": 644,
      "Ġfilm": 645,
      "ember": 646,
      "ug": 647,
      "Ġem": 648,
      "reat": 649,
      "Ġthrough": 650,
      "Ġact": 651,
      "ollow": 652,
      "Ġseason": 653,
      "Ġwork": 654,
      "ween": 655,
      "Ġbetween": 656,
      "Ġ199": 657,
      "Ġli": 658,
      "Ġagain": 659,
      "ick": 660,
      "Ġmon": 661,
      "Ġfollow": 662,
      "Ġma": 663,
      "Ġapp": 664,
      "Ġthan": 665,
      "Ġsy": 666,
      "Ġend": 667,
      "Ġprodu": 668,
      "Ġbu": 669,
      "Ġwrit": 670,
      "ational": 671,
      "ral": 672,
      "ular": 673,
      "Ġwin": 674,
      "Ġday": 675,
      "ck": 676,
      "ict": 677,
      "Ġnum": 678,
      "Ġhigh": 679,
      "ft": 680,
      "Ġspec": 681,
      "Ġrele": 682,
      "Ġlo": 683,
      "Ġsub": 684,
      "Ġlar": 685,
      "hip": 686,
      "eric": 687,
      "iew": 688,
      "Ġret": 689,
      "fore": 690,
      "ision": 691,
      "Ġdo": 692,
      "Ġpos": 693,
      "Ġdef": 694,
      "Ġsecond": 695,
      "ames": 696,
      "Ġ00": 697,
      "cted": 698,
      "ons": 699,
      "Ġnorth": 700,
      "olog": 701,
      "Ġbro": 702,
      "Ġalb": 703,
      "Ġgu": 704,
      "ning": 705,
      "ished": 706,
      "Ġfour": 707,
      "Ġwhere": 708,
      "Ġpres": 709,
      "ph": 710,
      "Ġmade": 711,
      "Ġinc": 712,
      "ury": 713,
      "Ġpubl": 714,
      "ss": 715,
      "Ġsa": 716,
      "Ġcity": 717,
      "Ġent": 718,
      "Ġloc": 719,
      "Ġworld": 720,
      "Ġameric": 721,
      "Ġph": 722,
      "ating": 723,
      "Ġsuch": 724,
      "end": 725,
      "Ġele": 726,
      "Ġalbum": 727,
      "Ġsouth": 728,
      "Ġbefore": 729,
      "Ġsur": 730,
      "Ġcap": 731,
      "ne": 732,
      "ived": 733,
      "Ġz": 734,
      "ific": 735,
      "ual": 736,
      "Ġep": 737,
      "Ġcall": 738,
      "Ġused": 739,
      "Ġseries": 740,
      "ll": 741,
      "tern": 742,
      "hes": 743,
      "ane": 744,
      "iel": 745,
      "Ġappe": 746,
      "ics": 747,
      "ily": 748,
      "Ġsever": 749,
      "Ġ0": 750,
      "Ġsupp": 751,
      "Ġsing": 752,
      "Ġgener": 753,
      "rop": 754,
      "Ġhowe": 755,
      "Ġpol": 756,
      "Ġbeing": 757,
      "Ġ000": 758,
      "Ġyears": 759,
      "Ġboth": 760,
      "Ġmany": 761,
      "Ġsm": 762,
      "Ġfound": 763,
      "Ġthese": 764,
      "Ġop": 765,
      "Ġset": 766,
      "Ġhist": 767,
      "Ġed": 768,
      "Ġsim": 769,
      "Ġstud": 770,
      "Ġrev": 771,
      "Ġ10": 772,
      "Ġair": 773,
      "Ġback": 774,
      "Ġtrans": 775,
      "Ġdec": 776,
      "io": 777,
      "ars": 778,
      "Ġrep": 779,
      "Ġcount": 780,
      "Ġhowever": 781,
      "ale": 782,
      "ife": 783,
      "Ġadd": 784,
      "iver": 785,
      "ird": 786,
      "int": 787,
      "Ġdire": 788,
      "Ġwill": 789,
      "Ġlong": 790,
      "Ġwell": 791,
      "Ġsch": 792,
      "Ġrece": 793,
      "ute": 794,
      "other": 795,
      "ained": 796,
      "Ġpop": 797,
      "ten": 798,
      "Ġnumber": 799,
      "Ġ12": 800,
      "ised": 801,
      "Ġdep": 802,
      "ities": 803,
      "Ġdr": 804,
      "ert": 805,
      "igin": 806,
      "Ġthen": 807,
      "ause": 808,
      "Ġbel": 809,
      "ode": 810,
      "ys": 811,
      "Ġarm": 812,
      "Ġbatt": 813,
      "Ġdiv": 814,
      "ier": 815,
      "Ġorigin": 816,
      "Ġart": 817,
      "velop": 818,
      "Ġcre": 819,
      "Ġdesc": 820,
      "Ġter": 821,
      "ton": 822,
      "ines": 823,
      "Ġearly": 824,
      "Ġmusic": 825,
      "ise": 826,
      "Ġmill": 827,
      "Ġinv": 828,
      "its": 829,
      "Ġstate": 830,
      "ince": 831,
      "Ġepis": 832,
      "Ġbrit": 833,
      "Ġcharac": 834,
      "hn": 835,
      "Ġseveral": 836,
      "ject": 837,
      "ank": 838,
      "Ġperform": 839,
      "orn": 840,
      "Ġmain": 841,
      "Ġincluding": 842,
      "Ġ16": 843,
      "Ġagainst": 844,
      "Ġinst": 845,
      "Ġste": 846,
      "Ġdevelop": 847,
      "Ġ/": 848,
      "Ġob": 849,
      "Ġknown": 850,
      "Ġsl": 851,
      "Ġport": 852,
      "row": 853,
      "Ġbecame": 854,
      "Ġteam": 855,
      "air": 856,
      "Ġinf": 857,
      "ins": 858,
      "ĠâĢĶ": 859,
      "urch": 860,
      "ident": 861,
      "ield": 862,
      "Ġnov": 863,
      "Ġcrit": 864,
      "ures": 865,
      "Ġoper": 866,
      "Ġ198": 867,
      "ann": 868,
      "Ġmil": 869,
      "ather": 870,
      "Ġshow": 871,
      "iet": 872,
      "Ġest": 873,
      "Ġunited": 874,
      "ful": 875,
      "ower": 876,
      "ern": 877,
      "Ġconst": 878,
      "though": 879,
      "Ġalthough": 880,
      "Ġstr": 881,
      "ement": 882,
      "Ġ15": 883,
      "Ġcentury": 884,
      "Ġjohn": 885,
      "Ġold": 886,
      "Ġ11": 887,
      "Ġdist": 888,
      "uc": 889,
      "Ġlead": 890,
      "led": 891,
      "ool": 892,
      "Ġland": 893,
      "Ġmet": 894,
      "any": 895,
      "Ġ17": 896,
      "Ġchr": 897,
      "und": 898,
      "ork": 899,
      "Ġimp": 900,
      "Ġfollowing": 901,
      "Ġsign": 902,
      "up": 903,
      "ative": 904,
      "vern": 905,
      "til": 906,
      "Ġdown": 907,
      "der": 908,
      "Ġthough": 909,
      "Ġcontin": 910,
      "Ġcare": 911,
      "Ġrun": 912,
      "yl": 913,
      "ared": 914,
      "Ġ194": 915,
      "Ġship": 916,
      "Ġlike": 917,
      "Ġcomple": 918,
      "Ġexp": 919,
      "Ġdif": 920,
      "ley": 921,
      "elf": 922,
      "Ġke": 923,
      "Ġopen": 924,
      "ost": 925,
      "Ġmat": 926,
      "ually": 927,
      "Ġvar": 928,
      "Ġnear": 929,
      "Ġbegan": 930,
      "Ġ196": 931,
      "ired": 932,
      "Ġbar": 933,
      "Ġalong": 934,
      "Ġdisc": 935,
      "Ġgovern": 936,
      "ments": 937,
      "ized": 938,
      "Ġfam": 939,
      "els": 940,
      "Ġ197": 941,
      "Ġbecause": 942,
      "ains": 943,
      "Ġprov": 944,
      "ross": 945,
      "Ġcould": 946,
      "emb": 947,
      "uch": 948,
      "Ġdescrib": 949,
      "Ġdid": 950,
      "Ġever": 951,
      "une": 952,
      "ah": 953,
      "az": 954,
      "Ġsix": 955,
      "Ġcalled": 956,
      "Ġpeop": 957,
      "Ġepisode": 958,
      "Ġpers": 959,
      "oy": 960,
      "ont": 961,
      "Ġking": 962,
      "ued": 963,
      "au": 964,
      "Ġins": 965,
      "Ġdam": 966,
      "Ġhel": 967,
      "son": 968,
      "Ġfeat": 969,
      "aking": 970,
      "Ġuntil": 971,
      "Ġsaid": 972,
      "ined": 973,
      "ivers": 974,
      "roup": 975,
      "Ġarea": 976,
      "iam": 977,
      "rap": 978,
      "Ġger": 979,
      "ty": 980,
      "ccess": 981,
      "Ġamerican": 982,
      "Ġstates": 983,
      "Ġprev": 984,
      "Ġdesign": 985,
      "Ġchurch": 986,
      "Ġwest": 987,
      "Ġgroup": 988,
      "Ġpeople": 989,
      "ove": 990,
      "Ġaust": 991,
      "Ġstart": 992,
      "ium": 993,
      "gest": 994,
      "cept": 995,
      "ull": 996,
      "Ġyou": 997,
      "Ġreturn": 998,
      "Ġmaj": 999,
      "ock": 1000,
      "ured": 1001,
      "Ġsince": 1002,
      "Ġhead": 1003,
      "amed": 1004,
      "Ġcr": 1005,
      "Ġany": 1006,
      "Ġmod": 1007,
      "Ġbritish": 1008,
      "ind": 1009,
      "Ġpass": 1010,
      "Ġadv": 1011,
      "Ġann": 1012,
      "Ġeach": 1013,
      "Ġfo": 1014,
      "ange": 1015,
      "Ġnational": 1016,
      "Ġsame": 1017,
      "itt": 1018,
      "Ġel": 1019,
      "Ġreleased": 1020,
      "Ġoffic": 1021,
      "gr": 1022,
      "ided": 1023,
      "Ġown": 1024,
      "Ġeu": 1025,
      "ists": 1026,
      "ially": 1027,
      "Ġaround": 1028,
      "ism": 1029,
      "Ġocc": 1030,
      "anc": 1031,
      "Ġbook": 1032,
      "Ġwee": 1033,
      "Ġstar": 1034,
      "Ġju": 1035,
      "Ġaug": 1036,
      "Ġmed": 1037,
      "Ġkm": 1038,
      "Ġmillion": 1039,
      "Ġlife": 1040,
      "Ġuse": 1041,
      "ible": 1042,
      "Ġmajor": 1043,
      "osed": 1044,
      "ony": 1045,
      "Ġfive": 1046,
      "Ġmag": 1047,
      "Ġsuccess": 1048,
      "Ġ13": 1049,
      "Ġeff": 1050,
      "Ġroad": 1051,
      "Ġaugust": 1052,
      "ouse": 1053,
      "Ġbest": 1054,
      "Ġmiss": 1055,
      "enn": 1056,
      "Ġcamp": 1057,
      "Ġsmall": 1058,
      "Ġsupport": 1059,
      "Ġcommand": 1060,
      "Ġtown": 1061,
      "Ġconc": 1062,
      "Ġra": 1063,
      "Ġschool": 1064,
      "Ġserv": 1065,
      "stem": 1066,
      "Ġty": 1067,
      "Ġgre": 1068,
      "Ġline": 1069,
      "Ġcompany": 1070,
      "Ġche": 1071,
      "Ġcharacter": 1072,
      "ues": 1073,
      "xt": 1074,
      "Ġfinal": 1075,
      "Ġanother": 1076,
      "Ġ195": 1077,
      "Ġcontro": 1078,
      "Ġaward": 1079,
      "Ġbre": 1080,
      "Ġif": 1081,
      "Ġdirect": 1082,
      "Ġriver": 1083,
      "Ġsept": 1084,
      "Ġpublic": 1085,
      "Ġ%": 1086,
      "ets": 1087,
      "Ġjust": 1088,
      "Ġattack": 1089,
      "Ġconsid": 1090,
      "Ġcolle": 1091,
      "ina": 1092,
      "ales": 1093,
      "ient": 1094,
      "Ġge": 1095,
      "Ġfur": 1096,
      "Ġgreat": 1097,
      "Ġsystem": 1098,
      "uth": 1099,
      "Ġseptember": 1100,
      "Ġmid": 1101,
      "Ġstorm": 1102,
      "Ġconf": 1103,
      "Ġclass": 1104,
      "ution": 1105,
      "Ġtit": 1106,
      "Ġhum": 1107,
      "Ġreport": 1108,
      "aining": 1109,
      "Ġprom": 1110,
      "Ġext": 1111,
      "Ġlarge": 1112,
      "Ġaustral": 1113,
      "Ġgames": 1114,
      "Ġwhat": 1115,
      "Ġmy": 1116,
      "ms": 1117,
      "Ġgl": 1118,
      "ural": 1119,
      "Ġtri": 1120,
      "Ġcor": 1121,
      "Ġant": 1122,
      "ven": 1123,
      "Ġ193": 1124,
      "Ġblack": 1125,
      "be": 1126,
      "Ġchild": 1127,
      "Ġwater": 1128,
      "Ġshort": 1129,
      "ble": 1130,
      "over": 1131,
      "Ġla": 1132,
      "Ġ191": 1133,
      "Ġrest": 1134,
      "dom": 1135,
      "Ġdue": 1136,
      "ague": 1137,
      "lish": 1138,
      "Ġii": 1139,
      "Ġir": 1140,
      "Ġrom": 1141,
      "Ġlast": 1142,
      "aving": 1143,
      "Ġnow": 1144,
      "aced": 1145,
      "Ġjune": 1146,
      "ped": 1147,
      "Ġeast": 1148,
      "Ġhistory": 1149,
      "Ġmark": 1150,
      "Ġvide": 1151,
      "ark": 1152,
      "ives": 1153,
      "Ġoct": 1154,
      "Ġlate": 1155,
      "Ġjan": 1156,
      "Ġeven": 1157,
      "ash": 1158,
      "Ġ14": 1159,
      "Ġhome": 1160,
      "Ġname": 1161,
      "Ġway": 1162,
      "ilt": 1163,
      "Ġreview": 1164,
      "ately": 1165,
      "Ġgovernment": 1166,
      "Ġgerman": 1167,
      "Ġbuild": 1168,
      "Ġturn": 1169,
      "Ġmov": 1170,
      "Ġpartic": 1171,
      "Ġes": 1172,
      "ats": 1173,
      "Ġisland": 1174,
      "Ġdem": 1175,
      "ger": 1176,
      "ink": 1177,
      "Ġreceived": 1178,
      "Ġchrist": 1179,
      "ology": 1180,
      "Ġmen": 1181,
      "Ġunivers": 1182,
      "Ġaccord": 1183,
      "Ġvis": 1184,
      "pect": 1185,
      "Ġgun": 1186,
      "ages": 1187,
      "Ġdescribed": 1188,
      "get": 1189,
      "Ġmuch": 1190,
      "Ġhur": 1191,
      "Ġcour": 1192,
      "Ġwithin": 1193,
      "Ġtrack": 1194,
      "Ġclub": 1195,
      "Ġspecies": 1196,
      "ting": 1197,
      "ron": 1198,
      "ober": 1199,
      "Ġincre": 1200,
      "Ġappear": 1201,
      "ody": 1202,
      "hen": 1203,
      "Ġdeath": 1204,
      "Ġhal": 1205,
      "Ġgod": 1206,
      "by": 1207,
      "uary": 1208,
      "ional": 1209,
      "Ġgeneral": 1210,
      "rote": 1211,
      "Ġtop": 1212,
      "Ġintern": 1213,
      "cess": 1214,
      "Ġfamily": 1215,
      "ility": 1216,
      "Ġoctober": 1217,
      "Ġstru": 1218,
      "aged": 1219,
      "Ġplayed": 1220,
      "ae": 1221,
      "Ġ$": 1222,
      "gin": 1223,
      "Ġarch": 1224,
      "ep": 1225,
      "Ġx": 1226,
      "Ġsw": 1227,
      "Ġaccording": 1228,
      "ner": 1229,
      "Ġleague": 1230,
      "Ġtech": 1231,
      "Ġtimes": 1232,
      "sion": 1233,
      "Ġtook": 1234,
      "empt": 1235,
      "Ġcapt": 1236,
      "ropical": 1237,
      "aim": 1238,
      "ball": 1239,
      "ified": 1240,
      "Ġthird": 1241,
      "Ġref": 1242,
      "ants": 1243,
      "Ġleg": 1244,
      "ored": 1245,
      "Ġ[": 1246,
      "Ġ]": 1247,
      "Ġpower": 1248,
      "Ġdel": 1249,
      "ively": 1250,
      "Ġlist": 1251,
      "Ġsingle": 1252,
      "..": 1253,
      "Ġjuly": 1254,
      "Ġ25": 1255,
      "Ġsoc": 1256,
      "Ġwrote": 1257,
      "Ġprote": 1258,
      "ograp": 1259,
      "Ġwon": 1260,
      "Ġmor": 1261,
      "ril": 1262,
      "iving": 1263,
      "ik": 1264,
      "Ġorgan": 1265,
      "Ġvideo": 1266,
      "ians": 1267,
      "ption": 1268,
      "Ġconstru": 1269,
      "ides": 1270,
      "Ġdiffer": 1271,
      "Ġwhite": 1272,
      "Ġ...": 1273,
      "Ġarr": 1274,
      "Ġmarch": 1275,
      "Ġevent": 1276,
      "let": 1277,
      "Ġallow": 1278,
      "Ġappro": 1279,
      "Ġav": 1280,
      "Ġstre": 1281,
      "Ġbased": 1282,
      "Ġdest": 1283,
      "erv": 1284,
      "Ġapril": 1285,
      "Ġposs": 1286,
      "Ġtem": 1287,
      "Ġnort": 1288,
      "Ġstory": 1289,
      "ling": 1290,
      "Ġeuro": 1291,
      "iod": 1292,
      "Ġfore": 1293,
      "Ġval": 1294,
      "oss": 1295,
      "Ġbas": 1296,
      "ital": 1297,
      "ime": 1298,
      "Ġincluded": 1299,
      "Ġsk": 1300,
      "Ġred": 1301,
      "ctions": 1302,
      "Ġcommon": 1303,
      "ai": 1304,
      "hel": 1305,
      "Ġperson": 1306,
      "Ġaddition": 1307,
      "omin": 1308,
      "Ġleft": 1309,
      "Ġbelie": 1310,
      "ham": 1311,
      "Ġyork": 1312,
      "Ġhar": 1313,
      "Ġestab": 1314,
      "Ġjanuary": 1315,
      "Ġthose": 1316,
      "Ġdivision": 1317,
      "ances": 1318,
      "ically": 1319,
      "Ġnamed": 1320,
      "Ġ30": 1321,
      "tend": 1322,
      "akes": 1323,
      "Ġvery": 1324,
      "Ġexpl": 1325,
      "Ġattempt": 1326,
      "Ġengland": 1327,
      "Ġpat": 1328,
      "Ġposition": 1329,
      "Ġperiod": 1330,
      "Ġfoot": 1331,
      "Ġhouse": 1332,
      "Ġresp": 1333,
      "Ġhand": 1334,
      "Ġvill": 1335,
      "Ġprevious": 1336,
      "Ġdece": 1337,
      "ops": 1338,
      "Ġbus": 1339,
      "ster": 1340,
      "Ġsol": 1341,
      "ilar": 1342,
      "ched": 1343,
      "Ġeas": 1344,
      "Ġoriginal": 1345,
      "bo": 1346,
      "aur": 1347,
      "ps": 1348,
      "Ġsom": 1349,
      "ently": 1350,
      "Ġvict": 1351,
      "Ġauth": 1352,
      "Ġheav": 1353,
      "hy": 1354,
      "ulation": 1355,
      "que": 1356,
      "Ġnovember": 1357,
      "pend": 1358,
      "Ġcommun": 1359,
      "Ġmonth": 1360,
      "Ġcal": 1361,
      "Ġplace": 1362,
      "Ġkill": 1363,
      "raft": 1364,
      "Ġeurope": 1365,
      "med": 1366,
      "Ġlight": 1367,
      "Ġchamp": 1368,
      "Ġfield": 1369,
      "Ġtropical": 1370,
      "mber": 1371,
      "Ġstand": 1372,
      "ards": 1373,
      "ience": 1374,
      "mer": 1375,
      "Ġ192": 1376,
      "Ġdecember": 1377,
      "ness": 1378,
      "Ġbuilt": 1379,
      "Ġsimilar": 1380,
      "Ġopp": 1381,
      "Ġsug": 1382,
      "ds": 1383,
      "Ġsent": 1384,
      "Ġtele": 1385,
      "ple": 1386,
      "Ġreal": 1387,
      "Ġamong": 1388,
      "Ġmilit": 1389,
      "Ġsongs": 1390,
      "ached": 1391,
      "Ġhurric": 1392,
      "Ġmake": 1393,
      "Ġled": 1394,
      "Ġwom": 1395,
      "Ġpresent": 1396,
      "ature": 1397,
      "Ġinit": 1398,
      "Ġfurther": 1399,
      "ense": 1400,
      "arch": 1401,
      "eder": 1402,
      "Ġplayer": 1403,
      "Ġlocal": 1404,
      "Ġcur": 1405,
      "ences": 1406,
      "ene": 1407,
      "Ġlaw": 1408,
      "iven": 1409,
      "Ġrequ": 1410,
      "Ġ100": 1411,
      "Ġer": 1412,
      "Ġstill": 1413,
      "na": 1414,
      "Ġtour": 1415,
      "ged": 1416,
      "min": 1417,
      "iation": 1418,
      "Ġfar": 1419,
      "por": 1420,
      "ĠÂ": 1421,
      "Ġje": 1422,
      "Ġnext": 1423,
      "Ġsqu": 1424,
      "ention": 1425,
      "Ġ2009": 1426,
      "gy": 1427,
      "Ġcle": 1428,
      "Ġ2010": 1429,
      "bs": 1430,
      "aster": 1431,
      "Ġfri": 1432,
      "Ġview": 1433,
      "Ġyoun": 1434,
      "Ġbill": 1435,
      "Ġtrad": 1436,
      "Ġ2008": 1437,
      "Ġtot": 1438,
      "Ġsuper": 1439,
      "ison": 1440,
      "Ġpost": 1441,
      "Ġpri": 1442,
      "Ġexper": 1443,
      "Ġrock": 1444,
      "br": 1445,
      "Ġiss": 1446,
      "Ġbrig": 1447,
      "Ġrepl": 1448,
      "Ġrole": 1449,
      "Ġplan": 1450,
      "Ġimport": 1451,
      "Ġhistor": 1452,
      "Ġcoun": 1453,
      "Ġcame": 1454,
      "rench": 1455,
      "Ġside": 1456,
      "Ġfre": 1457,
      "Ġevery": 1458,
      "Ġlow": 1459,
      "Ġlove": 1460,
      "Ġright": 1461,
      "Ġsay": 1462,
      "Ġband": 1463,
      "Ġmoved": 1464,
      "Ġcareer": 1465,
      "Ġcast": 1466,
      "Ġuniversity": 1467,
      "Ġho": 1468,
      "ival": 1469,
      "Ġwithout": 1470,
      "Ġpolit": 1471,
      "Ġeffect": 1472,
      "ott": 1473,
      "Ġoften": 1474,
      "aken": 1475,
      "Ġpark": 1476,
      "Ġrecorded": 1477,
      "Ġfew": 1478,
      "Ġtre": 1479,
      "Ġobs": 1480,
      "aff": 1481,
      "Ġrad": 1482,
      "Ġhurricane": 1483,
      "ories": 1484,
      "Ġchart": 1485,
      "Ġmilitary": 1486,
      "yle": 1487,
      "Ġcaus": 1488,
      "eng": 1489,
      "vers": 1490,
      "Ġprop": 1491,
      "bert": 1492,
      "Ġsuggest": 1493,
      "Ġmemb": 1494,
      "Ġorder": 1495,
      "Ġconsidered": 1496,
      "Ġbattal": 1497,
      "Ġless": 1498,
      "Ġprof": 1499,
      "Ġcontr": 1500,
      "atter": 1501,
      "Ġdeb": 1502,
      "Ġsee": 1503,
      "Ġproject": 1504,
      "Ġproduction": 1505,
      "Ġarmy": 1506,
      "ery": 1507,
      "Ġrelease": 1508,
      "ister": 1509,
      "ady": 1510,
      "Ġ2007": 1511,
      "Ġformer": 1512,
      "Ġassoc": 1513,
      "elt": 1514,
      "Ġlevel": 1515,
      "Ġinfl": 1516,
      "Ġcy": 1517,
      "Ġresult": 1518,
      "ior": 1519,
      "Ġsold": 1520,
      "Ġbeh": 1521,
      "Ġenglish": 1522,
      "ico": 1523,
      "Ġweek": 1524,
      "Ġfire": 1525,
      "Ġfrench": 1526,
      "ots": 1527,
      "uted": 1528,
      "app": 1529,
      "Ġnever": 1530,
      "Ġwal": 1531,
      "Ġclaim": 1532,
      "Ġfun": 1533,
      "thing": 1534,
      "Ġpoint": 1535,
      "Ġbattle": 1536,
      "Ġtake": 1537,
      "Ġdet": 1538,
      "Ġrefer": 1539,
      "Ġha": 1540,
      "Ġpublished": 1541,
      "Ġrepres": 1542,
      "Ġang": 1543,
      "wards": 1544,
      "Ġwritten": 1545,
      "Ġhalf": 1546,
      "Ġdifferent": 1547,
      "self": 1548,
      "Ġfeder": 1549,
      "Ġcontinued": 1550,
      "inc": 1551,
      "Ġroy": 1552,
      "uss": 1553,
      "Ġdays": 1554,
      "gram": 1555,
      "ves": 1556,
      "ada": 1557,
      "Ġheld": 1558,
      "Ġforces": 1559,
      "Ġmanag": 1560,
      "Ġinternational": 1561,
      "Ġauthor": 1562,
      "side": 1563,
      "Ġcro": 1564,
      "Ġnight": 1565,
      "Ġdefe": 1566,
      "Ġpit": 1567,
      "Ġroute": 1568,
      "Ġstrong": 1569,
      "ler": 1570,
      "Ġdesp": 1571,
      "Ġcat": 1572,
      "Ġ21": 1573,
      "Ġnav": 1574,
      "ret": 1575,
      "Ġpress": 1576,
      "Ġforce": 1577,
      "Ġprot": 1578,
      "Ġgood": 1579,
      "par": 1580,
      "ission": 1581,
      "Ġfriend": 1582,
      "ches": 1583,
      "Ġsound": 1584,
      "Ġcult": 1585,
      "iter": 1586,
      "iment": 1587,
      "Ġcross": 1588,
      "Ġstat": 1589,
      "Ġhy": 1590,
      "Ġjack": 1591,
      "vision": 1592,
      "Ġgold": 1593,
      "idge": 1594,
      "Ġcounty": 1595,
      "Ġhaving": 1596,
      "Ġchang": 1597,
      "Ġcompet": 1598,
      "Ġwat": 1599,
      "estern": 1600,
      "erc": 1601,
      "Ġ23": 1602,
      "Ġthroughout": 1603,
      "Ġcontrol": 1604,
      "Ġchampions": 1605,
      "Ġmembers": 1606,
      "itar": 1607,
      "Ġ2011": 1608,
      "Ġsum": 1609,
      "Ġec": 1610,
      "Ġbecome": 1611,
      "Ġ2006": 1612,
      "raw": 1613,
      "ensive": 1614,
      "Ġpopular": 1615,
      "Ġchildren": 1616,
      "Ġparticular": 1617,
      "line": 1618,
      "rodu": 1619,
      "Ġgrand": 1620,
      "Ġcomb": 1621,
      "Ġversion": 1622,
      "Ġtotal": 1623,
      "Ġpa": 1624,
      "arn": 1625,
      "Ġdevelopment": 1626,
      "Ġearl": 1627,
      "Ġtitle": 1628,
      "Ġfac": 1629,
      "bru": 1630,
      "ring": 1631,
      "ising": 1632,
      "ices": 1633,
      "Ġlost": 1634,
      "ize": 1635,
      "Ġ&": 1636,
      "enc": 1637,
      "Ġcountry": 1638,
      "augh": 1639,
      "ford": 1640,
      "Ġnet": 1641,
      "Ġ24": 1642,
      "Ġhighway": 1643,
      "Ġroman": 1644,
      "Ġham": 1645,
      "Ġfle": 1646,
      "Ġpal": 1647,
      "Ġcover": 1648,
      "Ġinde": 1649,
      "Ġprogram": 1650,
      "Ġdespite": 1651,
      "ob": 1652,
      "Ġfem": 1653,
      "roy": 1654,
      "Ġlive": 1655,
      "Ġlitt": 1656,
      "Ġ22": 1657,
      "Ġ26": 1658,
      "ering": 1659,
      "Ġpur": 1660,
      "Ġdecl": 1661,
      "Ġdon": 1662,
      "Ġeight": 1663,
      "Ġsouther": 1664,
      "day": 1665,
      "Ġsit": 1666,
      "Ġlittle": 1667,
      "Ġsouthern": 1668,
      "ston": 1669,
      "Ġfort": 1670,
      "Ġwant": 1671,
      "Ġrich": 1672,
      "itions": 1673,
      "Ġfebru": 1674,
      "Ġcritic": 1675,
      "Ġfebruary": 1676,
      "Ġcentral": 1677,
      "Ġrepresent": 1678,
      "Ġmount": 1679,
      "Ġreported": 1680,
      "Ġactiv": 1681,
      "Ġgave": 1682,
      "Ġproduced": 1683,
      "ylan": 1684,
      "Ġgeor": 1685,
      "me": 1686,
      "Ġ!": 1687,
      "Ġtro": 1688,
      "Ġdylan": 1689,
      "Ġhuman": 1690,
      "co": 1691,
      "ara": 1692,
      "osp": 1693,
      "Ġsite": 1694,
      "Ġinflu": 1695,
      "Ġfree": 1696,
      "Ġord": 1697,
      "ailed": 1698,
      "Ġtelevision": 1699,
      "sh": 1700,
      "Ġonce": 1701,
      "Ġ2012": 1702,
      "Ġwriting": 1703,
      "Ġgiven": 1704,
      "hern": 1705,
      "iety": 1706,
      "Ġhor": 1707,
      "Ġlab": 1708,
      "Ġhero": 1709,
      "ried": 1710,
      "apan": 1711,
      "Ġmodern": 1712,
      "Ġcoast": 1713,
      "Ġpresident": 1714,
      "Ġservice": 1715,
      "che": 1716,
      "ertain": 1717,
      "Ġground": 1718,
      "ama": 1719,
      "Ġce": 1720,
      "Ġ28": 1721,
      "Ġnorthern": 1722,
      "Ġyoung": 1723,
      "Ġage": 1724,
      "Ġsun": 1725,
      "ression": 1726,
      "ney": 1727,
      "Ġmatch": 1728,
      "Ġequ": 1729,
      "Ġsignific": 1730,
      "Ġjapan": 1731,
      "ead": 1732,
      "fect": 1733,
      "Ġmass": 1734,
      "Ġvi": 1735,
      "Ġinclude": 1736,
      "Ġinvol": 1737,
      "Ġarg": 1738,
      "Ġwestern": 1739,
      "ably": 1740,
      "xim": 1741,
      "Ġlim": 1742,
      "Ġve": 1743,
      "Ġill": 1744,
      "Ġball": 1745,
      "Ġroyal": 1746,
      "Ġly": 1747,
      "Ġburn": 1748,
      "Ġmi": 1749,
      "ours": 1750,
      "Ġbattalion": 1751,
      "Ġafric": 1752,
      "rent": 1753,
      "Ġseven": 1754,
      "Ġcou": 1755,
      "Ġmaking": 1756,
      "Ġshould": 1757,
      "Ġaway": 1758,
      "Ġbody": 1759,
      "atic": 1760,
      "Ġrac": 1761,
      "Ġeastern": 1762,
      "Ġwood": 1763,
      "Ġdou": 1764,
      "Ġdav": 1765,
      "Ġstruct": 1766,
      "Ġoccur": 1767,
      "Ġestabl": 1768,
      "Ġtor": 1769,
      "Ġ2013": 1770,
      "Ġtechn": 1771,
      "Ġtoo": 1772,
      "Ġseen": 1773,
      "Ġlook": 1774,
      "craft": 1775,
      "ades": 1776,
      "Ġfif": 1777,
      "Ġstated": 1778,
      "Ġten": 1779,
      "Ġft": 1780,
      "ither": 1781,
      "play": 1782,
      "amb": 1783,
      "Ġfather": 1784,
      "Ġacross": 1785,
      "Ġreturned": 1786,
      "ax": 1787,
      "Ġdev": 1788,
      "sequ": 1789,
      "Ġinstead": 1790,
      "Ġ50": 1791,
      "Ġships": 1792,
      "ones": 1793,
      "ator": 1794,
      "Ġprim": 1795,
      "Ġguitar": 1796,
      "Ġdestroy": 1797,
      "Ġestablished": 1798,
      "Ġire": 1799,
      "ological": 1800,
      "ape": 1801,
      "Ġcas": 1802,
      "Ġbur": 1803,
      "Ġpra": 1804,
      "Ġusing": 1805,
      "Ġnews": 1806,
      "Ġconv": 1807,
      "Ġtyp": 1808,
      "fic": 1809,
      "Ġfact": 1810,
      "Ġ190": 1811,
      "ploy": 1812,
      "com": 1813,
      "inted": 1814,
      "Ġpopulation": 1815,
      "Ġconstruction": 1816,
      "Ġson": 1817,
      "Ġfull": 1818,
      "Ġamerica": 1819,
      "Ġnoted": 1820,
      "Ġannoun": 1821,
      "ese": 1822,
      "Ġchampionship": 1823,
      "Ġhig": 1824,
      "Ġbroad": 1825,
      "Ġreached": 1826,
      "Ġintrodu": 1827,
      "ground": 1828,
      "Ġ27": 1829,
      "Ġdeveloped": 1830,
      "Ġbuilding": 1831,
      "Ġfootball": 1832,
      "Ġciv": 1833,
      "Ġbi": 1834,
      "Ġmix": 1835,
      "aint": 1836,
      "Ġthought": 1837,
      "Ġplayers": 1838,
      "Ġireland": 1839,
      "used": 1840,
      "ument": 1841,
      "Ġbrigade": 1842,
      "Ġmich": 1843,
      "Ġmean": 1844,
      "Ġvarious": 1845,
      "Ġlond": 1846,
      "Ġworks": 1847,
      "Ġsignificant": 1848,
      "ille": 1849,
      "Ġengine": 1850,
      "Ġimportant": 1851,
      "Ġvir": 1852,
      "most": 1853,
      "Ġread": 1854,
      "Ġtrav": 1855,
      "Ġperformance": 1856,
      "rew": 1857,
      "Ġwilliam": 1858,
      "Ġmiles": 1859,
      "Ġlondon": 1860,
      "utes": 1861,
      "Ġfind": 1862,
      "Ġindust": 1863,
      "Ġhimself": 1864,
      "Ġdiscover": 1865,
      "Ġkingdom": 1866,
      "Ġide": 1867,
      "Ġstyle": 1868,
      "Ġneed": 1869,
      "iness": 1870,
      "work": 1871,
      "Ġbird": 1872,
      "Ġfig": 1873,
      "ened": 1874,
      "Ġfront": 1875,
      "Ġperformed": 1876,
      "Ġfelt": 1877,
      "idence": 1878,
      "Ġelect": 1879,
      "Ġaustralia": 1880,
      "Ġfall": 1881,
      "ended": 1882,
      "Ġtur": 1883,
      "Ġcir": 1884,
      "aren": 1885,
      "Ġbrown": 1886,
      "Ġofficial": 1887,
      "Ġcup": 1888,
      "Ġod": 1889,
      "Ġput": 1890,
      "Ġareas": 1891,
      "Ġfeet": 1892,
      "Ġinterest": 1893,
      "Ġwent": 1894,
      "Ġsuff": 1895,
      "Ġevents": 1896,
      "lo": 1897,
      "mp": 1898,
      "itive": 1899,
      "Ġdoes": 1900,
      "Ġphil": 1901,
      "Ġcivil": 1902,
      "ald": 1903,
      "Ġbegin": 1904,
      "Ġvol": 1905,
      "Ġol": 1906,
      "Ġbow": 1907,
      "Ġmm": 1908,
      "Ġhen": 1909,
      "Ġpoem": 1910,
      "Ġrelations": 1911,
      "Ġmer": 1912,
      "Ġmot": 1913,
      "Ġmother": 1914,
      "Ġdied": 1915,
      "Ġlet": 1916,
      "Ġsett": 1917,
      "ucle": 1918,
      "Ġcourt": 1919,
      "Ġlang": 1920,
      "Ġrange": 1921,
      "osaur": 1922,
      "Ġrelig": 1923,
      "Ġcer": 1924,
      "Ġdi": 1925,
      "ief": 1926,
      "ges": 1927,
      "Ġvo": 1928,
      "Ġearth": 1929,
      "Ġsurv": 1930,
      "Ġsuccessful": 1931,
      "ogn": 1932,
      "Ġothers": 1933,
      "aign": 1934,
      "Ġwall": 1935,
      "antic": 1936,
      "Ġoriginally": 1937,
      "ung": 1938,
      "reek": 1939,
      "Ġcampaign": 1940,
      "ael": 1941,
      "field": 1942,
      "yn": 1943,
      "Ġtest": 1944,
      "Ġgal": 1945,
      "Ġget": 1946,
      "ript": 1947,
      "Ġupon": 1948,
      "Ġstars": 1949,
      "Ġbase": 1950,
      "ana": 1951,
      "Ġsn": 1952,
      "ization": 1953,
      "Ġnovel": 1954,
      "Ġstarted": 1955,
      "Ġjames": 1956,
      "Ġformed": 1957,
      "Ġknow": 1958,
      "Ġcharacters": 1959,
      "Ġpolitical": 1960,
      "gress": 1961,
      "Ġsal": 1962,
      "Ġhom": 1963,
      "Ġprofess": 1964,
      "ints": 1965,
      "iting": 1966,
      "Ġnon": 1967,
      "omb": 1968,
      "Ġwomen": 1969,
      "ration": 1970,
      "ination": 1971,
      "onom": 1972,
      "Ġpred": 1973,
      "Ġspecial": 1974,
      "af": 1975,
      "ino": 1976,
      "ush": 1977,
      "Ġpromot": 1978,
      "ship": 1979,
      "cil": 1980,
      "ked": 1981,
      "ying": 1982,
      "Ġscient": 1983,
      "Ġtradition": 1984,
      "Ġpen": 1985,
      "Ġcaused": 1986,
      "Ġhold": 1987,
      "rick": 1988,
      "Ġlocated": 1989,
      "Ġeventually": 1990,
      "Ġword": 1991,
      "Ġrese": 1992,
      "rie": 1993,
      "Ġhill": 1994,
      "aves": 1995,
      "Ġdirector": 1996,
      "ze": 1997,
      "iers": 1998,
      "alth": 1999,
      "Ġhot": 2000,
      "Ġcenter": 2001,
      "Ġcreated": 2002,
      "Ġstreet": 2003,
      "Ġable": 2004,
      "Ġregion": 2005,
      "Ġcritics": 2006,
      "Ġ189": 2007,
      "Ġentire": 2008,
      "fall": 2009,
      "Ġ2004": 2010,
      "Ġatl": 2011,
      "isted": 2012,
      "Ġ2005": 2013,
      "Ġproduc": 2014,
      "cher": 2015,
      "Ġhol": 2016,
      "ament": 2017,
      "Ġaud": 2018,
      "Ġmagaz": 2019,
      "less": 2020,
      "Ġber": 2021,
      "Ġborn": 2022,
      "Ġfight": 2023,
      "Ġanim": 2024,
      "Ġindepend": 2025,
      "Ġtom": 2026,
      "cut": 2027,
      "ality": 2028,
      "Ġcop": 2029,
      "Ġfav": 2030,
      "Ġnucle": 2031,
      "acy": 2032,
      "Ġcolon": 2033,
      "Ġsan": 2034,
      "Ġdu": 2035,
      "Ġtoget": 2036,
      "Ġtogether": 2037,
      "Ġbir": 2038,
      "Ġgrow": 2039,
      "Ġmeet": 2040,
      "Ġbecom": 2041,
      "Ġbay": 2042,
      "Ġinn": 2043,
      "asing": 2044,
      "Ġstri": 2045,
      "Ġchap": 2046,
      "Ġheavy": 2047,
      "Ġcirc": 2048,
      "ĠâĢĻ": 2049,
      "aly": 2050,
      "Ġredu": 2051,
      "ries": 2052,
      "ample": 2053,
      "Ġhelp": 2054,
      "Ġsex": 2055,
      "Ġdiffic": 2056,
      "Ġguns": 2057,
      "Ġdifficult": 2058,
      "Ġremained": 2059,
      "Ġhon": 2060,
      "Ġcond": 2061,
      "Ġdepart": 2062,
      "Ġagre": 2063,
      "Ġgoal": 2064,
      "Ġcompleted": 2065,
      "Ġden": 2066,
      "Ġnat": 2067,
      "Ġnar": 2068,
      "Ġscored": 2069,
      "Ġvoc": 2070,
      "orts": 2071,
      "Ġ31": 2072,
      "iated": 2073,
      "Ġloss": 2074,
      "ivid": 2075,
      "Ġaustralian": 2076,
      "Ġforest": 2077,
      "Ġannounced": 2078,
      "Ġprocess": 2079,
      "Ġfourth": 2080,
      "Ġsil": 2081,
      "Ġmem": 2082,
      "Ġalmost": 2083,
      "Ġcomment": 2084,
      "Ġcoll": 2085,
      "Ġpeak": 2086,
      "Ġdamage": 2087,
      "Ġaver": 2088,
      "itted": 2089,
      "Ġmad": 2090,
      "enth": 2091,
      "ids": 2092,
      "ota": 2093,
      "Ġcondom": 2094,
      "Ġjour": 2095,
      "Ġleast": 2096,
      "Ġenc": 2097,
      "Ġbehind": 2098,
      "Ġcell": 2099,
      "enced": 2100,
      "Ġmac": 2101,
      "Ġsea": 2102,
      "Ġparty": 2103,
      "rought": 2104,
      "Ġrail": 2105,
      "Ġadded": 2106,
      "ique": 2107,
      "Ġ29": 2108,
      "Ġaccom": 2109,
      "Ġterrit": 2110,
      "ray": 2111,
      "ream": 2112,
      "Ġwife": 2113,
      "Ġfollowed": 2114,
      "Ġmonths": 2115,
      "Ġkilled": 2116,
      "Ġappeared": 2117,
      "Ġident": 2118,
      "onic": 2119,
      "Ġquar": 2120,
      "Ġsquad": 2121,
      "Ġrelationship": 2122,
      "bor": 2123,
      "Ġinform": 2124,
      "Ġplaying": 2125,
      "Ġindivid": 2126,
      "Ġfa": 2127,
      "Ġhall": 2128,
      "Ġround": 2129,
      "Ġsat": 2130,
      "Ġsele": 2131,
      "Ġawards": 2132,
      "Ġdavid": 2133,
      "den": 2134,
      "een": 2135,
      "ius": 2136,
      "ki": 2137,
      "ole": 2138,
      "Ġsour": 2139,
      "Ġstation": 2140,
      "Ġrecogn": 2141,
      "Ġ40": 2142,
      "Ġmc": 2143,
      "Ġfeatures": 2144,
      "Ġjew": 2145,
      "Ġtrib": 2146,
      "aces": 2147,
      "Ġru": 2148,
      "aper": 2149,
      "Ġhard": 2150,
      "antry": 2151,
      "Ġflight": 2152,
      "ressed": 2153,
      "Ġaircraft": 2154,
      "dle": 2155,
      "tim": 2156,
      "wh": 2157,
      "Ġach": 2158,
      "Ġmach": 2159,
      "Ġestim": 2160,
      "Ġcard": 2161,
      "Ġbra": 2162,
      "Ġ2003": 2163,
      "Ġparl": 2164,
      "Ġappo": 2165,
      "Ġwind": 2166,
      "ming": 2167,
      "Ġtreat": 2168,
      "Ġtaken": 2169,
      "Ġder": 2170,
      "Ġ185": 2171,
      "Ġreb": 2172,
      "ways": 2173,
      "Ġfleet": 2174,
      "Ġsaw": 2175,
      "Ġlack": 2176,
      "olution": 2177,
      "pec": 2178,
      "Ġexc": 2179,
      "elling": 2180,
      "Ġ2015": 2181,
      "mar": 2182,
      "Ġcreat": 2183,
      "Ġfund": 2184,
      "Ġul": 2185,
      "Ġrank": 2186,
      "ully": 2187,
      "ements": 2188,
      "Ġfrance": 2189,
      "Ġsubsequ": 2190,
      "Ġleading": 2191,
      "Ġlangu": 2192,
      "Ġaction": 2193,
      "Ġtal": 2194,
      "Ġimpro": 2195,
      "Ġmater": 2196,
      "Ġeither": 2197,
      "Ġsepar": 2198,
      "emy": 2199,
      "Ġproble": 2200,
      "Ġserved": 2201,
      "Ġrecording": 2202,
      "Ġtowards": 2203,
      "ida": 2204,
      "istic": 2205,
      "Ġparliam": 2206,
      "go": 2207,
      "Ġcase": 2208,
      "Ġoperations": 2209,
      "Ġarchae": 2210,
      "ography": 2211,
      "Ġlos": 2212,
      "Ġflor": 2213,
      "Ġtransport": 2214,
      "Ġdecided": 2215,
      "Ġclos": 2216,
      "Ġwid": 2217,
      "ata": 2218,
      "Ġrul": 2219,
      "Ġelements": 2220,
      "Ġpast": 2221,
      "Ġdraw": 2222,
      "Ġhost": 2223,
      "Ġclose": 2224,
      "Ġinterv": 2225,
      "Ġsoon": 2226,
      "my": 2227,
      "Ġrobert": 2228,
      "Ġprem": 2229,
      "Ġrecords": 2230,
      "cent": 2231,
      "fe": 2232,
      "Ġcommerc": 2233,
      "Ġaccept": 2234,
      "Ġgenerally": 2235,
      "Ġbelieved": 2236,
      "Ġmagazine": 2237,
      "ctor": 2238,
      "Ġmove": 2239,
      "igned": 2240,
      "Ġflood": 2241,
      "Ġcurrent": 2242,
      "ency": 2243,
      "Ġparliament": 2244,
      "Ġtow": 2245,
      "Ġrap": 2246,
      "Ġrose": 2247,
      "Ġcompos": 2248,
      "Ġcost": 2249,
      "iction": 2250,
      "Ġcouncil": 2251,
      "rest": 2252,
      "Ġmeas": 2253,
      "rict": 2254,
      "Ġcarey": 2255,
      "Ġfemale": 2256,
      "ned": 2257,
      "Ġreach": 2258,
      "Ġkh": 2259,
      "Ġexample": 2260,
      "ude": 2261,
      "Ġmex": 2262,
      "ought": 2263,
      "Ġlaun": 2264,
      "Ġgir": 2265,
      "Ġconn": 2266,
      "Ġcommission": 2267,
      "Ġrespect": 2268,
      "Ġregular": 2269,
      "Ġinfantry": 2270,
      "Ġmanager": 2271,
      "ike": 2272,
      "Ġdomin": 2273,
      "Ġpoints": 2274,
      "Ġbusiness": 2275,
      "su": 2276,
      "Ġq": 2277,
      "Ġcru": 2278,
      "Ġfly": 2279,
      "Ġ188": 2280,
      "Ġweeks": 2281,
      "Ġbal": 2282,
      "Ġrather": 2283,
      "Ġstudy": 2284,
      "Ġstop": 2285,
      "Ġeuropean": 2286,
      "ye": 2287,
      "Ġexe": 2288,
      "Ġoutside": 2289,
      "Ġfederer": 2290,
      "nes": 2291,
      "ators": 2292,
      "Ġbeg": 2293,
      "odes": 2294,
      "Ġeduc": 2295,
      "Ġopened": 2296,
      "hic": 2297,
      "Ġcut": 2298,
      "Ġbrought": 2299,
      "Ġfoc": 2300,
      "Ġ35": 2301,
      "Ġadm": 2302,
      "Ġfinished": 2303,
      "Ġregard": 2304,
      "Ġdirected": 2305,
      "tended": 2306,
      "Ġviet": 2307,
      "Ġblue": 2308,
      "tt": 2309,
      "uck": 2310,
      "Ġwales": 2311,
      "ceed": 2312,
      "cast": 2313,
      "uter": 2314,
      "imes": 2315,
      "umb": 2316,
      "Ġyard": 2317,
      "Ġtype": 2318,
      "Ġesc": 2319,
      "Ġearlier": 2320,
      "lic": 2321,
      "Ġbey": 2322,
      "Ġinvest": 2323,
      "Ġfeatured": 2324,
      "Ġachie": 2325,
      "Ġstage": 2326,
      "Ġunion": 2327,
      "Ġsecret": 2328,
      "Ġze": 2329,
      "Ġvictory": 2330,
      "king": 2331,
      "read": 2332,
      "Ġbig": 2333,
      "Ġmos": 2334,
      "Ġmember": 2335,
      "Ġrain": 2336,
      "Ġsequ": 2337,
      "Ġven": 2338,
      "Ġsym": 2339,
      "Ġanti": 2340,
      "ma": 2341,
      "Ġur": 2342,
      "Ġcam": 2343,
      "anch": 2344,
      "ordan": 2345,
      "Ġpriv": 2346,
      "Ġmuse": 2347,
      "board": 2348,
      "wood": 2349,
      "here": 2350,
      "Ġmcc": 2351,
      "Ġhit": 2352,
      "Ġcondu": 2353,
      "Ġanc": 2354,
      "Ġprob": 2355,
      "Ġinsp": 2356,
      "Ġradio": 2357,
      "Ġath": 2358,
      "Ġrace": 2359,
      "Ġ-": 2360,
      "Ġwil": 2361,
      "action": 2362,
      "Ġprovided": 2363,
      "Ġassociation": 2364,
      "Ġstay": 2365,
      "Ġindic": 2366,
      "Ġworking": 2367,
      "Ġopening": 2368,
      "Ġappearance": 2369,
      "Ġvillage": 2370,
      "Ġtroops": 2371,
      "eler": 2372,
      "Ġjordan": 2373,
      "Ġdeal": 2374,
      "Ġroom": 2375,
      "Ġsyn": 2376,
      "Ġwanted": 2377,
      "Ġmult": 2378,
      "ential": 2379,
      "Ġwinds": 2380,
      "Ġreason": 2381,
      "Ġthom": 2382,
      "Ġneg": 2383,
      "ellow": 2384,
      "Ġ186": 2385,
      "Ġpract": 2386,
      "Ġparticularly": 2387,
      "ania": 2388,
      "Ġatlantic": 2389,
      "Ġgirl": 2390,
      "Ġpot": 2391,
      "Ġnorm": 2392,
      "Ġreve": 2393,
      "Ġsho": 2394,
      "Ġ2014": 2395,
      "Ġminor": 2396,
      "Ġdepression": 2397,
      "Ġcrew": 2398,
      "Ġinitially": 2399,
      "Ġsummer": 2400,
      "iding": 2401,
      "aps": 2402,
      "ishing": 2403,
      "Ġevidence": 2404,
      "Ġinstit": 2405,
      "Ġmiddle": 2406,
      "Ġchristian": 2407,
      "Ġsocial": 2408,
      "medi": 2409,
      "Ġmuseum": 2410,
      "hest": 2411,
      "Ġmary": 2412,
      "Ġleng": 2413,
      "Ġgar": 2414,
      "Ġcome": 2415,
      "Ġoffice": 2416,
      "Ġlargest": 2417,
      "Ġclear": 2418,
      "sel": 2419,
      "Ġmur": 2420,
      "Ġkil": 2421,
      "Ġgeorge": 2422,
      "erous": 2423,
      "Ġsus": 2424,
      "ington": 2425,
      "Ġdeter": 2426,
      "Ġexist": 2427,
      "Ġpossible": 2428,
      "west": 2429,
      "oring": 2430,
      "Ġcho": 2431,
      "ago": 2432,
      "Ġabove": 2433,
      "Ġcommercial": 2434,
      "Ġban": 2435,
      "atin": 2436,
      "thod": 2437,
      "Ġ500": 2438,
      "ky": 2439,
      "onst": 2440,
      "Ġstren": 2441,
      "Ġyards": 2442,
      "Ġkey": 2443,
      "Ġmaterial": 2444,
      "gg": 2445,
      "ugh": 2446,
      "áĥ": 2447,
      "Ġmust": 2448,
      "ett": 2449,
      "ounted": 2450,
      "Ġspace": 2451,
      "Ġfeel": 2452,
      "Ġflorida": 2453,
      "val": 2454,
      "head": 2455,
      "Ġwild": 2456,
      "ita": 2457,
      "Ġresul": 2458,
      "Ġregiment": 2459,
      "Ġallowed": 2460,
      "Ġprior": 2461,
      "Ġsaying": 2462,
      "Ġnine": 2463,
      "Ġjud": 2464,
      "Ġacad": 2465,
      "Ġemploy": 2466,
      "Ġrespons": 2467,
      "Ġhours": 2468,
      "ouri": 2469,
      "Ġbrother": 2470,
      "Ġcritical": 2471,
      "Ġsomet": 2472,
      "Ġpaul": 2473,
      "Ġhorse": 2474,
      "Ġviol": 2475,
      "Ġoliv": 2476,
      "Ġquarter": 2477,
      "Ġaut": 2478,
      "Ġcreek": 2479,
      "Ġfut": 2480,
      "Ġrepubl": 2481,
      "Ġoperation": 2482,
      "Ġlower": 2483,
      "Ġwhom": 2484,
      "Ġeconom": 2485,
      "Ġlength": 2486,
      "Ġstreng": 2487,
      "men": 2488,
      "off": 2489,
      "Ġpain": 2490,
      "Ġliter": 2491,
      "Ġquick": 2492,
      "Ġlik": 2493,
      "Ġspecific": 2494,
      "Ġreception": 2495,
      "Ġmissouri": 2496,
      "Ġcycl": 2497,
      "Ġresearch": 2498,
      "Ġfood": 2499,
      "Ġseem": 2500,
      "Ġ2001": 2501,
      "Ġworked": 2502,
      "Ġpolice": 2503,
      "Ġsociety": 2504,
      "oon": 2505,
      "ville": 2506,
      "Ġsam": 2507,
      "aries": 2508,
      "Ġnomin": 2509,
      "Ġpoor": 2510,
      "Ġdesigned": 2511,
      "Ġcommunity": 2512,
      "ha": 2513,
      "Ġpac": 2514,
      "iff": 2515,
      "Ġpreviously": 2516,
      "sc": 2517,
      "Ġdoc": 2518,
      "Ġbreak": 2519,
      "Ġforced": 2520,
      "Ġgoals": 2521,
      "nal": 2522,
      "Ġheart": 2523,
      "vert": 2524,
      "Ġremains": 2525,
      "Ġera": 2526,
      "Ġpraised": 2527,
      "for": 2528,
      "uel": 2529,
      "aland": 2530,
      "Ġdom": 2531,
      "Ġcapital": 2532,
      "reg": 2533,
      "Ġmart": 2534,
      "Ġthreat": 2535,
      "Ġshot": 2536,
      "Ġindian": 2537,
      "Ġmont": 2538,
      "Ġphys": 2539,
      "Ġincreased": 2540,
      "Ġmichael": 2541,
      "ores": 2542,
      "Ġavail": 2543,
      "rated": 2544,
      "Ġny": 2545,
      "Ġstone": 2546,
      "Ġscre": 2547,
      "Ġdiss": 2548,
      "Ġ187": 2549,
      "Ġ1970": 2550,
      "Ġmedia": 2551,
      "Ġinterview": 2552,
      "uation": 2553,
      "Ġtheat": 2554,
      "Ġhous": 2555,
      "Ġhosp": 2556,
      "Ġuk": 2557,
      "Ġsurf": 2558,
      "Ġbackground": 2559,
      "gypt": 2560,
      "oid": 2561,
      "pr": 2562,
      "heast": 2563,
      "itz": 2564,
      "ari": 2565,
      "Ġunits": 2566,
      "ession": 2567,
      "Ġstudio": 2568,
      "Ġcommander": 2569,
      "Ġtaking": 2570,
      "Ġegypt": 2571,
      "ula": 2572,
      "Ġproper": 2573,
      "clus": 2574,
      "Ġwriter": 2575,
      "ĠÂ£": 2576,
      "Ġreplaced": 2577,
      "je": 2578,
      "Ġface": 2579,
      "Ġparts": 2580,
      "oney": 2581,
      "Ġmaint": 2582,
      "hens": 2583,
      "Ġrichard": 2584,
      "Ġrepublic": 2585,
      "xas": 2586,
      "asion": 2587,
      "lement": 2588,
      "ributed": 2589,
      "Ġnavy": 2590,
      "Ġindustry": 2591,
      "ving": 2592,
      "erved": 2593,
      "Ġren": 2594,
      "abit": 2595,
      "Ġassist": 2596,
      "Ġsubst": 2597,
      "Ġapproxim": 2598,
      "band": 2599,
      "olic": 2600,
      "Ġdead": 2601,
      "Ġsection": 2602,
      "Ġcommit": 2603,
      "anned": 2604,
      "Ġcollege": 2605,
      "Ġreligious": 2606,
      "Ġbod": 2607,
      "Ġpie": 2608,
      "Ġreviews": 2609,
      "Ġhighest": 2610,
      "Ġhenry": 2611,
      "Ġhapp": 2612,
      "ste": 2613,
      "Ġ2000": 2614,
      "Ġcanada": 2615,
      "Ġobject": 2616,
      "ĠÂ°": 2617,
      "Ġclaimed": 2618,
      "Ġbeginning": 2619,
      "Ġestimated": 2620,
      "ih": 2621,
      "Ġcertain": 2622,
      "atory": 2623,
      "Ġpay": 2624,
      "Ġmph": 2625,
      "ask": 2626,
      "Ġrang": 2627,
      "Ġexcept": 2628,
      "Ġimm": 2629,
      "Ġcarol": 2630,
      "Ġox": 2631,
      "ites": 2632,
      "ulf": 2633,
      "ibility": 2634,
      "Ġcanad": 2635,
      "Ġjoined": 2636,
      "Ġ1990": 2637,
      "Ġoldham": 2638,
      "Ġobserv": 2639,
      "Ġtravel": 2640,
      "Ġconnect": 2641,
      "yer": 2642,
      "Ġlines": 2643,
      "ump": 2644,
      "Ġplaced": 2645,
      "Ġ36": 2646,
      "Ġgrad": 2647,
      "Ġassemb": 2648,
      "Ġgreen": 2649,
      "Ġjapanese": 2650,
      "Ġaverage": 2651,
      "Ġdig": 2652,
      "stand": 2653,
      "Ġstories": 2654,
      "ulated": 2655,
      "Ġchange": 2656,
      "ription": 2657,
      "Ġtraining": 2658,
      "Ġsigned": 2659,
      "Ġsuggested": 2660,
      "Ġinvolved": 2661,
      "cutive": 2662,
      "Ġbab": 2663,
      "unk": 2664,
      "Ġintens": 2665,
      "Ġincreasing": 2666,
      "Ġintroduced": 2667,
      "ties": 2668,
      "Ġca": 2669,
      "Ġunc": 2670,
      "elled": 2671,
      "Ġscen": 2672,
      "Ġitself": 2673,
      "Ġ45": 2674,
      "Ġpoet": 2675,
      "Ġ183": 2676,
      "Ġimmedi": 2677,
      "Ġtransfer": 2678,
      "Ġvietn": 2679,
      "Ġsometimes": 2680,
      "Ġour": 2681,
      "Ġinj": 2682,
      "Ġtoday": 2683,
      "Ġchic": 2684,
      "Ġarab": 2685,
      "Ġterm": 2686,
      "Ġoccup": 2687,
      "Ġstructure": 2688,
      "Ġathlet": 2689,
      "Ġolivier": 2690,
      "gen": 2691,
      "rison": 2692,
      "Ġpu": 2693,
      "Ġmal": 2694,
      "imin": 2695,
      "aker": 2696,
      "Ġscene": 2697,
      "Ġgoing": 2698,
      "Ġcomplete": 2699,
      "Ġprotest": 2700,
      "Ġmexico": 2701,
      "back": 2702,
      "gl": 2703,
      "Ġmale": 2704,
      "Ġhun": 2705,
      "Ġnames": 2706,
      "Ġgive": 2707,
      "anna": 2708,
      "Ġirish": 2709,
      "of": 2710,
      "ready": 2711,
      "Ġthus": 2712,
      "Ġsem": 2713,
      "Ġabs": 2714,
      "Ġamb": 2715,
      "Ġindia": 2716,
      "Ġairport": 2717,
      "Ġadditional": 2718,
      "Ġavailable": 2719,
      "ining": 2720,
      "Ġdate": 2721,
      "Ġstaff": 2722,
      "Ġran": 2723,
      "Ġlanguage": 2724,
      "down": 2725,
      "ica": 2726,
      "Ġwhose": 2727,
      "aph": 2728,
      "Ġplot": 2729,
      "Ġremov": 2730,
      "Ġnearly": 2731,
      "Ġfifth": 2732,
      "ases": 2733,
      "Ġtold": 2734,
      "ume": 2735,
      "pected": 2736,
      "porary": 2737,
      "Ġthomas": 2738,
      "Ġast": 2739,
      "Ġsen": 2740,
      "arily": 2741,
      "aled": 2742,
      "Ġthink": 2743,
      "Ġcontem": 2744,
      "Ġ60": 2745,
      "Ġsubject": 2746,
      "Ġshows": 2747,
      "Ġwoman": 2748,
      "Ġfriends": 2749,
      "Ġapproximately": 2750,
      "Ġdut": 2751,
      "Ġdark": 2752,
      "Ġalready": 2753,
      "Ġrob": 2754,
      "Ġemp": 2755,
      "Ġsurround": 2756,
      "Ġdamaged": 2757,
      "Ġestablish": 2758,
      "Ġappointed": 2759,
      "ii": 2760,
      "Ġsize": 2761,
      "Ġnative": 2762,
      "erson": 2763,
      "Ġcompan": 2764,
      "Ġemb": 2765,
      "Ġbritain": 2766,
      "Ġ1960": 2767,
      "to": 2768,
      "Ġmel": 2769,
      "aring": 2770,
      "rian": 2771,
      "Ġdisp": 2772,
      "Ġquest": 2773,
      "Ġwinning": 2774,
      "Ġturned": 2775,
      "Ġparticip": 2776,
      "Ġissue": 2777,
      "Ġcontract": 2778,
      "Ġdebut": 2779,
      "Ġcathed": 2780,
      "Ġprobably": 2781,
      "Ġmight": 2782,
      "Ġhop": 2783,
      "Ġlay": 2784,
      "Ġboy": 2785,
      "Ġstudents": 2786,
      "Ġlyric": 2787,
      "hib": 2788,
      "Ġcad": 2789,
      "Ġjin": 2790,
      "Ġunl": 2791,
      "quar": 2792,
      "Ġscore": 2793,
      "Ġpassed": 2794,
      "Ġespec": 2795,
      "Ġangel": 2796,
      "Ġpacific": 2797,
      "Ġpenn": 2798,
      "enon": 2799,
      "Ġlord": 2800,
      "Ġadmin": 2801,
      "Ġboard": 2802,
      "Ġtwent": 2803,
      "Ġbetter": 2804,
      "Ġcomplet": 2805,
      "Ġcaptain": 2806,
      "Ġzealand": 2807,
      "vest": 2808,
      "Ġ?": 2809,
      "Ġcred": 2810,
      "Ġcath": 2811,
      "Ġlou": 2812,
      "Ġupp": 2813,
      "Ġwithd": 2814,
      "ateg": 2815,
      "Ġdisplay": 2816,
      "Ġ184": 2817,
      "Ġnetwork": 2818,
      "Ġtar": 2819,
      "ises": 2820,
      "Ġlink": 2821,
      "Ġforward": 2822,
      "Ġjer": 2823,
      "Ġdeep": 2824,
      "Ġoverall": 2825,
      "inese": 2826,
      "Ġvisit": 2827,
      "osaurus": 2828,
      "Ġespecially": 2829,
      "uk": 2830,
      "oration": 2831,
      "Ġpan": 2832,
      "Ġdoll": 2833,
      "ability": 2834,
      "Ġnotes": 2835,
      "Ġenough": 2836,
      "ails": 2837,
      "zz": 2838,
      "Ġben": 2839,
      "Ġfailed": 2840,
      "Ġdro": 2841,
      "Ġdaugh": 2842,
      "Ġtouch": 2843,
      "Ġchinese": 2844,
      "apt": 2845,
      "Ġbridge": 2846,
      "Ġrunning": 2847,
      "Ġmixed": 2848,
      "bc": 2849,
      "tr": 2850,
      "Ġpet": 2851,
      "Ġexam": 2852,
      "Ġmusical": 2853,
      "bers": 2854,
      "gar": 2855,
      "ires": 2856,
      "onse": 2857,
      "Ġ2002": 2858,
      "Ġspan": 2859,
      "oke": 2860,
      "Ġlimited": 2861,
      "Ġnatural": 2862,
      "nel": 2863,
      "Ġmic": 2864,
      "Ġlake": 2865,
      "Ġwheeler": 2866,
      "Ġslow": 2867,
      "Ġiii": 2868,
      "Ġordered": 2869,
      "Ġfuture": 2870,
      "Ġnin": 2871,
      "Ġspent": 2872,
      "Ġincludes": 2873,
      "Ġpeter": 2874,
      "Ġremaining": 2875,
      "Ġmoving": 2876,
      "Ġarrived": 2877,
      "Ġchanges": 2878,
      "Ġvirgin": 2879,
      "Ġdepartment": 2880,
      "Ġeducation": 2881,
      "Ġusually": 2882,
      "Ġlarger": 2883,
      "Ġbreed": 2884,
      "stein": 2885,
      "Ġcanadian": 2886,
      "Ġcathedral": 2887,
      "Ġconcept": 2888,
      "Ġroll": 2889,
      "Ġgrant": 2890,
      "Ġbroadcast": 2891,
      "Ġbirds": 2892,
      "Ġbirth": 2893,
      "Ġsaint": 2894,
      "Ġlatter": 2895,
      "Ġplat": 2896,
      "Ġrequired": 2897,
      "Ġmountain": 2898,
      "Ġupper": 2899,
      "lor": 2900,
      "Ġfer": 2901,
      "orial": 2902,
      "ilities": 2903,
      "oph": 2904,
      "Ġdecision": 2905,
      "Ġvoice": 2906,
      "Ġoly": 2907,
      "Ġmr": 2908,
      "Ġnature": 2909,
      "Ġcomed": 2910,
      "riage": 2911,
      "Ġtraff": 2912,
      "Ġaffect": 2913,
      "Ġremain": 2914,
      "ference": 2915,
      "Ġresponse": 2916,
      "Ġafrica": 2917,
      "Ġolymp": 2918,
      "rd": 2919,
      "wor": 2920,
      "Ġwide": 2921,
      "Ġpun": 2922,
      "ows": 2923,
      "Ġcoach": 2924,
      "Ġcentre": 2925,
      "Ġschol": 2926,
      "Ġprevent": 2927,
      "ners": 2928,
      "Ġmention": 2929,
      "Ġmoney": 2930,
      "agon": 2931,
      "ipp": 2932,
      "Ġrelated": 2933,
      "ification": 2934,
      "Ġfeature": 2935,
      "ga": 2936,
      "iest": 2937,
      "pan": 2938,
      "Ġself": 2939,
      "Ġwit": 2940,
      "Ġcm": 2941,
      "Ġcorn": 2942,
      "Ġmounted": 2943,
      "Ġgot": 2944,
      "Ġ38": 2945,
      "Ġgroups": 2946,
      "Ġprofessional": 2947,
      "ca": 2948,
      "isc": 2949,
      "Ġblood": 2950,
      "Ġfilms": 2951,
      "Ġsupported": 2952,
      "Ġrachel": 2953,
      "Ġterritory": 2954,
      "Ġoce": 2955,
      "Ġbad": 2956,
      "Ġdan": 2957,
      "Ġliving": 2958,
      "Ġga": 2959,
      "Ġscience": 2960,
      "Ġscott": 2961,
      "Ġbox": 2962,
      "Ġended": 2963,
      "Ġlarg": 2964,
      "Ġpositive": 2965,
      "Ġbooks": 2966,
      "Ġbillboard": 2967,
      "Ġfrequ": 2968,
      "Ġpressure": 2969,
      "oo": 2970,
      "Ġtv": 2971,
      "Ġmort": 2972,
      "Ġhealth": 2973,
      "ching": 2974,
      "Ġfinally": 2975,
      "Ġ80": 2976,
      "Ġculture": 2977,
      "Ġsquadron": 2978,
      "ios": 2979,
      "ker": 2980,
      "under": 2981,
      "uals": 2982,
      "Ġmom": 2983,
      "ifa": 2984,
      "Ġcharles": 2985,
      "Ġtemper": 2986,
      "Ġbecoming": 2987,
      "Ġhaw": 2988,
      "Ġalways": 2989,
      "Ġshown": 2990,
      "Ġprovide": 2991,
      "Ġheadquar": 2992,
      "Ġsmaller": 2993,
      "kn": 2994,
      "inct": 2995,
      "Ġlog": 2996,
      "lect": 2997,
      "Ġgro": 2998,
      "Ġtrade": 2999,
      "Ġ1995": 3000,
      "Ġfox": 3001,
      "onym": 3002,
      "Ġtemple": 3003,
      "Ġdiscovered": 3004,
      "Ġprivate": 3005,
      "hou": 3006,
      "Ġbatter": 3007,
      "Ġfru": 3008,
      "uments": 3009,
      "Ġ75": 3010,
      "Ġminutes": 3011,
      "Ġshortly": 3012,
      "Ġgods": 3013,
      "rief": 3014,
      "uan": 3015,
      "Ġbord": 3016,
      "Ġhair": 3017,
      "Ġnations": 3018,
      "Ġjam": 3019,
      "Ġfrank": 3020,
      "Ġ1980": 3021,
      "Ġdiscuss": 3022,
      "Ġexperience": 3023,
      "Ġdefeated": 3024,
      "Ġtax": 3025,
      "Ġpian": 3026,
      "Ġdj": 3027,
      "Ġvan": 3028,
      "Ġbowl": 3029,
      "Ġsubsequently": 3030,
      "selves": 3031,
      "Ġsurface": 3032,
      "sen": 3033,
      "hem": 3034,
      "aded": 3035,
      "Ġrare": 3036,
      "Ġeffects": 3037,
      "ram": 3038,
      "Ġinh": 3039,
      "Ġdeg": 3040,
      "ishop": 3041,
      "rael": 3042,
      "Ġconcert": 3043,
      "Ġpersonal": 3044,
      "Ġcele": 3045,
      "well": 3046,
      "Ġtell": 3047,
      "Ġmakes": 3048,
      "iva": 3049,
      "Ġjun": 3050,
      "Ġunit": 3051,
      "Ġgreater": 3052,
      "Ġcalif": 3053,
      "Ġcounter": 3054,
      "light": 3055,
      "zy": 3056,
      "Ġparen": 3057,
      "Ġhus": 3058,
      "Ġintended": 3059,
      "Ġpercent": 3060,
      "Ġprinc": 3061,
      "Ġmostly": 3062,
      "Ġteams": 3063,
      "Ġidea": 3064,
      "Ġscientology": 3065,
      "Ġfavor": 3066,
      "Ġproblems": 3067,
      "kan": 3068,
      "Ġfest": 3069,
      "Ġpil": 3070,
      "Ġmaster": 3071,
      "Ġund": 3072,
      "idents": 3073,
      "Ġali": 3074,
      "Ġconclud": 3075,
      "Ġlearn": 3076,
      "Ġvers": 3077,
      "Ġnumbers": 3078,
      "Ġkeep": 3079,
      "Ġcollection": 3080,
      "Ġcaptured": 3081,
      "Ġsquare": 3082,
      "Ġlargely": 3083,
      "era": 3084,
      "Ġwing": 3085,
      "acted": 3086,
      "Ġrh": 3087,
      "Ġsev": 3088,
      "Ġsha": 3089,
      "pped": 3090,
      "ples": 3091,
      "Ġqueen": 3092,
      "Ġthemselves": 3093,
      "Ġconstant": 3094,
      "Ġmetres": 3095,
      "Ġarrang": 3096,
      "Ġreferred": 3097,
      "Ġhaifa": 3098,
      "Ġprimary": 3099,
      "Ġmachine": 3100,
      "Ġlikely": 3101,
      "Ġcaliforn": 3102,
      "ban": 3103,
      "Ġtenn": 3104,
      "Ġruss": 3105,
      "Ġmethod": 3106,
      "Ġwhole": 3107,
      "Ġ2016": 3108,
      "Ġiron": 3109,
      "Ġmarket": 3110,
      "Ġcroat": 3111,
      "aut": 3112,
      "Ġsov": 3113,
      "Ġded": 3114,
      "Ġgall": 3115,
      "Ġyet": 3116,
      "Ġconsist": 3117,
      "Ġguard": 3118,
      "Ġxenon": 3119,
      "Ġoppos": 3120,
      "Ġtraffic": 3121,
      "ging": 3122,
      "ror": 3123,
      "Ġale": 3124,
      "Ġcause": 3125,
      "Ġom": 3126,
      "Ġpow": 3127,
      "iser": 3128,
      "Ġdyn": 3129,
      "Ġram": 3130,
      "Ġisrael": 3131,
      "Ġfranc": 3132,
      "Ġentered": 3133,
      "Ġlocation": 3134,
      "Ġportug": 3135,
      "Ġtower": 3136,
      "Ġaer": 3137,
      "Ġsand": 3138,
      "Ġott": 3139,
      "Ġbomb": 3140,
      "Ġpair": 3141,
      "Ġcontains": 3142,
      "Ġemer": 3143,
      "Ġmagn": 3144,
      "Ġconstructed": 3145,
      "oor": 3146,
      "Ġfail": 3147,
      "Ġjose": 3148,
      "Ġadop": 3149,
      "Ġscript": 3150,
      "Ġmajority": 3151,
      "Ġgreatest": 3152,
      "Ġlisted": 3153,
      "Ġmorning": 3154,
      "Ġultim": 3155,
      "Ġranked": 3156,
      "Ġlyrics": 3157,
      "Ġocean": 3158,
      "Ġheadquarters": 3159,
      "Ġdum": 3160,
      "oman": 3161,
      "Ġray": 3162,
      "Ġanal": 3163,
      "Ġchief": 3164,
      "Ġrow": 3165,
      "Ġleaving": 3166,
      "key": 3167,
      "Ġcann": 3168,
      "Ġ1999": 3169,
      "Ġstarting": 3170,
      "Ġcontroll": 3171,
      "gian": 3172,
      "Ġos": 3173,
      "atively": 3174,
      "Ġross": 3175,
      "Ġwhether": 3176,
      "Ġelection": 3177,
      "Ġstudies": 3178,
      "Ġofficers": 3179,
      "Ġequip": 3180,
      "Ġgalvest": 3181,
      "Ġinformation": 3182,
      "Ġgalveston": 3183,
      "ergy": 3184,
      "Ġbrief": 3185,
      "Ġfans": 3186,
      "Ġtourn": 3187,
      "etic": 3188,
      "Ġ1950": 3189,
      "Ġcompetition": 3190,
      "Ġjewish": 3191,
      "Ġcompanies": 3192,
      "ba": 3193,
      "ken": 3194,
      "ander": 3195,
      "ria": 3196,
      "Ġaff": 3197,
      "Ġcreate": 3198,
      "Ġfighting": 3199,
      "Ġjournal": 3200,
      "Ġpoly": 3201,
      "Ġbrad": 3202,
      "Ġ70": 3203,
      "Ġchanged": 3204,
      "Ġnewsp": 3205,
      "Ġcelebr": 3206,
      "mon": 3207,
      "mas": 3208,
      "atops": 3209,
      "Ġliver": 3210,
      "Ġ33": 3211,
      "ously": 3212,
      "Ġforms": 3213,
      "Ġtheme": 3214,
      "Ġepisodes": 3215,
      "Ġruns": 3216,
      "Ġconcern": 3217,
      "Ġstandard": 3218,
      "Ġproposed": 3219,
      "Ġsoldiers": 3220,
      "Ġadminist": 3221,
      "pool": 3222,
      "Ġtakes": 3223,
      "Ġple": 3224,
      "Ġlived": 3225,
      "omm": 3226,
      "Ġplans": 3227,
      "Ġshell": 3228,
      "Ġcolor": 3229,
      "Ġattr": 3230,
      "Ġartist": 3231,
      "Ġinfluence": 3232,
      "Ġindependent": 3233,
      "Ġagreed": 3234,
      "Ġlaunched": 3235,
      "Ġcommitte": 3236,
      "cing": 3237,
      "Ġbud": 3238,
      "Ġbound": 3239,
      "Ġlady": 3240,
      "urity": 3241,
      "Ġrat": 3242,
      "change": 3243,
      "Ġyour": 3244,
      "Ġmole": 3245,
      "teen": 3246,
      "Ġbring": 3247,
      "Ġaccess": 3248,
      "Ġsingles": 3249,
      "Ġconstit": 3250,
      "Ġmovement": 3251,
      "Ġincrease": 3252,
      "Ġmeaning": 3253,
      "Ġscreen": 3254,
      "Ġcalifornia": 3255,
      "eth": 3256,
      "Ġcra": 3257,
      "isions": 3258,
      "Ġlif": 3259,
      "aches": 3260,
      "illery": 3261,
      "Ġcompared": 3262,
      "lands": 3263,
      "Ġassigned": 3264,
      "Ġminute": 3265,
      "Ġtraditional": 3266,
      "Ġquickly": 3267,
      "Ġcatholic": 3268,
      "Ġcrick": 3269,
      "outh": 3270,
      "Ġrein": 3271,
      "Ġhere": 3272,
      "Ġvot": 3273,
      "andon": 3274,
      "Ġtrue": 3275,
      "Ġspir": 3276,
      "Ġmeant": 3277,
      "Ġrevolution": 3278,
      "Ġartillery": 3279,
      "Ġsixth": 3280,
      "Ġvalley": 3281,
      "Ġvilla": 3282,
      "Ġtrees": 3283,
      "Ġdouble": 3284,
      "Ġoccurred": 3285,
      "Ġdeterm": 3286,
      "Ġchicago": 3287,
      "bur": 3288,
      "icated": 3289,
      "icted": 3290,
      "Ġthings": 3291,
      "acing": 3292,
      "Ġital": 3293,
      "Ġleave": 3294,
      "Ġens": 3295,
      "Ġenv": 3296,
      "Ġ400": 3297,
      "Ġinside": 3298,
      "Ġcorps": 3299,
      "Ġfocus": 3300,
      "Ġhospital": 3301,
      "Ġfol": 3302,
      "Ġlatin": 3303,
      "Ġnix": 3304,
      "umn": 3305,
      "Ġ32": 3306,
      "Ġserious": 3307,
      "Ġspeed": 3308,
      "Ġphot": 3309,
      "Ġappears": 3310,
      "Ġservices": 3311,
      "Ġvictor": 3312,
      "Ġrequest": 3313,
      "Ġdefeat": 3314,
      "Ġdestroyed": 3315,
      "Ġcondoms": 3316,
      "Ġinvestig": 3317,
      "iant": 3318,
      "Ġign": 3319,
      "Ġtons": 3320,
      "itect": 3321,
      "Ġdone": 3322,
      "Ġkick": 3323,
      "Ġsched": 3324,
      "Ġlonger": 3325,
      "Ġschools": 3326,
      "Ġconsider": 3327,
      "Ġcontemporary": 3328,
      "bar": 3329,
      "iny": 3330,
      "Ġbul": 3331,
      "Ġhund": 3332,
      "Ġasked": 3333,
      "Ġalice": 3334,
      "ortun": 3335,
      "Ġscot": 3336,
      "Ġacqu": 3337,
      "Ġenter": 3338,
      "Ġ1940": 3339,
      "Ġcomplex": 3340,
      "Ġawarded": 3341,
      "Ġarchitect": 3342,
      "Ġsource": 3343,
      "Ġhundred": 3344,
      "pre": 3345,
      "Ġaw": 3346,
      "Ġcand": 3347,
      "Ġfow": 3348,
      "Ġpurch": 3349,
      "Ġhu": 3350,
      "Ġhorn": 3351,
      "Ġbeat": 3352,
      "Ġsomething": 3353,
      "Ġcarried": 3354,
      "Ġproteins": 3355,
      "Ġapproach": 3356,
      "Ġinitial": 3357,
      "Ġrapid": 3358,
      "Ġcyclone": 3359,
      "Ġdaughter": 3360,
      "lim": 3361,
      "rat": 3362,
      "Ġwr": 3363,
      "Ġmas": 3364,
      "Ġprogress": 3365,
      "Ġ300": 3366,
      "Ġmarriage": 3367,
      "Ġdism": 3368,
      "Ġ1998": 3369,
      "Ġending": 3370,
      "Ġwriters": 3371,
      "Ġbuildings": 3372,
      "Ġconducted": 3373,
      "Ġthick": 3374,
      "Ġ90": 3375,
      "Ġpolish": 3376,
      "Ġsimp": 3377,
      "Ġdistrict": 3378,
      "Ġannual": 3379,
      "Ġassociated": 3380,
      "Ġstatus": 3381,
      "Ġburns": 3382,
      "Ġancient": 3383,
      "Ġtwenty": 3384,
      "Ġess": 3385,
      "Ġsav": 3386,
      "Ġfant": 3387,
      "Ġpath": 3388,
      "Ġthrow": 3389,
      "Ġalkan": 3390,
      "Ġchall": 3391,
      "Ġimage": 3392,
      "Ġaccount": 3393,
      "Ġminister": 3394,
      "Ġstep": 3395,
      "Ġ1930": 3396,
      "Ġafrican": 3397,
      "Ġempire": 3398,
      "lin": 3399,
      "uf": 3400,
      "het": 3401,
      "itation": 3402,
      "itude": 3403,
      "Ġconference": 3404,
      "Ġunable": 3405,
      "ocks": 3406,
      "Ġmarried": 3407,
      "Ġconserv": 3408,
      "Ġ1993": 3409,
      "Ġalbums": 3410,
      "Ġcommented": 3411,
      "Ġhusband": 3412,
      "Ġ+": 3413,
      "Ġtay": 3414,
      "Ġbol": 3415,
      "Ġbank": 3416,
      "Ġdail": 3417,
      "room": 3418,
      "Ġspring": 3419,
      "Ġimag": 3420,
      "Ġflow": 3421,
      "Ġnumerous": 3422,
      "Ġcastle": 3423,
      "Ġindividual": 3424,
      "Ġscenes": 3425,
      "Ġliverpool": 3426,
      "Ġnixon": 3427,
      "tar": 3428,
      "itor": 3429,
      "anas": 3430,
      "Ġdra": 3431,
      "Ġhabit": 3432,
      "Ġanth": 3433,
      "Ġchann": 3434,
      "Ġpositions": 3435,
      "Ġsomers": 3436,
      "Ġcrown": 3437,
      "Ġproducer": 3438,
      "bed": 3439,
      "ee": 3440,
      "Ġow": 3441,
      "anced": 3442,
      "cts": 3443,
      "istics": 3444,
      "Ġtexas": 3445,
      "Ġ47": 3446,
      "ologist": 3447,
      "Ġpolic": 3448,
      "itting": 3449,
      "Ġchem": 3450,
      "Ġmanagement": 3451,
      "Ġinspired": 3452,
      "Ġpul": 3453,
      "chan": 3454,
      "ounts": 3455,
      "Ġ39": 3456,
      "Ġrecover": 3457,
      "vey": 3458,
      "Ġsafe": 3459,
      "Ġterms": 3460,
      "Ġattacks": 3461,
      "Ġtracks": 3462,
      "Ġissued": 3463,
      "Ġsomerset": 3464,
      "ding": 3465,
      "Ġbed": 3466,
      "anta": 3467,
      "Ġearned": 3468,
      "Ġdefense": 3469,
      "Ġslight": 3470,
      "Ġwaters": 3471,
      "Ġbegins": 3472,
      "Ġmosley": 3473,
      "Ġpiano": 3474,
      "ey": 3475,
      "Ġbon": 3476,
      "Ġbid": 3477,
      "Ġmun": 3478,
      "ros": 3479,
      "Ġgiving": 3480,
      "Ġconver": 3481,
      "Ġdepend": 3482,
      "Ġplanned": 3483,
      "Ġ1996": 3484,
      "Ġdefend": 3485,
      "Ġedge": 3486,
      "Ġportray": 3487,
      "Ġvariety": 3488,
      "Ġadvance": 3489,
      "Ġdirectly": 3490,
      "Ġmarked": 3491,
      "Ġbusch": 3492,
      "Ġfigure": 3493,
      "Ġdocument": 3494,
      "Ġbaby": 3495,
      "Ġdaily": 3496,
      "Ġpick": 3497,
      "Ġpict": 3498,
      "Ġthunder": 3499,
      "Ġvia": 3500,
      "ands": 3501,
      "Ġyellow": 3502,
      "alled": 3503,
      "Ġperfect": 3504,
      "Ġactor": 3505,
      "Ġperformances": 3506,
      "ylv": 3507,
      "Ġadvent": 3508,
      "Ġchristmas": 3509,
      "Ġexperi": 3510,
      "Ġhistorical": 3511,
      "aught": 3512,
      "Ġnuclear": 3513,
      "Ġimmediately": 3514,
      "Ġcommittee": 3515,
      "Ġswe": 3516,
      "once": 3517,
      "Ġnest": 3518,
      "ado": 3519,
      "umed": 3520,
      "Ġcold": 3521,
      "athan": 3522,
      "Ġdrum": 3523,
      "Ġmetal": 3524,
      "Ġorganization": 3525,
      "Ġspanish": 3526,
      "Ġtaylor": 3527,
      "house": 3528,
      "Ġbor": 3529,
      "Ġfell": 3530,
      "Ġrhy": 3531,
      "Ġkr": 3532,
      "Ġkind": 3533,
      "bery": 3534,
      "Ġabandon": 3535,
      "ruction": 3536,
      "Ġparis": 3537,
      "Ġtransl": 3538,
      "Ġhelped": 3539,
      "Ġconfl": 3540,
      "Ġcombat": 3541,
      "Ġsoviet": 3542,
      "Ġfowler": 3543,
      "rical": 3544,
      "Ġsout": 3545,
      "Ġwound": 3546,
      "Ġcrow": 3547,
      "Ġrear": 3548,
      "Ġthir": 3549,
      "Ġclosed": 3550,
      "Ġfinanc": 3551,
      "Ġprep": 3552,
      "Ġleaders": 3553,
      "Ġcasual": 3554,
      "Ġsuffered": 3555,
      "Ġmultip": 3556,
      "ault": 3557,
      "bury": 3558,
      "Ġnation": 3559,
      "Ġut": 3560,
      "Ġuses": 3561,
      "Ġpresence": 3562,
      "Ġnearby": 3563,
      "Ġcontrovers": 3564,
      "Ġid": 3565,
      "Ġbass": 3566,
      "Ġbond": 3567,
      "Ġreally": 3568,
      "Ġgh": 3569,
      "Ġgard": 3570,
      "omet": 3571,
      "Ġstad": 3572,
      "Ġbeach": 3573,
      "cend": 3574,
      "Ġjane": 3575,
      "ify": 3576,
      "ibly": 3577,
      "Ġmission": 3578,
      "Ġraised": 3579,
      "Ġpresented": 3580,
      "Ġfederal": 3581,
      "Ġcultural": 3582,
      "Ġpaper": 3583,
      "Ġrif": 3584,
      "anded": 3585,
      "Ġweap": 3586,
      "Ġpeace": 3587,
      "Ġmaxim": 3588,
      "Ġcontinue": 3589,
      "Ġcovered": 3590,
      "Ġvocals": 3591,
      "Ġrule": 3592,
      "sylv": 3593,
      "inent": 3594,
      "erve": 3595,
      "urs": 3596,
      "Ġcomposed": 3597,
      "Ġsport": 3598,
      "Ġ42": 3599,
      "aha": 3600,
      "Ġattempts": 3601,
      "Ġhands": 3602,
      "Ġfigures": 3603,
      "Ġsymb": 3604,
      "Ġcarolina": 3605,
      "Ġpennsylv": 3606,
      "Ġvirginia": 3607,
      "Ġfruit": 3608,
      "Ġprincip": 3609,
      "Ġsir": 3610,
      "ening": 3611,
      "Ġthr": 3612,
      "Ġextended": 3613,
      "Ġenj": 3614,
      "Ġincor": 3615,
      "Ġbelow": 3616,
      "iami": 3617,
      "Ġcourse": 3618,
      "ograph": 3619,
      "chester": 3620,
      "Ġbeyonce": 3621,
      "Ġshoot": 3622,
      "ping": 3623,
      "Ġsac": 3624,
      "Ġfiction": 3625,
      "Ġaspect": 3626,
      "imony": 3627,
      "Ġattend": 3628,
      "Ġplant": 3629,
      "essa": 3630,
      "Ġmeyer": 3631,
      "Ġdise": 3632,
      "Ġcanc": 3633,
      "Ġblock": 3634,
      "Ġrelief": 3635,
      "Ġofficer": 3636,
      "Ġpurp": 3637,
      "Ġvocal": 3638,
      "Ġselected": 3639,
      "Ġbodies": 3640,
      "Ġassembly": 3641,
      "standing": 3642,
      "Ġfill": 3643,
      "Ġps": 3644,
      "Ġmile": 3645,
      "apo": 3646,
      "Ġsports": 3647,
      "Ġ1997": 3648,
      "Ġappearances": 3649,
      "Ġhyd": 3650,
      "Ġhigher": 3651,
      "pa": 3652,
      "rate": 3653,
      "uing": 3654,
      "Ġmiami": 3655,
      "ani": 3656,
      "Ġda": 3657,
      "Ġhour": 3658,
      "Ġeye": 3659,
      "uries": 3660,
      "Ġris": 3661,
      "Ġsearch": 3662,
      "Ġnecess": 3663,
      "Ġrough": 3664,
      "pted": 3665,
      "Ġtext": 3666,
      "Ġoffensive": 3667,
      "Ġcountries": 3668,
      "Ġgermany": 3669,
      "Ġprotein": 3670,
      "Ġneeded": 3671,
      "Ġsexual": 3672,
      "Ġnico": 3673,
      "Ġreject": 3674,
      "Ġaltern": 3675,
      "Ġplaces": 3676,
      "Ġarts": 3677,
      "Ġcompl": 3678,
      "Ġ44": 3679,
      "Ġhighly": 3680,
      "Ġextre": 3681,
      "Ġpowerful": 3682,
      "Ġsituation": 3683,
      "Ġcadm": 3684,
      "Ġanalys": 3685,
      "gal": 3686,
      "ls": 3687,
      "ny": 3688,
      "Ġton": 3689,
      "Ġcab": 3690,
      "Ġfair": 3691,
      "Ġkak": 3692,
      "aging": 3693,
      "Ġclim": 3694,
      "Ġbob": 3695,
      "Ġrecent": 3696,
      "Ġprec": 3697,
      "Ġemper": 3698,
      "Ġentertain": 3699,
      "Ġdistance": 3700,
      "Ġattacked": 3701,
      "Ġallowing": 3702,
      "Ġsomal": 3703,
      "Ġsilver": 3704,
      "Ġstrength": 3705,
      "Ġcomedy": 3706,
      "Ġfestival": 3707,
      "iate": 3708,
      "pole": 3709,
      "vement": 3710,
      "Ġwa": 3711,
      "Ġbell": 3712,
      "Ġmis": 3713,
      "Ġrate": 3714,
      "ribution": 3715,
      "Ġsinger": 3716,
      "Ġgovernor": 3717,
      "Ġconfir": 3718,
      "Ġlabor": 3719,
      "Ġtheatre": 3720,
      "Ġpennsylvania": 3721,
      "Ġcadmium": 3722,
      "hold": 3723,
      "kel": 3724,
      "ope": 3725,
      "isation": 3726,
      "isher": 3727,
      "olf": 3728,
      "aped": 3729,
      "Ġenergy": 3730,
      "ruct": 3731,
      "Ġresc": 3732,
      "Ġinterse": 3733,
      "Ġnorthwest": 3734,
      "Ġedition": 3735,
      "Ġmodel": 3736,
      "Ġadvant": 3737,
      "Ġmovie": 3738,
      "Ġforeign": 3739,
      "Ġjackson": 3740,
      "Ġwidely": 3741,
      "Ġacademy": 3742,
      "Ġremoved": 3743,
      "track": 3744,
      "Ġbene": 3745,
      "ication": 3746,
      "Ġlot": 3747,
      "leg": 3748,
      "Ġjim": 3749,
      "Ġka": 3750,
      "ovic": 3751,
      "Ġmeans": 3752,
      "Ġ51": 3753,
      "Ġoffered": 3754,
      "Ġprince": 3755,
      "Ġremix": 3756,
      "Ġgenus": 3757,
      "Ġactive": 3758,
      "Ġopera": 3759,
      "Ġlevels": 3760,
      "Ġsoundtrack": 3761,
      "Ġcopies": 3762,
      "Ġpeaked": 3763,
      "Ġscotland": 3764,
      "Ġmess": 3765,
      "Ġthous": 3766,
      "aven": 3767,
      "Ġscoring": 3768,
      "Ġ182": 3769,
      "izing": 3770,
      "Ġ1991": 3771,
      "Ġchris": 3772,
      "Ġattempted": 3773,
      "Ġopportun": 3774,
      "Ġcombined": 3775,
      "Ġtypically": 3776,
      "Ġmeeting": 3777,
      "Ġrespectively": 3778,
      "Ġquestion": 3779,
      "hood": 3780,
      "Ġsister": 3781,
      "Ġcert": 3782,
      "Ġfish": 3783,
      "icient": 3784,
      "Ġreform": 3785,
      "tered": 3786,
      "Ġchina": 3787,
      "Ġsuc": 3788,
      "abor": 3789,
      "Ġperon": 3790,
      "Ġthemes": 3791,
      "Ġexpress": 3792,
      "Ġresponsible": 3793,
      "Ġtouchdown": 3794,
      "Ġalex": 3795,
      "Ġenvir": 3796,
      "Ġstadium": 3797,
      "Ġfast": 3798,
      "Ġdress": 3799,
      "Ġanderson": 3800,
      "send": 3801,
      "Ġgraph": 3802,
      "Ġsets": 3803,
      "Ġfamil": 3804,
      "Ġdescribes": 3805,
      "Ġislands": 3806,
      "Ġobserved": 3807,
      "Ġactivities": 3808,
      "force": 3809,
      "Ġcandid": 3810,
      "hl": 3811,
      "Ġsales": 3812,
      "Ġreign": 3813,
      "Ġshr": 3814,
      "Ġteach": 3815,
      "Ġformation": 3816,
      "Ġ1992": 3817,
      "Ġwinter": 3818,
      "Ġinstr": 3819,
      "Ġimpact": 3820,
      "Ġmatches": 3821,
      "Ġheavily": 3822,
      "Ġvehic": 3823,
      "Ġaudience": 3824,
      "Ġbraat": 3825,
      "Ġhouses": 3826,
      "Ġenjoy": 3827,
      "Ġkakapo": 3828,
      "anes": 3829,
      "Ġdream": 3830,
      "Ġlie": 3831,
      "Ġstra": 3832,
      "ellig": 3833,
      "Ġ1994": 3834,
      "Ġdefence": 3835,
      "Ġrights": 3836,
      "Ġactivity": 3837,
      "Ġlooking": 3838,
      "Ġreduced": 3839,
      "Ġparents": 3840,
      "Ġwave": 3841,
      "isa": 3842,
      "ulations": 3843,
      "Ġ37": 3844,
      "Ġ48": 3845,
      "Ġ76": 3846,
      "Ġquality": 3847,
      "Ġcarry": 3848,
      "Ġminnes": 3849,
      "Ġentr": 3850,
      "Ġarmed": 3851,
      "Ġchronic": 3852,
      "Ġnortheast": 3853,
      "Ġrespond": 3854,
      "Ġresulted": 3855,
      "Ġdomest": 3856,
      "Ġconcluded": 3857,
      "Ġcricket": 3858,
      "Ġminnesota": 3859,
      "uated": 3860,
      "ican": 3861,
      "ils": 3862,
      "Ġstating": 3863,
      "use": 3864,
      "Ġresidents": 3865,
      "Ġprepar": 3866,
      "Ġcalling": 3867,
      "Ġsmith": 3868,
      "Ġtownsend": 3869,
      "Ġreports": 3870,
      "Ġcontrast": 3871,
      "Ġconditions": 3872,
      "Ġcompletely": 3873,
      "Ġhawai": 3874,
      "Ġspirit": 3875,
      "Ġitalian": 3876,
      "Ġchannel": 3877,
      "Ġenviron": 3878,
      "bre": 3879,
      "iro": 3880,
      "ãĥ": 3881,
      "isl": 3882,
      "ura": 3883,
      "utions": 3884,
      "Ġjul": 3885,
      "rial": 3886,
      "Ġintellig": 3887,
      "Ġmanaged": 3888,
      "athus": 3889,
      "Ġfeaturing": 3890,
      "Ġeurop": 3891,
      "Ġefforts": 3892,
      "Ġseparate": 3893,
      "Ġrosebery": 3894,
      "Ġrevealed": 3895,
      "Ġfolk": 3896,
      "Ġmeyerbe": 3897,
      "ãģ": 3898,
      "Ġwis": 3899,
      "Ġfat": 3900,
      "stone": 3901,
      "Ġwash": 3902,
      "ift": 3903,
      "Ġshiva": 3904,
      "ocr": 3905,
      "Ġplays": 3906,
      "Ġfinals": 3907,
      "Ġliber": 3908,
      "Ġspecim": 3909,
      "Ġartists": 3910,
      "Ġdescription": 3911,
      "Ġrefused": 3912,
      "Ġdeclared": 3913,
      "Ġhonor": 3914,
      "Ġmeyerbeer": 3915,
      "bird": 3916,
      "Ġtun": 3917,
      "Ġsle": 3918,
      "Ġlib": 3919,
      "Ġnes": 3920,
      "acher": 3921,
      "ays": 3922,
      "Ġadam": 3923,
      "Ġamount": 3924,
      "Ġwebs": 3925,
      "Ġfinkel": 3926,
      "Ġtherefore": 3927,
      "Ġemot": 3928,
      "Ġstrugg": 3929,
      "Ġissues": 3930,
      "Ġwalpole": 3931,
      "Ġindependence": 3932,
      "Ġfinkelstein": 3933,
      "writ": 3934,
      "Ġtessa": 3935,
      "Ġcateg": 3936,
      "anz": 3937,
      "ingu": 3938,
      "Ġjur": 3939,
      "Ġcoming": 3940,
      "Ġsust": 3941,
      "Ġyue": 3942,
      "Ġexpected": 3943,
      "Ġoffer": 3944,
      "Ġsecurity": 3945,
      "Ġseasons": 3946,
      "Ġelev": 3947,
      "Ġ150": 3948,
      "Ġtitles": 3949,
      "Ġlegisl": 3950,
      "Ġnaval": 3951,
      "Ġcasualties": 3952,
      "Ġemperor": 3953,
      "fl": 3954,
      "Ġactions": 3955,
      "inal": 3956,
      "Ġsr": 3957,
      "Ġsense": 3958,
      "Ġwear": 3959,
      "road": 3960,
      "Ġconse": 3961,
      "Ġ52": 3962,
      "Ġweather": 3963,
      "Ġweaken": 3964,
      "Ġbranch": 3965,
      "Ġgrass": 3966,
      "Ġcharl": 3967,
      "Ġmainly": 3968,
      "Ġhait": 3969,
      "Ġillino": 3970,
      "Ġtypes": 3971,
      "Ġwords": 3972,
      "Ġborder": 3973,
      "Ġottoman": 3974,
      "Ġnicole": 3975,
      "bl": 3976,
      "fa": 3977,
      "hm": 3978,
      "Ġhors": 3979,
      "usion": 3980,
      "Ġscale": 3981,
      "Ġattention": 3982,
      "Ġjob": 3983,
      "Ġactually": 3984,
      "Ġdemonst": 3985,
      "Ġbehav": 3986,
      "Ġillust": 3987,
      "Ġbecomes": 3988,
      "Ġexcav": 3989,
      "Ġpractice": 3990,
      "Ġcore": 3991,
      "icip": 3992,
      "Ġrug": 3993,
      "Ġneigh": 3994,
      "Ġ34": 3995,
      "Ġscul": 3996,
      "Ġrecomm": 3997,
      "Ġspect": 3998,
      "Ġsubs": 3999,
      "Ġstruck": 4000,
      "Ġtournament": 4001,
      "Ġbraathens": 4002,
      "cript": 4003,
      "gu": 4004,
      "iber": 4005,
      "Ġsor": 4006,
      "Ġdog": 4007,
      "Ġdang": 4008,
      "asy": 4009,
      "Ġlb": 4010,
      "Ġlin": 4011,
      "Ġroles": 4012,
      "essions": 4013,
      "Ġadvert": 4014,
      "Ġmanuf": 4015,
      "Ġcolumb": 4016,
      "Ġmusc": 4017,
      "Ġactress": 4018,
      "Ġwrite": 4019,
      "Ġlegal": 4020,
      "Ġviewers": 4021,
      "Ġprimarily": 4022,
      "arent": 4023,
      "Ġletters": 4024,
      "Ġhotel": 4025,
      "Ġvietnam": 4026,
      "Ġultimately": 4027,
      "Ġentertainment": 4028,
      "Ġmanufact": 4029,
      "ek": 4030,
      "onents": 4031,
      "Ġbh": 4032,
      "Ġbishop": 4033,
      "atives": 4034,
      "Ġalone": 4035,
      "Ġcong": 4036,
      "emic": 4037,
      "Ġmog": 4038,
      "Ġtru": 4039,
      "Ġtermin": 4040,
      "Ġjohnson": 4041,
      "Ġpriest": 4042,
      "Ġplanet": 4043,
      "Ġaccepted": 4044,
      "Ġachieved": 4045,
      "Ġsequence": 4046,
      "Ġportugues": 4047,
      "Ġcannot": 4048,
      "met": 4049,
      "rid": 4050,
      "rain": 4051,
      "ãĤ": 4052,
      "Ġtree": 4053,
      "Ġbott": 4054,
      "Ġfres": 4055,
      "Ġfully": 4056,
      "alty": 4057,
      "Ġdun": 4058,
      "Ġcolony": 4059,
      "ension": 4060,
      "Ġqual": 4061,
      "Ġguest": 4062,
      "Ġelected": 4063,
      "Ġfoundation": 4064,
      "Ġfarm": 4065,
      "Ġauthority": 4066,
      "Ġrainfall": 4067,
      "Ġnewspaper": 4068,
      "Ġportuguese": 4069,
      "jo": 4070,
      "mond": 4071,
      "Ġta": 4072,
      "Ġtint": 4073,
      "Ġbat": 4074,
      "Ġfred": 4075,
      "ano": 4076,
      "Ġnick": 4077,
      "ental": 4078,
      "ems": 4079,
      "Ġspain": 4080,
      "Ġspread": 4081,
      "Ġ181": 4082,
      "Ġapart": 4083,
      "Ġprison": 4084,
      "Ġworkers": 4085,
      "Ġexped": 4086,
      "Ġalongside": 4087,
      "Ġantimony": 4088,
      "Ġauthorities": 4089,
      "Ġflooding": 4090,
      "Ġmeasure": 4091,
      "Ġkhan": 4092,
      "Ġmoment": 4093,
      "Ġslightly": 4094,
      "Ġincorpor": 4095,
      "Ġpound": 4096,
      "Ġdur": 4097,
      "Ġridge": 4098,
      "berg": 4099,
      "Ġbroken": 4100,
      "Ġ1986": 4101,
      "Ġowned": 4102,
      "Ġoccasion": 4103,
      "Ġbattery": 4104,
      "aen": 4105,
      "ox": 4106,
      "Ġsarn": 4107,
      "Ġwels": 4108,
      "Ġmales": 4109,
      "Ġdata": 4110,
      "oper": 4111,
      "Ġorb": 4112,
      "Ġcomputer": 4113,
      "Ġtwice": 4114,
      "ogue": 4115,
      "Ġperman": 4116,
      "Ġfey": 4117,
      "Ġmechan": 4118,
      "Ġdefensive": 4119,
      "Ġinches": 4120,
      "Ġsurre": 4121,
      "Ġartic": 4122,
      "ledge": 4123,
      "Ġexpressed": 4124,
      "Ġcampus": 4125,
      "Ġconcent": 4126,
      "Ġskin": 4127,
      "Ġstanding": 4128,
      "ceeded": 4129,
      "Ġmurder": 4130,
      "Ġaffected": 4131,
      "onymous": 4132,
      "Ġconflict": 4133,
      "Ġdomestic": 4134,
      "Ġtintin": 4135,
      "gn": 4136,
      "Ġaid": 4137,
      "hew": 4138,
      "Ġbull": 4139,
      "ented": 4140,
      "Ġheight": 4141,
      "Ġ180": 4142,
      "Ġapple": 4143,
      "Ġzhou": 4144,
      "Ġbattles": 4145,
      "Ġshowed": 4146,
      "Ġlands": 4147,
      "Ġtitled": 4148,
      "Ġhistoric": 4149,
      "Ġofficials": 4150,
      "Ġceres": 4151,
      "Ġflying": 4152,
      "Ġphysical": 4153,
      "Ġlouis": 4154,
      "Ġdisease": 4155,
      "Ġnesb": 4156,
      "Ġwelsh": 4157,
      "Ġwed": 4158,
      "nds": 4159,
      "Ġandrew": 4160,
      "Ġtoward": 4161,
      "igan": 4162,
      "Ġrid": 4163,
      "ushed": 4164,
      "uled": 4165,
      "Ġneut": 4166,
      "astic": 4167,
      "Ġnote": 4168,
      "Ġability": 4169,
      "Ġspot": 4170,
      "Ġlock": 4171,
      "Ġdirection": 4172,
      "Ġdistinct": 4173,
      "Ġvaranas": 4174,
      "Ġbarrow": 4175,
      "Ġdoub": 4176,
      "Ġcerem": 4177,
      "Ġenvironment": 4178,
      "Ġvaranasi": 4179,
      "bon": 4180,
      "ya": 4181,
      "Ġdv": 4182,
      "ims": 4183,
      "Ġcook": 4184,
      "Ġapparent": 4185,
      "Ġsaf": 4186,
      "Ġsays": 4187,
      "Ġinfluenced": 4188,
      "Ġelectron": 4189,
      "Ġodaen": 4190,
      "Ġsnow": 4191,
      "Ġangeles": 4192,
      "Ġmentioned": 4193,
      "Ġnesbitt": 4194,
      "ka": 4195,
      "ux": 4196,
      "Ġig": 4197,
      "Ġsides": 4198,
      "Ġlives": 4199,
      "Ġrepe": 4200,
      "Ġash": 4201,
      "ols": 4202,
      "Ġmob": 4203,
      "Ġclar": 4204,
      "Ġ49": 4205,
      "Ġeva": 4206,
      "Ġacting": 4207,
      "Ġproduce": 4208,
      "Ġcontinues": 4209,
      "Ġpropos": 4210,
      "Ġearliest": 4211,
      "Ġsites": 4212,
      "Ġnarrow": 4213,
      "Ġencour": 4214,
      "Ġindividuals": 4215,
      "while": 4216,
      "Ġcomposition": 4217,
      "Ġdumont": 4218,
      "Ġfinancial": 4219,
      "Ġadvantage": 4220,
      "Ġillinois": 4221,
      "Ġodaenathus": 4222,
      "don": 4223,
      "tv": 4224,
      "Ġcities": 4225,
      "Ġoil": 4226,
      "enant": 4227,
      "Ġdin": 4228,
      "Ġdub": 4229,
      "Ġet": 4230,
      "acts": 4231,
      "Ġalab": 4232,
      "Ġjump": 4233,
      "illa": 4234,
      "Ġexhib": 4235,
      "Ġtry": 4236,
      "Ġsinging": 4237,
      "Ġfounded": 4238,
      "Ġelse": 4239,
      "ancy": 4240,
      "pedo": 4241,
      "Ġ1920": 4242,
      "Ġresulting": 4243,
      "Ġtorpedo": 4244,
      "Ġengineer": 4245,
      "Ġjourney": 4246,
      "Ġadmir": 4247,
      "Ġdigital": 4248,
      "Ġolympic": 4249,
      "Ġadopted": 4250,
      "Ġmogad": 4251,
      "Ġsarnia": 4252,
      "gs": 4253,
      "onna": 4254,
      "etts": 4255,
      "Ġchair": 4256,
      "Ġ65": 4257,
      "Ġstudios": 4258,
      "Ġofficially": 4259,
      "Ġbasis": 4260,
      "Ġhope": 4261,
      "Ġrepresented": 4262,
      "Ġsources": 4263,
      "Ġexecutive": 4264,
      "Ġpotential": 4265,
      "Ġpiece": 4266,
      "Ġwithdraw": 4267,
      "Ġdedicated": 4268,
      "Ġanalysis": 4269,
      "de": 4270,
      "ta": 4271,
      "uous": 4272,
      "Ġcit": 4273,
      "Ġreact": 4274,
      "oty": 4275,
      "Ġcontain": 4276,
      "Ġmanchester": 4277,
      "Ġib": 4278,
      "Ġshel": 4279,
      "Ġagric": 4280,
      "Ġassault": 4281,
      "Ġdoing": 4282,
      "Ġcapture": 4283,
      "helm": 4284,
      "Ġchapel": 4285,
      "Ġlosing": 4286,
      "Ġsurrounding": 4287,
      "Ġscholars": 4288,
      "Ġthunderbird": 4289,
      "rane": 4290,
      "Ġcin": 4291,
      "Ġfaced": 4292,
      "Ġdance": 4293,
      "Ġey": 4294,
      "Ġvic": 4295,
      "Ġvess": 4296,
      "ills": 4297,
      "ella": 4298,
      "Ġboat": 4299,
      "Ġspl": 4300,
      "Ġrelatively": 4301,
      "Ġemph": 4302,
      "Ġstudent": 4303,
      "Ġdrive": 4304,
      "Ġmedical": 4305,
      "Ġeffort": 4306,
      "Ġextra": 4307,
      "Ġrequire": 4308,
      "Ġletter": 4309,
      "Ġtransferred": 4310,
      "Ġmaximum": 4311,
      "Ġwashington": 4312,
      "bour": 4313,
      "cul": 4314,
      "lings": 4315,
      "Ġtrou": 4316,
      "aming": 4317,
      "Ġattended": 4318,
      "Ġkore": 4319,
      "Ġchor": 4320,
      "odon": 4321,
      "iana": 4322,
      "Ġcompound": 4323,
      "Ġfeed": 4324,
      "Ġfrag": 4325,
      "Ġ1988": 4326,
      "Ġolder": 4327,
      "Ġtried": 4328,
      "arked": 4329,
      "Ġorganized": 4330,
      "Ġpattern": 4331,
      "Ġclean": 4332,
      "Ġfunction": 4333,
      "Ġfemales": 4334,
      "Ġfreeway": 4335,
      "Ġunlike": 4336,
      "Ġagricult": 4337,
      "lers": 4338,
      "Ġáĥ": 4339,
      "Ġmu": 4340,
      "Ġeat": 4341,
      "Ġgang": 4342,
      "oms": 4343,
      "adel": 4344,
      "Ġkg": 4345,
      "ults": 4346,
      "Ġproved": 4347,
      "Ġros": 4348,
      "Ġnotable": 4349,
      "ishu": 4350,
      "Ġimper": 4351,
      "Ġcharge": 4352,
      "Ġelement": 4353,
      "Ġopin": 4354,
      "Ġhelms": 4355,
      "Ġmeanwhile": 4356,
      "Ġbeyond": 4357,
      "Ġtarget": 4358,
      "Ġomaha": 4359,
      "Ġjoseph": 4360,
      "Ġsculpt": 4361,
      "Ġalabama": 4362,
      "ech": 4363,
      "po": 4364,
      "wide": 4365,
      "Ġdie": 4366,
      "station": 4367,
      "Ġkent": 4368,
      "umber": 4369,
      "Ġshape": 4370,
      "claim": 4371,
      "ogen": 4372,
      "Ġimages": 4373,
      "Ġflag": 4374,
      "Ġprime": 4375,
      "Ġ64": 4376,
      "Ġedward": 4377,
      "Ġdivided": 4378,
      "Ġdesignated": 4379,
      "Ġpossibly": 4380,
      "Ġbelieve": 4381,
      "Ġbaseball": 4382,
      "Ġanimal": 4383,
      "Ġarchaeological": 4384,
      "Ġliterature": 4385,
      "Ġintensity": 4386,
      "Ġdetermined": 4387,
      "iations": 4388,
      "ket": 4389,
      "Ġic": 4390,
      "Ġcust": 4391,
      "Ġcub": 4392,
      "Ġdraft": 4393,
      "Ġll": 4394,
      "Ġlane": 4395,
      "Ġplum": 4396,
      "Ġ46": 4397,
      "izes": 4398,
      "Ġweight": 4399,
      "Ġfollows": 4400,
      "Ġcollect": 4401,
      "Ġtrip": 4402,
      "Ġprotect": 4403,
      "Ġcharts": 4404,
      "Ġgolden": 4405,
      "Ġpaid": 4406,
      "Ġinnis": 4407,
      "Ġinstitute": 4408,
      "Ġresults": 4409,
      "Ġdissip": 4410,
      "Ġmogadishu": 4411,
      "ex": 4412,
      "kare": 4413,
      "Ġsens": 4414,
      "Ġfix": 4415,
      "aling": 4416,
      "roll": 4417,
      "Ġeth": 4418,
      "Ġrit": 4419,
      "Ġunkn": 4420,
      "Ġcontent": 4421,
      "Ġsuppl": 4422,
      "Ġarms": 4423,
      "Ġcreation": 4424,
      "Ġ1964": 4425,
      "Ġreturning": 4426,
      "Ġsupporting": 4427,
      "Ġrestaur": 4428,
      "Ġvisual": 4429,
      "Ġsolo": 4430,
      "Ġhistorian": 4431,
      "Ġargent": 4432,
      "Ġstructures": 4433,
      "Ġhomes": 4434,
      "Ġtreaty": 4435,
      "Ġmccall": 4436,
      "Ġwilhelm": 4437,
      "Ġmicro": 4438,
      "Ġsimply": 4439,
      "Ġemphas": 4440,
      "more": 4441,
      "uff": 4442,
      "yc": 4443,
      "ĠÃ": 4444,
      "ero": 4445,
      "Ġsis": 4446,
      "Ġpine": 4447,
      "Ġpaint": 4448,
      "Ġmouth": 4449,
      "Ġlam": 4450,
      "Ġreaction": 4451,
      "Ġonto": 4452,
      "Ġcongress": 4453,
      "Ġjup": 4454,
      "Ġkar": 4455,
      "agan": 4456,
      "Ġtra": 4457,
      "Ġunderground": 4458,
      "Ġportion": 4459,
      "Ġkept": 4460,
      "Ġprojects": 4461,
      "Ġcouple": 4462,
      "Ġtechnology": 4463,
      "Ġknowledge": 4464,
      "Ġgrowing": 4465,
      "Ġsecretary": 4466,
      "Ġeconomic": 4467,
      "Ġequipment": 4468,
      "Ġentrance": 4469,
      "Ġhorses": 4470,
      "Ġrugby": 4471,
      "wise": 4472,
      "where": 4473,
      "edar": 4474,
      "Ġmd": 4475,
      "Ġles": 4476,
      "urb": 4477,
      "Ġkit": 4478,
      "Ġchos": 4479,
      "Ġlege": 4480,
      "ips": 4481,
      "Ġperm": 4482,
      "Ġplaystation": 4483,
      "Ġmind": 4484,
      "Ġfilming": 4485,
      "Ġdepth": 4486,
      "Ġleader": 4487,
      "Ġgrew": 4488,
      "Ġimportance": 4489,
      "Ġweekly": 4490,
      "Ġargued": 4491,
      "Ġpromotion": 4492,
      "Ġrailway": 4493,
      "mes": 4494,
      "Ġindu": 4495,
      "Ġdar": 4496,
      "Ġeag": 4497,
      "Ġrise": 4498,
      "Ġrih": 4499,
      "ety": 4500,
      "istry": 4501,
      "Ġshare": 4502,
      "asty": 4503,
      "Ġ53": 4504,
      "Ġ55": 4505,
      "Ġweak": 4506,
      "Ġminer": 4507,
      "Ġappl": 4508,
      "Ġlanding": 4509,
      "Ġpublication": 4510,
      "Ġsuggests": 4511,
      "Ġhamels": 4512,
      "Ġcriticism": 4513,
      "Ġburied": 4514,
      "timore": 4515,
      "Ġcurrently": 4516,
      "Ġbaltimore": 4517,
      "Ġwebsite": 4518,
      "Ġrihanna": 4519,
      "pass": 4520,
      "Ġtact": 4521,
      "eratops": 4522,
      "nding": 4523,
      "Ġgained": 4524,
      "acement": 4525,
      "thy": 4526,
      "osh": 4527,
      "Ġlew": 4528,
      "Ġbelong": 4529,
      "Ġadvanced": 4530,
      "Ġcausing": 4531,
      "Ġreference": 4532,
      "Ġpalest": 4533,
      "Ġcriticized": 4534,
      "Ġorders": 4535,
      "Ġlabel": 4536,
      "Ġvolume": 4537,
      "Ġescape": 4538,
      "Ġbreeding": 4539,
      "Ġdjed": 4540,
      "Ġjupiter": 4541,
      "rative": 4542,
      "Ġbru": 4543,
      "Ġinch": 4544,
      "Ġstock": 4545,
      "Ġhell": 4546,
      "irt": 4547,
      "Ġadj": 4548,
      "Ġcontaining": 4549,
      "Ġteacher": 4550,
      "Ġnewly": 4551,
      "Ġobt": 4552,
      "Ġprominent": 4553,
      "Ġdebuted": 4554,
      "Ġclaims": 4555,
      "Ġreligion": 4556,
      "Ġreaching": 4557,
      "prise": 4558,
      "Ġproperty": 4559,
      "Ġdismiss": 4560,
      "Ġabandoned": 4561,
      "Ġmultiple": 4562,
      "Ġdjedkare": 4563,
      "Ġaven": 4564,
      "Ġtheory": 4565,
      "Ġouter": 4566,
      "Ġbit": 4567,
      "orter": 4568,
      "Ġhib": 4569,
      "Ġbeaut": 4570,
      "oted": 4571,
      "Ġenemy": 4572,
      "Ġ56": 4573,
      "Ġcolumn": 4574,
      "Ġdefin": 4575,
      "Ġ1947": 4576,
      "azz": 4577,
      "Ġglass": 4578,
      "Ġpersonnel": 4579,
      "Ġtorres": 4580,
      "Ġvolun": 4581,
      "Ġencoun": 4582,
      "Ġfaith": 4583,
      "Ġadministration": 4584,
      "Ġchosen": 4585,
      "Ġahead": 4586,
      "Ġmut": 4587,
      "ote": 4588,
      "Ġjon": 4589,
      "Ġdeploy": 4590,
      "Ġkings": 4591,
      "appe": 4592,
      "Ġshar": 4593,
      "Ġ43": 4594,
      "Ġ120": 4595,
      "Ġslam": 4596,
      "Ġyouth": 4597,
      "Ġtowns": 4598,
      "Ġcases": 4599,
      "Ġstrike": 4600,
      "Ġcells": 4601,
      "Ġseems": 4602,
      "Ġgranted": 4603,
      "Ġrejected": 4604,
      "Ġconsecutive": 4605,
      "Ġunknown": 4606,
      "vin": 4607,
      "Ġcart": 4608,
      "Ġba": 4609,
      "Ġfit": 4610,
      "ati": 4611,
      "Ġell": 4612,
      "ette": 4613,
      "Ġconne": 4614,
      "Ġatm": 4615,
      "Ġdeities": 4616,
      "ulate": 4617,
      "Ġcompar": 4618,
      "Ġcoal": 4619,
      "Ġgram": 4620,
      "Ġsecondary": 4621,
      "Ġdram": 4622,
      "Ġ1941": 4623,
      "Ġcorre": 4624,
      "Ġvisited": 4625,
      "ographer": 4626,
      "Ġcommonly": 4627,
      "Ġsettlement": 4628,
      "Ġchapter": 4629,
      "Ġcondition": 4630,
      "white": 4631,
      "Ġincreasingly": 4632,
      "Ġscottish": 4633,
      "Ġcrazy": 4634,
      "Ġstraight": 4635,
      "Ġapplewhite": 4636,
      "mal": 4637,
      "Ġiv": 4638,
      "Ġtel": 4639,
      "Ġbc": 4640,
      "Ġbbc": 4641,
      "Ġhaven": 4642,
      "Ġlu": 4643,
      "Ġanonymous": 4644,
      "Ġye": 4645,
      "Ġtrain": 4646,
      "Ġtruth": 4647,
      "Ġarrest": 4648,
      "Ġregions": 4649,
      "Ġmax": 4650,
      "Ġseconds": 4651,
      "Ġbroke": 4652,
      "phia": 4653,
      "Ġsurvey": 4654,
      "Ġ1987": 4655,
      "Ġpassing": 4656,
      "Ġsystems": 4657,
      "Ġgrowth": 4658,
      "Ġidentified": 4659,
      "Ġproblem": 4660,
      "Ġnominated": 4661,
      "Ġsenior": 4662,
      "Ġtemperature": 4663,
      "Ġversions": 4664,
      "Ġfrancis": 4665,
      "Ġwounded": 4666,
      "Ġrisk": 4667,
      "Ġdvd": 4668,
      "adelphia": 4669,
      "Ġatmosp": 4670,
      "ez": 4671,
      "Ġsave": 4672,
      "itable": 4673,
      "Ġhart": 4674,
      "Ġthing": 4675,
      "Ġgreek": 4676,
      "ads": 4677,
      "Ġring": 4678,
      "Ġkir": 4679,
      "Ġunique": 4680,
      "Ġtrust": 4681,
      "Ġoperated": 4682,
      "Ġcrus": 4683,
      "Ġkilling": 4684,
      "Ġphilos": 4685,
      "ushing": 4686,
      "Ġpromoted": 4687,
      "Ġegyptian": 4688,
      "Ġfantasy": 4689,
      "lines": 4690,
      "Ġaired": 4691,
      "Ġselling": 4692,
      "Ġcry": 4693,
      "Ġfame": 4694,
      "Ġfired": 4695,
      "Ġfash": 4696,
      "oured": 4697,
      "Ġstations": 4698,
      "Ġrub": 4699,
      "sey": 4700,
      "Ġrod": 4701,
      "Ġarc": 4702,
      "Ġ41": 4703,
      "Ġnothing": 4704,
      "Ġcarl": 4705,
      "Ġapplic": 4706,
      "Ġ1984": 4707,
      "Ġ1989": 4708,
      "Ġbarb": 4709,
      "Ġfamous": 4710,
      "Ġ1972": 4711,
      "Ġroads": 4712,
      "Ġavoid": 4713,
      "Ġopposed": 4714,
      "Ġdetect": 4715,
      "Ġmike": 4716,
      "Ġode": 4717,
      "Ġmotor": 4718,
      "Ġagreement": 4719,
      "Ġmemorial": 4720,
      "Ġaccompan": 4721,
      "Ġpremier": 4722,
      "Ġurban": 4723,
      "Ġcroatia": 4724,
      "Ġcamb": 4725,
      "Ġmig": 4726,
      "Ġmatt": 4727,
      "ala": 4728,
      "asc": 4729,
      "Ġluc": 4730,
      "amic": 4731,
      "aine": 4732,
      "abb": 4733,
      "ordin": 4734,
      "Ġserve": 4735,
      "Ġ54": 4736,
      "Ġcool": 4737,
      "Ġ1985": 4738,
      "Ġraid": 4739,
      "Ġswed": 4740,
      "Ġvirt": 4741,
      "Ġanimals": 4742,
      "Ġchoice": 4743,
      "Ġstrengt": 4744,
      "Ġcontrolled": 4745,
      "iqu": 4746,
      "oe": 4747,
      "ris": 4748,
      "Ġbern": 4749,
      "Ġfel": 4750,
      "Ġmand": 4751,
      "Ġdw": 4752,
      "Ġhms": 4753,
      "oul": 4754,
      "stream": 4755,
      "Ġstan": 4756,
      "Ġchur": 4757,
      "ighth": 4758,
      "Ġcompr": 4759,
      "Ġadult": 4760,
      "Ġboats": 4761,
      "Ġworship": 4762,
      "Ġreserv": 4763,
      "Ġinterchange": 4764,
      "Ġspeak": 4765,
      "Ġvert": 4766,
      "Ġfilmed": 4767,
      "Ġwrites": 4768,
      "Ġdrama": 4769,
      "Ġmyth": 4770,
      "Ġexplained": 4771,
      "Ġcougar": 4772,
      "Ġideas": 4773,
      "Ġcardiff": 4774,
      "Ġsubsequent": 4775,
      "Ġpieces": 4776,
      "Ġpoetry": 4777,
      "Ġsemi": 4778,
      "Ġcrowd": 4779,
      "Ġconfirmed": 4780,
      "Ġsin": 4781,
      "Ġreun": 4782,
      "Ġgord": 4783,
      "Ġgives": 4784,
      "Ġvul": 4785,
      "Ġchains": 4786,
      "Ġsud": 4787,
      "Ġsund": 4788,
      "Ġleon": 4789,
      "Ġherself": 4790,
      "Ġbright": 4791,
      "Ġjoint": 4792,
      "Ġregister": 4793,
      "Ġconsisted": 4794,
      "Ġinvasion": 4795,
      "Ġlandfall": 4796,
      "Ġ1944": 4797,
      "Ġkeats": 4798,
      "Ġtrial": 4799,
      "Ġpitched": 4800,
      "Ġmichigan": 4801,
      "Ġphiladelphia": 4802,
      "Ġregarded": 4803,
      "Ġrapidly": 4804,
      "Ġweapons": 4805,
      "Ġfamilies": 4806,
      "ych": 4807,
      "Ġtail": 4808,
      "Ġai": 4809,
      "rey": 4810,
      "Ġbats": 4811,
      "Ġfal": 4812,
      "Ġmir": 4813,
      "Ġdry": 4814,
      "Ġry": 4815,
      "umes": 4816,
      "illo": 4817,
      "Ġextend": 4818,
      "Ġunf": 4819,
      "Ġmaria": 4820,
      "Ġresemb": 4821,
      "awa": 4822,
      "Ġminim": 4823,
      "Ġactors": 4824,
      "Ġhighlight": 4825,
      "Ġtransit": 4826,
      "Ġ130": 4827,
      "Ġhumans": 4828,
      "Ġdeliver": 4829,
      "Ġvalue": 4830,
      "Ġbattalions": 4831,
      "Ġwilliams": 4832,
      "Ġpremi": 4833,
      "Ġkilomet": 4834,
      "Ġmaintained": 4835,
      "Ġinjury": 4836,
      "Ġdropped": 4837,
      "Ġseventh": 4838,
      "Ġfailure": 4839,
      "Ġaspects": 4840,
      "yr": 4841,
      "inity": 4842,
      "Ġoh": 4843,
      "Ġfict": 4844,
      "enge": 4845,
      "Ġhat": 4846,
      "Ġgulf": 4847,
      "Ġwhy": 4848,
      "Ġrot": 4849,
      "Ġ57": 4850,
      "Ġmush": 4851,
      "Ġretired": 4852,
      "Ġphase": 4853,
      "Ġsteam": 4854,
      "fully": 4855,
      "Ġprovince": 4856,
      "Ġextensive": 4857,
      "Ġbelief": 4858,
      "Ġfung": 4859,
      "Ġpenins": 4860,
      "Ġdutch": 4861,
      "Ġsoutheast": 4862,
      "Ġprepared": 4863,
      "ees": 4864,
      "ja": 4865,
      "Ġice": 4866,
      "Ġari": 4867,
      "Ġbes": 4868,
      "Ġmist": 4869,
      "Ġdial": 4870,
      "Ġdrop": 4871,
      "Ġandy": 4872,
      "rol": 4873,
      "Ġlov": 4874,
      "Ġnathan": 4875,
      "Ġgain": 4876,
      "iring": 4877,
      "Ġitaly": 4878,
      "ieval": 4879,
      "Ġabu": 4880,
      "Ġflu": 4881,
      "Ġflank": 4882,
      "Ġ600": 4883,
      "Ġsouthwest": 4884,
      "Ġsteve": 4885,
      "Ġmatter": 4886,
      "Ġmedieval": 4887,
      "Ġconcer": 4888,
      "Ġlaid": 4889,
      "Ġprotection": 4890,
      "Ġsky": 4891,
      "Ġjeff": 4892,
      "Ġsignificantly": 4893,
      "Ġcreating": 4894,
      "Ġconnected": 4895,
      "Ġsustained": 4896,
      "iot": 4897,
      "heas": 4898,
      "Ġrival": 4899,
      "Ġtrail": 4900,
      "Ġadapt": 4901,
      "Ġperh": 4902,
      "Ġfinds": 4903,
      "Ġamericans": 4904,
      "Ġsupply": 4905,
      "Ġpasses": 4906,
      "Ġbasket": 4907,
      "Ġchampion": 4908,
      "Ġfacilities": 4909,
      "Ġfinding": 4910,
      "Ġwalls": 4911,
      "Ġproducers": 4912,
      "Ġrecognized": 4913,
      "clusion": 4914,
      "Ġbudget": 4915,
      "Ġscheduled": 4916,
      "Ġlieut": 4917,
      "Ġiguan": 4918,
      "Ġmushroom": 4919,
      "han": 4920,
      "Ġsought": 4921,
      "rete": 4922,
      "aria": 4923,
      "iced": 4924,
      "Ġthin": 4925,
      "Ġgas": 4926,
      "Ġgab": 4927,
      "Ġstones": 4928,
      "Ġchose": 4929,
      "Ġreconst": 4930,
      "Ġcooper": 4931,
      "Ġwars": 4932,
      "Ġmonument": 4933,
      "amese": 4934,
      "airs": 4935,
      "Ġdistingu": 4936,
      "Ġstarts": 4937,
      "Ġreflect": 4938,
      "Ġdelay": 4939,
      "Ġpopularity": 4940,
      "Ġsurviv": 4941,
      "chers": 4942,
      "Ġnucleus": 4943,
      "Ġpowers": 4944,
      "Ġconservation": 4945,
      "Ġnecessary": 4946,
      "Ġintelligence": 4947,
      "Ġfresh": 4948,
      "Ġsurrender": 4949,
      "Ġperhaps": 4950,
      "fort": 4951,
      "hire": 4952,
      "kin": 4953,
      "mark": 4954,
      "Ġsie": 4955,
      "Ġwrest": 4956,
      "Ġcited": 4957,
      "Ġfought": 4958,
      "isy": 4959,
      "olved": 4960,
      "Ġaltar": 4961,
      "Ġrating": 4962,
      "Ġconsequ": 4963,
      "Ġkur": 4964,
      "Ġcomic": 4965,
      "Ġunus": 4966,
      "eller": 4967,
      "Ġclou": 4968,
      "Ġrecently": 4969,
      "Ġque": 4970,
      "Ġ96": 4971,
      "Ġsoft": 4972,
      "Ġgeneration": 4973,
      "Ġ1981": 4974,
      "heless": 4975,
      "Ġhousehold": 4976,
      "Ġlosses": 4977,
      "Ġtreatment": 4978,
      "Ġexec": 4979,
      "Ġmartin": 4980,
      "Ġvietnamese": 4981,
      "Ġfrequently": 4982,
      "Ġpolicy": 4983,
      "eter": 4984,
      "Ġsap": 4985,
      "Ġwolf": 4986,
      "ato": 4987,
      "Ġdated": 4988,
      "Ġnaz": 4989,
      "Ġjes": 4990,
      "Ġseg": 4991,
      "ifying": 4992,
      "apes": 4993,
      "Ġcole": 4994,
      "Ġends": 4995,
      "Ġmotion": 4996,
      "Ġregarding": 4997,
      "Ġemployed": 4998,
      "Ġgradually": 4999,
      "Ġdegree": 5000,
      "Ġconstitution": 5001,
      "Ġlibr": 5002,
      "Ġbottom": 5003,
      "Ġthunderbirds": 5004,
      "Ġcambod": 5005,
      "oen": 5006,
      "onent": 5007,
      "eda": 5008,
      "Ġbin": 5009,
      "Ġfellow": 5010,
      "alle": 5011,
      "Ġcomes": 5012,
      "Ġshaped": 5013,
      "Ġcontained": 5014,
      "Ġtend": 5015,
      "Ġprefer": 5016,
      "Ġattor": 5017,
      "Ġgray": 5018,
      "Ġ700": 5019,
      "ologists": 5020,
      "Ġdistribution": 5021,
      "Ġ179": 5022,
      "Ġchel": 5023,
      "Ġcollected": 5024,
      "Ġ1939": 5025,
      "Ġindustrial": 5026,
      "Ġoxford": 5027,
      "Ġpilot": 5028,
      "Ġsafety": 5029,
      "Ġpeninsula": 5030,
      "heastern": 5031,
      "Ġtan": 5032,
      "Ġopt": 5033,
      "Ġing": 5034,
      "Ġmit": 5035,
      "Ġeld": 5036,
      "Ġegg": 5037,
      "Ġgra": 5038,
      "Ġstore": 5039,
      "iments": 5040,
      "thur": 5041,
      "Ġken": 5042,
      "Ġkang": 5043,
      "Ġvice": 5044,
      "resp": 5045,
      "sea": 5046,
      "Ġplate": 5047,
      "Ġunsu": 5048,
      "Ġcontributed": 5049,
      "Ġjoin": 5050,
      "Ġgameplay": 5051,
      "Ġwins": 5052,
      "Ġworldwide": 5053,
      "Ġsevere": 5054,
      "Ġsimple": 5055,
      "Ġ1942": 5056,
      "Ġserving": 5057,
      "Ġdemocr": 5058,
      "Ġallows": 5059,
      "Ġmacle": 5060,
      "borough": 5061,
      "Ġimproved": 5062,
      "Ġnegative": 5063,
      "Ġathletes": 5064,
      "Ġastron": 5065,
      "Ġhabitat": 5066,
      "Ġsweet": 5067,
      "Ġcinem": 5068,
      "Ġfashion": 5069,
      "Ġgordon": 5070,
      "ias": 5071,
      "kins": 5072,
      "och": 5073,
      "oys": 5074,
      "rum": 5075,
      "ua": 5076,
      "Ġaston": 5077,
      "Ġfan": 5078,
      "ena": 5079,
      "Ġhip": 5080,
      "Ġlisa": 5081,
      "Ġnba": 5082,
      "ivity": 5083,
      "Ġneither": 5084,
      "Ġuns": 5085,
      "Ġlev": 5086,
      "acks": 5087,
      "ansas": 5088,
      "Ġearn": 5089,
      "Ġ61": 5090,
      "Ġkne": 5091,
      "Ġ73": 5092,
      "Ġframe": 5093,
      "Ġ95": 5094,
      "Ġincident": 5095,
      "Ġportra": 5096,
      "ancing": 5097,
      "Ġconcrete": 5098,
      "Ġ1918": 5099,
      "Ġturner": 5100,
      "Ġsolid": 5101,
      "Ġeffective": 5102,
      "Ġprograms": 5103,
      "Ġchampionships": 5104,
      "Ġelectric": 5105,
      "Ġentirely": 5106,
      "Ġcommissioned": 5107,
      "Ġsynt": 5108,
      "Ġeconomy": 5109,
      "Ġwitness": 5110,
      "Ġdynasty": 5111,
      "Ġvolunte": 5112,
      "Ġfictional": 5113,
      "Ġlieutenant": 5114,
      "rig": 5115,
      "win": 5116,
      "Ġcd": 5117,
      "Ġcav": 5118,
      "Ġpap": 5119,
      "Ġdates": 5120,
      "Ġhind": 5121,
      "icks": 5122,
      "iled": 5123,
      "Ġstages": 5124,
      "Ġitems": 5125,
      "Ġjain": 5126,
      "Ġcham": 5127,
      "Ġexclus": 5128,
      "Ġboise": 5129,
      "Ġboston": 5130,
      "Ġfear": 5131,
      "Ġmario": 5132,
      "Ġfloor": 5133,
      "Ġcanal": 5134,
      "Ġcenturies": 5135,
      "Ġ62": 5136,
      "Ġmuslim": 5137,
      "Ġ97": 5138,
      "Ġ800": 5139,
      "Ġsetting": 5140,
      "Ġtransm": 5141,
      "Ġexpanded": 5142,
      "Ġ1968": 5143,
      "Ġ1969": 5144,
      "Ġsentence": 5145,
      "Ġturk": 5146,
      "Ġearthqu": 5147,
      "Ġresear": 5148,
      "Ġreasons": 5149,
      "Ġnegot": 5150,
      "Ġnormal": 5151,
      "Ġslowly": 5152,
      "Ġdrawn": 5153,
      "Ġeuropium": 5154,
      "Ġimperial": 5155,
      "Ġlewis": 5156,
      "Ġkilometres": 5157,
      "rang": 5158,
      "ule": 5159,
      "Ġtall": 5160,
      "Ġbart": 5161,
      "Ġpoll": 5162,
      "Ġdota": 5163,
      "Ġhan": 5164,
      "Ġnc": 5165,
      "Ġgully": 5166,
      "lywood": 5167,
      "ayer": 5168,
      "Ġron": 5169,
      "Ġjac": 5170,
      "Ġcontest": 5171,
      "Ġaml": 5172,
      "aret": 5173,
      "Ġupd": 5174,
      "rence": 5175,
      "Ġsole": 5176,
      "Ġdecade": 5177,
      "Ġdecades": 5178,
      "Ġ1975": 5179,
      "Ġoccas": 5180,
      "Ġjuan": 5181,
      "Ġextr": 5182,
      "Ġglob": 5183,
      "Ġdeaths": 5184,
      "Ġplanning": 5185,
      "Ġdaniel": 5186,
      "Ġrussian": 5187,
      "Ġchemical": 5188,
      "Ġmunicip": 5189,
      "Ġexperienced": 5190,
      "Ġroughly": 5191,
      "Ġexpedition": 5192,
      "Ġchorus": 5193,
      "chen": 5194,
      "cription": 5195,
      "iences": 5196,
      "Ġmap": 5197,
      "asure": 5198,
      "Ġhin": 5199,
      "Ġgil": 5200,
      "Ġgross": 5201,
      "Ġkits": 5202,
      "ava": 5203,
      "Ġfirm": 5204,
      "Ġallied": 5205,
      "oked": 5206,
      "outs": 5207,
      "Ġpope": 5208,
      "Ġevita": 5209,
      "Ġ72": 5210,
      "Ġengaged": 5211,
      "Ġ85": 5212,
      "Ġappeal": 5213,
      "yson": 5214,
      "Ġterror": 5215,
      "Ġ1965": 5216,
      "Ġ1974": 5217,
      "Ġdidn": 5218,
      "Ġgreg": 5219,
      "Ġevening": 5220,
      "ographic": 5221,
      "Ġorganiz": 5222,
      "Ġauthors": 5223,
      "bridge": 5224,
      "Ġmassive": 5225,
      "Ġtransportation": 5226,
      "Ġgirls": 5227,
      "Ġoccupied": 5228,
      "Ġbenef": 5229,
      "Ġoccasionally": 5230,
      "Ġeyes": 5231,
      "Ġavenue": 5232,
      "can": 5233,
      "mans": 5234,
      "uate": 5235,
      "zer": 5236,
      "Ġts": 5237,
      "Ġau": 5238,
      "ini": 5239,
      "Ġhug": 5240,
      "ading": 5241,
      "ola": 5242,
      "ider": 5243,
      "Ġisol": 5244,
      "Ġisab": 5245,
      "Ġsector": 5246,
      "istan": 5247,
      "Ġadap": 5248,
      "Ġcontact": 5249,
      "Ġrecre": 5250,
      "Ġmarl": 5251,
      "Ġdisappe": 5252,
      "Ġspeaking": 5253,
      "active": 5254,
      "Ġbron": 5255,
      "Ġquite": 5256,
      "ublin": 5257,
      "Ġ81": 5258,
      "Ġloy": 5259,
      "Ġeditor": 5260,
      "anny": 5261,
      "Ġadditionally": 5262,
      "Ġholy": 5263,
      "Ġsumm": 5264,
      "shire": 5265,
      "Ġsuccessfully": 5266,
      "Ġviolence": 5267,
      "Ġdollar": 5268,
      "Ġplatform": 5269,
      "burg": 5270,
      "Ġpurchased": 5271,
      "Ġkhanh": 5272,
      "Ġchurches": 5273,
      "har": 5274,
      "oir": 5275,
      "town": 5276,
      "ÅĤ": 5277,
      "Ġwick": 5278,
      "Ġwides": 5279,
      "Ġble": 5280,
      "Ġmerc": 5281,
      "ingly": 5282,
      "amy": 5283,
      "Ġrivers": 5284,
      "uli": 5285,
      "anda": 5286,
      "Ġneck": 5287,
      "opes": 5288,
      "Ġbrid": 5289,
      "Ġ71": 5290,
      "Ġ94": 5291,
      "Ġliu": 5292,
      "Ġbrook": 5293,
      "Ġsimon": 5294,
      "Ġ164": 5295,
      "Ġrome": 5296,
      "Ġdeclined": 5297,
      "Ġjamal": 5298,
      "Ġwedding": 5299,
      "sw": 5300,
      "Ġsail": 5301,
      "Ġbrian": 5302,
      "arian": 5303,
      "Ġdip": 5304,
      "Ġdrew": 5305,
      "Ġdublin": 5306,
      "Ġhang": 5307,
      "Ġrene": 5308,
      "lyss": 5309,
      "Ġhem": 5310,
      "Ġarsen": 5311,
      "Ġremn": 5312,
      "Ġassass": 5313,
      "Ġsubm": 5314,
      "Ġlongest": 5315,
      "Ġ160": 5316,
      "Ġ1946": 5317,
      "Ġelimin": 5318,
      "Ġowners": 5319,
      "Ġcorpor": 5320,
      "Ġarrival": 5321,
      "Ġstret": 5322,
      "Ġexperiment": 5323,
      "Ġpolitics": 5324,
      "Ġdetails": 5325,
      "Ġprotagon": 5326,
      "Ġaccompl": 5327,
      "Ġbegun": 5328,
      "Ġpupp": 5329,
      "Ġlearned": 5330,
      "Ġtennyson": 5331,
      "Ġbriefly": 5332,
      "Ġpurpose": 5333,
      "Ġcategory": 5334,
      "Ġpermanent": 5335,
      "Ġpaintings": 5336,
      "Ġattorney": 5337,
      "Ġmacleod": 5338,
      "obe": 5339,
      "Ġsar": 5340,
      "Ġcul": 5341,
      "Ġcos": 5342,
      "itan": 5343,
      "Ġlic": 5344,
      "Ġalle": 5345,
      "utz": 5346,
      "Ġisl": 5347,
      "Ġkat": 5348,
      "rien": 5349,
      "ocated": 5350,
      "Ġmarine": 5351,
      "Ġinterior": 5352,
      "Ġgrav": 5353,
      "Ġaccident": 5354,
      "Ġparalle": 5355,
      "Ġguide": 5356,
      "Ġpublisher": 5357,
      "Ġzone": 5358,
      "Ġsimone": 5359,
      "Ġadding": 5360,
      "Ġperforming": 5361,
      "Ġcrime": 5362,
      "Ġmoves": 5363,
      "Ġpossibility": 5364,
      "Ġbasin": 5365,
      "Ġbillion": 5366,
      "Ġtechnical": 5367,
      "Ġsettlers": 5368,
      "Ġbraz": 5369,
      "Ġliterary": 5370,
      "Ġthirty": 5371,
      "Ġhydro": 5372,
      "Ġinstrument": 5373,
      "Ġapplied": 5374,
      "cle": 5375,
      "ycl": 5376,
      "Ġ#": 5377,
      "Ġpric": 5378,
      "aser": 5379,
      "Ġhired": 5380,
      "Ġlit": 5381,
      "ela": 5382,
      "utation": 5383,
      "Ġroutes": 5384,
      "Ġroof": 5385,
      "iance": 5386,
      "Ġcontrib": 5387,
      "ffman": 5388,
      "Ġformula": 5389,
      "Ġacres": 5390,
      "Ġdoor": 5391,
      "Ġguy": 5392,
      "Ġphill": 5393,
      "Ġcalls": 5394,
      "Ġdeveloping": 5395,
      "Ġ1966": 5396,
      "Ġheads": 5397,
      "Ġ1952": 5398,
      "Ġjustice": 5399,
      "Ġcorresp": 5400,
      "Ġ1936": 5401,
      "Ġ1919": 5402,
      "Ġfields": 5403,
      "Ġfreed": 5404,
      "Ġdiscovery": 5405,
      "Ġhappy": 5406,
      "Ġparticipated": 5407,
      "Ġaware": 5408,
      "Ġsymbol": 5409,
      "Ġenjoyed": 5410,
      "Ġresponded": 5411,
      "Ġaccompanied": 5412,
      "Ġearthquake": 5413,
      "Ġcorrespond": 5414,
      "30": 5415,
      "ares": 5416,
      "bled": 5417,
      "mun": 5418,
      "rons": 5419,
      "vo": 5420,
      "Ġfuel": 5421,
      "isers": 5422,
      "esh": 5423,
      "Ġhung": 5424,
      "Ġnom": 5425,
      "Ġones": 5426,
      "Ġheard": 5427,
      "Ġulyss": 5428,
      "Ġalbert": 5429,
      "uting": 5430,
      "oses": 5431,
      "rier": 5432,
      "Ġmoon": 5433,
      "okes": 5434,
      "rupt": 5435,
      "Ġcharter": 5436,
      "phy": 5437,
      "Ġdecre": 5438,
      "Ġpopulations": 5439,
      "Ġbelt": 5440,
      "Ġstew": 5441,
      "Ġoldest": 5442,
      "Ġ110": 5443,
      "Ġ177": 5444,
      "Ġcharacteristics": 5445,
      "Ġclubs": 5446,
      "Ġiniti": 5447,
      "Ġcompetitions": 5448,
      "Ġcombination": 5449,
      "Ġengineering": 5450,
      "Ġexisting": 5451,
      "Ġexistence": 5452,
      "Ġbrothers": 5453,
      "Ġpainting": 5454,
      "Ġreinforce": 5455,
      "hetic": 5456,
      "Ġanthony": 5457,
      "Ġulysses": 5458,
      "jam": 5459,
      "pread": 5460,
      "rant": 5461,
      "set": 5462,
      "inn": 5463,
      "Ġsid": 5464,
      "Ġfount": 5465,
      "Ġdru": 5466,
      "Ġdock": 5467,
      "ications": 5468,
      "Ġgi": 5469,
      "Ġkel": 5470,
      "Ġpros": 5471,
      "aked": 5472,
      "ichol": 5473,
      "Ġlear": 5474,
      "pty": 5475,
      "Ġmarc": 5476,
      "Ġreserve": 5477,
      "Ġgoes": 5478,
      "Ġ77": 5479,
      "Ġcarib": 5480,
      "Ġconsists": 5481,
      "Ġsubmar": 5482,
      "Ġ1973": 5483,
      "Ġmagic": 5484,
      "Ġgrey": 5485,
      "Ġlasted": 5486,
      "Ġreviewers": 5487,
      "Ġyounger": 5488,
      "Ġcoastal": 5489,
      "chest": 5490,
      "Ġdougl": 5491,
      "Ġtypical": 5492,
      "Ġbiography": 5493,
      "Ġcardinal": 5494,
      "Ġfunding": 5495,
      "Ġdominated": 5496,
      "Ġthousands": 5497,
      "Ġopportunity": 5498,
      "Ġturkish": 5499,
      "Ġwidespread": 5500,
      "come": 5501,
      "mel": 5502,
      "water": 5503,
      "Ġtask": 5504,
      "Ġaim": 5505,
      "Ġcaught": 5506,
      "Ġbath": 5507,
      "atus": 5508,
      "Ġmine": 5509,
      "iday": 5510,
      "Ġrum": 5511,
      "Ġconvers": 5512,
      "Ġjazz": 5513,
      "usal": 5514,
      "Ġseat": 5515,
      "Ġchance": 5516,
      "Ġsupre": 5517,
      "iston": 5518,
      "essed": 5519,
      "Ġusa": 5520,
      "Ġresident": 5521,
      "Ġ59": 5522,
      "Ġoverse": 5523,
      "Ġcapable": 5524,
      "Ġreceiving": 5525,
      "Ġdepict": 5526,
      "Ġexpans": 5527,
      "Ġ1967": 5528,
      "Ġanything": 5529,
      "Ġmissing": 5530,
      "Ġgreatly": 5531,
      "Ġclassic": 5532,
      "Ġturning": 5533,
      "Ġreality": 5534,
      "Ġeverything": 5535,
      "Ġwatch": 5536,
      "Ġmountains": 5537,
      "Ġgeorg": 5538,
      "Ġtechnique": 5539,
      "Ġholding": 5540,
      "Ġclosely": 5541,
      "Ġcruiser": 5542,
      "Ġstopped": 5543,
      "Ġsubstant": 5544,
      "works": 5545,
      "Ġhornung": 5546,
      "Ġvehicles": 5547,
      "Ġweakened": 5548,
      "Ġceremony": 5549,
      "Ġunsuccess": 5550,
      "aire": 5551,
      "ns": 5552,
      "Ġtas": 5553,
      "Ġtable": 5554,
      "ona": 5555,
      "itors": 5556,
      "isf": 5557,
      "Ġmul": 5558,
      "ione": 5559,
      "iles": 5560,
      "Ġjers": 5561,
      "agre": 5562,
      "Ġallah": 5563,
      "Ġmarsh": 5564,
      "Ġdescend": 5565,
      "Ġevac": 5566,
      "Ġ66": 5567,
      "Ġjoy": 5568,
      "Ġnoisy": 5569,
      "Ġ98": 5570,
      "Ġacid": 5571,
      "Ġmonarch": 5572,
      "Ġ175": 5573,
      "Ġprovides": 5574,
      "Ġheaded": 5575,
      "Ġserves": 5576,
      "Ġmyc": 5577,
      "Ġ1914": 5578,
      "Ġcourts": 5579,
      "Ġlegacy": 5580,
      "Ġstoryline": 5581,
      "Ġsimilarly": 5582,
      "Ġdecline": 5583,
      "Ġcolonial": 5584,
      "Ġrailroad": 5585,
      "Ġderived": 5586,
      "Ġcreator": 5587,
      "Ġrules": 5588,
      "Ġinspir": 5589,
      "Ġbanks": 5590,
      "Ġassistant": 5591,
      "Ġtells": 5592,
      "Ġrestaurant": 5593,
      "Ġiguanodon": 5594,
      "Ġastronom": 5595,
      "Ġcaribbe": 5596,
      "body": 5597,
      "ni": 5598,
      "vens": 5599,
      "Ġsed": 5600,
      "Ġsort": 5601,
      "rec": 5602,
      "Ġbought": 5603,
      "Ġinner": 5604,
      "Ġpup": 5605,
      "Ġdiam": 5606,
      "entially": 5607,
      "Ġrio": 5608,
      "Ġorchest": 5609,
      "Ġresour": 5610,
      "Ġcolour": 5611,
      "Ġprin": 5612,
      "Ġgrade": 5613,
      "Ġlocations": 5614,
      "ifications": 5615,
      "Ġsupposed": 5616,
      "Ġdivers": 5617,
      "Ġinvited": 5618,
      "Ġdownlo": 5619,
      "Ġclassified": 5620,
      "pective": 5621,
      "Ġviewed": 5622,
      "Ġpitch": 5623,
      "Ġhyp": 5624,
      "Ġpalace": 5625,
      "Ġreading": 5626,
      "Ġfalls": 5627,
      "Ġsufficient": 5628,
      "Ġsurvived": 5629,
      "Ġhills": 5630,
      "Ġinnings": 5631,
      "Ġflights": 5632,
      "Ġrolling": 5633,
      "Ġfilled": 5634,
      "Ġhaiti": 5635,
      "Ġbattleship": 5636,
      "Ġdissipated": 5637,
      "Ġchelsea": 5638,
      "Ġdouglas": 5639,
      "Ġcaribbean": 5640,
      "zac": 5641,
      "Ġsang": 5642,
      "Ġsara": 5643,
      "Ġcrop": 5644,
      "Ġori": 5645,
      "Ġdim": 5646,
      "Ġgate": 5647,
      "Ġasia": 5648,
      "Ġrural": 5649,
      "Ġjay": 5650,
      "Ġvision": 5651,
      "agn": 5652,
      "Ġshore": 5653,
      "Ġshared": 5654,
      "Ġroc": 5655,
      "abil": 5656,
      "Ġexact": 5657,
      "Ġtrying": 5658,
      "Ġsche": 5659,
      "Ġperry": 5660,
      "Ġresist": 5661,
      "Ġevil": 5662,
      "Ġregional": 5663,
      "Ġmaeda": 5664,
      "Ġdoct": 5665,
      "Ġreceive": 5666,
      "Ġnovels": 5667,
      "Ġ1945": 5668,
      "Ġ1971": 5669,
      "Ġdescribing": 5670,
      "Ġways": 5671,
      "Ġdestiny": 5672,
      "apping": 5673,
      "Ġwatched": 5674,
      "Ġgeorgian": 5675,
      "Ġcolonel": 5676,
      "Ġrebu": 5677,
      "Ġpuzz": 5678,
      "Ġestablishment": 5679,
      "Ġalien": 5680,
      "Ġconstantine": 5681,
      "Ġratings": 5682,
      "Ġacquired": 5683,
      "Ġrhyth": 5684,
      "Ġelectronic": 5685,
      "Ġrepeated": 5686,
      "Ġopinion": 5687,
      "Ġcustom": 5688,
      "Ġlegend": 5689,
      "Ġeagle": 5690,
      "Ġhibari": 5691,
      "Ġatmosphere": 5692,
      "ev": 5693,
      "iable": 5694,
      "ji": 5695,
      "ruli": 5696,
      "Ġsad": 5697,
      "Ġwy": 5698,
      "Ġfine": 5699,
      "Ġpav": 5700,
      "Ġpack": 5701,
      "Ġmtv": 5702,
      "Ġlad": 5703,
      "Ġeighth": 5704,
      "acity": 5705,
      "Ġjones": 5706,
      "Ġanton": 5707,
      "Ġvon": 5708,
      "aka": 5709,
      "ighter": 5710,
      "Ġexerc": 5711,
      "Ġlee": 5712,
      "Ġboys": 5713,
      "Ġamate": 5714,
      "Ġspacing": 5715,
      "Ġwhereas": 5716,
      "Ġentry": 5717,
      "Ġphoen": 5718,
      "Ġsteel": 5719,
      "Ġ1982": 5720,
      "Ġ176": 5721,
      "Ġevergl": 5722,
      "Ġcrimin": 5723,
      "Ġmoder": 5724,
      "Ġmyster": 5725,
      "Ġturns": 5726,
      "Ġdemand": 5727,
      "Ġ250": 5728,
      "Ġprize": 5729,
      "Ġromani": 5730,
      "Ġpenalty": 5731,
      "Ġqedar": 5732,
      "Ġvenus": 5733,
      "Ġmortal": 5734,
      "Ġopposition": 5735,
      "Ġoslo": 5736,
      "Ġboliv": 5737,
      "Ġconverted": 5738,
      "Ġpsych": 5739,
      "Ġteaching": 5740,
      "Ġlibrary": 5741,
      "Ġeverglades": 5742,
      "ora": 5743,
      "Ġdod": 5744,
      "Ġdating": 5745,
      "ivered": 5746,
      "estone": 5747,
      "iful": 5748,
      "Ġmoz": 5749,
      "pton": 5750,
      "Ġenl": 5751,
      "Ġrecru": 5752,
      "Ġfinish": 5753,
      "Ġpregn": 5754,
      "issance": 5755,
      "Ġregime": 5756,
      "Ġfranch": 5757,
      "Ġlover": 5758,
      "Ġentering": 5759,
      "Ġdepicted": 5760,
      "Ġ1976": 5761,
      "Ġproviding": 5762,
      "ception": 5763,
      "Ġ1956": 5764,
      "Ġ1913": 5765,
      "Ġ1916": 5766,
      "Ġrefle": 5767,
      "Ġexplos": 5768,
      "book": 5769,
      "Ġengineers": 5770,
      "Ġpoems": 5771,
      "Ġfocused": 5772,
      "Ġrenamed": 5773,
      "Ġassistance": 5774,
      "Ġuncle": 5775,
      "Ġarranged": 5776,
      "Ġrescue": 5777,
      "Ġsucceeded": 5778,
      "Ġknew": 5779,
      "Ġbrazil": 5780,
      "iar": 5781,
      "mat": 5782,
      "sp": 5783,
      "à¸": 5784,
      "Ġtied": 5785,
      "erick": 5786,
      "Ġlenn": 5787,
      "ilton": 5788,
      "Ġconqu": 5789,
      "Ġorn": 5790,
      "ardo": 5791,
      "ube": 5792,
      "Ġpole": 5793,
      "Ġagent": 5794,
      "Ġpartners": 5795,
      "Ġattached": 5796,
      "Ġdefined": 5797,
      "Ġaddress": 5798,
      "Ġstrateg": 5799,
      "Ġ112": 5800,
      "Ġ1943": 5801,
      "Ġexpos": 5802,
      "Ġdiscip": 5803,
      "Ġcamps": 5804,
      "Ġtownship": 5805,
      "Ġromantic": 5806,
      "Ġdelivered": 5807,
      "Ġcommunist": 5808,
      "Ġholds": 5809,
      "Ġtomb": 5810,
      "Ġseparated": 5811,
      "Ġimmig": 5812,
      "Ġcredited": 5813,
      "Ġcredits": 5814,
      "Ġmethods": 5815,
      "Ġconsisting": 5816,
      "Ġghost": 5817,
      "Ġcertified": 5818,
      "Ġarticle": 5819,
      "Ġcitiz": 5820,
      "Ġsupplies": 5821,
      "Ġbasketball": 5822,
      "Ġsiege": 5823,
      "bles": 5824,
      "nell": 5825,
      "eds": 5826,
      "Ġpatt": 5827,
      "Ġhits": 5828,
      "Ġhear": 5829,
      "Ġconve": 5830,
      "uma": 5831,
      "iece": 5832,
      "usted": 5833,
      "Ġspin": 5834,
      "Ġdesire": 5835,
      "Ġoutstanding": 5836,
      "Ġsecure": 5837,
      "Ġprint": 5838,
      "Ġ87": 5839,
      "ropri": 5840,
      "Ġdepos": 5841,
      "Ġstevens": 5842,
      "Ġ1963": 5843,
      "Ġcommanded": 5844,
      "Ġmorrison": 5845,
      "Ġcivilian": 5846,
      "Ġprofessor": 5847,
      "Ġcolonies": 5848,
      "Ġconduct": 5849,
      "Ġrangers": 5850,
      "Ġathletic": 5851,
      "Ġexamples": 5852,
      "Ġrarely": 5853,
      "Ġcontroversy": 5854,
      "Ġdinosaur": 5855,
      "Ġsudden": 5856,
      "Ġhindu": 5857,
      "Ġadapted": 5858,
      "Ġjersey": 5859,
      "no": 5860,
      "pany": 5861,
      "ront": 5862,
      "Ġsight": 5863,
      "Ġlat": 5864,
      "Ġnas": 5865,
      "Ġnic": 5866,
      "ador": 5867,
      "Ġutil": 5868,
      "Ġvoy": 5869,
      "Ġplain": 5870,
      "Ġleaves": 5871,
      "Ġarthur": 5872,
      "Ġfinishing": 5873,
      "Ġprey": 5874,
      "mann": 5875,
      "Ġaccounts": 5876,
      "issipp": 5877,
      "Ġsoil": 5878,
      "attle": 5879,
      "Ġtransform": 5880,
      "Ġreputation": 5881,
      "Ġeliz": 5882,
      "Ġmississipp": 5883,
      "Ġchess": 5884,
      "Ġclasses": 5885,
      "Ġaustralians": 5886,
      "Ġprotected": 5887,
      "Ġwalter": 5888,
      "Ġreferences": 5889,
      "oba": 5890,
      "Ġhollywood": 5891,
      "Ġcircum": 5892,
      "Ġselect": 5893,
      "Ġwindow": 5894,
      "Ġarchaeology": 5895,
      "Ġindicate": 5896,
      "Ġmontana": 5897,
      "aska": 5898,
      "Ġremainder": 5899,
      "Ġbradford": 5900,
      "Ġportrayed": 5901,
      "Ġutc": 5902,
      "Ġshooting": 5903,
      "Ġalexander": 5904,
      "Ġcolumbia": 5905,
      "Ġtruj": 5906,
      "Ġritual": 5907,
      "Ġphilosop": 5908,
      "Ġsunday": 5909,
      "Ġfountain": 5910,
      "mod": 5911,
      "ture": 5912,
      "rel": 5913,
      "Ġbos": 5914,
      "Ġonline": 5915,
      "Ġanzac": 5916,
      "Ġvent": 5917,
      "eman": 5918,
      "ameter": 5919,
      "Ġworst": 5920,
      "Ġsoul": 5921,
      "Ġwarm": 5922,
      "Ġundert": 5923,
      "Ġdivine": 5924,
      "Ġ1978": 5925,
      "Ġmissions": 5926,
      "Ġ1953": 5927,
      "Ġfacing": 5928,
      "Ġpurs": 5929,
      "Ġoccurs": 5930,
      "Ġintroduction": 5931,
      "Ġtests": 5932,
      "Ġproducing": 5933,
      "Ġdenied": 5934,
      "Ġmemory": 5935,
      "Ġappoint": 5936,
      "Ġmaryland": 5937,
      "Ġfeelings": 5938,
      "Ġspecifically": 5939,
      "Ġhearts": 5940,
      "Ġthreatened": 5941,
      "Ġcroatian": 5942,
      "Ġchairman": 5943,
      "Ġagricultural": 5944,
      "Ġstrengthen": 5945,
      "Ġsynthes": 5946,
      "Ġtrujillo": 5947,
      "cy": 5948,
      "ients": 5949,
      "ĪĴ": 5950,
      "Ġax": 5951,
      "Ġnone": 5952,
      "entions": 5953,
      "Ġalan": 5954,
      "Ġrand": 5955,
      "othes": 5956,
      "agues": 5957,
      "Ġroxas": 5958,
      "Ġexit": 5959,
      "Ġexpect": 5960,
      "ĠâĪĴ": 5961,
      "Ġnoting": 5962,
      "elli": 5963,
      "Ġoffense": 5964,
      "Ġindig": 5965,
      "Ġacts": 5966,
      "Ġstudied": 5967,
      "Ġdivisions": 5968,
      "Ġstef": 5969,
      "Ġstrand": 5970,
      "Ġleads": 5971,
      "Ġpassage": 5972,
      "Ġsuccessor": 5973,
      "Ġappearing": 5974,
      "Ġsword": 5975,
      "Ġcommunities": 5976,
      "Ġviews": 5977,
      "Ġreplace": 5978,
      "Ġstatement": 5979,
      "Ġlabour": 5980,
      "Ġwooden": 5981,
      "Ġinterested": 5982,
      "Ġgetting": 5983,
      "Ġhomer": 5984,
      "Ġprede": 5985,
      "Ġscientific": 5986,
      "Ġrecognition": 5987,
      "Ġfeeling": 5988,
      "Ġsamuel": 5989,
      "Ġsubstit": 5990,
      "Ġfavorite": 5991,
      "Ġmasters": 5992,
      "Ġstephen": 5993,
      "Ġalternative": 5994,
      "Ġcharlie": 5995,
      "Ġconnection": 5996,
      "Ġmississippi": 5997,
      "gie": 5998,
      "hi": 5999,
      "oz": 6000,
      "rations": 6001,
      "Ã¸": 6002,
      "Ġern": 6003,
      "erted": 6004,
      "Ġcens": 6005,
      "Ġnbc": 6006,
      "Ġplunk": 6007,
      "Ġunp": 6008,
      "pping": 6009,
      "Ġmarg": 6010,
      "Ġspeech": 6011,
      "Ġbrand": 6012,
      "Ġ69": 6013,
      "Ġknight": 6014,
      "Ġwarri": 6015,
      "Ġhoward": 6016,
      "Ġ1915": 6017,
      "Ġreviewer": 6018,
      "Ġbasic": 6019,
      "Ġseeing": 6020,
      "Ġnether": 6021,
      "Ġactivision": 6022,
      "Ġbiographer": 6023,
      "Ġduke": 6024,
      "Ġmaintain": 6025,
      "Ġlords": 6026,
      "Ġdollars": 6027,
      "Ġgallery": 6028,
      "Ġwrong": 6029,
      "Ġpicture": 6030,
      "Ġrifles": 6031,
      "Ġprincipal": 6032,
      "ructure": 6033,
      "Ġmessage": 6034,
      "break": 6035,
      "Ġdismissed": 6036,
      "Ġglobal": 6037,
      "Ġarsenal": 6038,
      "Ġsupreme": 6039,
      "con": 6040,
      "kh": 6041,
      "Ġtie": 6042,
      "Ġsell": 6043,
      "orters": 6044,
      "elve": 6045,
      "acent": 6046,
      "uri": 6047,
      "otes": 6048,
      "Ġplants": 6049,
      "Ġtwelve": 6050,
      "onder": 6051,
      "Ġattributed": 6052,
      "Ġcharges": 6053,
      "Ġknots": 6054,
      "aws": 6055,
      "Ġretire": 6056,
      "Ġcapacity": 6057,
      "Ġcontinuing": 6058,
      "Ġcalvert": 6059,
      "Ġopponents": 6060,
      "Ġchanging": 6061,
      "Ġpursu": 6062,
      "Ġinvolvement": 6063,
      "Ġveget": 6064,
      "Ġtribes": 6065,
      "Ġdrawing": 6066,
      "Ġacademic": 6067,
      "Ġninth": 6068,
      "worth": 6069,
      "Ġdiscussed": 6070,
      "Ġconsiderable": 6071,
      "Ġenterprise": 6072,
      "Ġextrem": 6073,
      "Ġspecimens": 6074,
      "Ġisabella": 6075,
      "eenth": 6076,
      "pus": 6077,
      "tic": 6078,
      "uct": 6079,
      "Ġtig": 6080,
      "Ġtaught": 6081,
      "Ġtheater": 6082,
      "Ġsession": 6083,
      "Ġfab": 6084,
      "orer": 6085,
      "Ġinland": 6086,
      "Ġpy": 6087,
      "Ġpale": 6088,
      "Ġml": 6089,
      "Ġdna": 6090,
      "Ġdanny": 6091,
      "Ġhud": 6092,
      "Ġvary": 6093,
      "aga": 6094,
      "osis": 6095,
      "Ġprose": 6096,
      "Ġyank": 6097,
      "Ġshut": 6098,
      "arts": 6099,
      "Ġexchange": 6100,
      "Ġleuk": 6101,
      "Ġworth": 6102,
      "Ġmarks": 6103,
      "Ġwealth": 6104,
      "Ġoffers": 6105,
      "Ġflash": 6106,
      "kson": 6107,
      "Ġ74": 6108,
      "Ġ79": 6109,
      "Ġsomeone": 6110,
      "Ġ91": 6111,
      "Ġreleg": 6112,
      "Ġ1948": 6113,
      "Ġcrash": 6114,
      "Ġ1917": 6115,
      "Ġstandards": 6116,
      "Ġsettle": 6117,
      "Ġ1890": 6118,
      "Ġdifficulty": 6119,
      "Ġforests": 6120,
      "Ġruled": 6121,
      "Ġtowers": 6122,
      "jevo": 6123,
      "Ġscholar": 6124,
      "Ġsevent": 6125,
      "Ġchallenge": 6126,
      "Ġadventure": 6127,
      "Ġdangerous": 6128,
      "Ġkitsune": 6129,
      "Ġsarajevo": 6130,
      "Ġpredecess": 6131,
      "fri": 6132,
      "gency": 6133,
      "nic": 6134,
      "uit": 6135,
      "Ġsher": 6136,
      "Ġcory": 6137,
      "Ġmode": 6138,
      "Ġlap": 6139,
      "idden": 6140,
      "Ġalg": 6141,
      "Ġjif": 6142,
      "Ġanne": 6143,
      "Ġmanner": 6144,
      "Ġ88": 6145,
      "Ġproduct": 6146,
      "Ġsubt": 6147,
      "Ġdecor": 6148,
      "Ġsigning": 6149,
      "Ġ1979": 6150,
      "Ġcampb": 6151,
      "Ġ1951": 6152,
      "Ġdemol": 6153,
      "Ġsuperior": 6154,
      "Ġrocky": 6155,
      "engers": 6156,
      "Ġfaces": 6157,
      "Ġtalk": 6158,
      "Ġlaunch": 6159,
      "Ġexception": 6160,
      "Ġabsor": 6161,
      "Ġguardian": 6162,
      "Ġvictoria": 6163,
      "Ġemotional": 6164,
      "Ġfrederick": 6165,
      "Ġsplit": 6166,
      "Ġbolivar": 6167,
      "Ġyankovic": 6168,
      "20": 6169,
      "named": 6170,
      "Ġere": 6171,
      "Ġsi": 6172,
      "Ġske": 6173,
      "rell": 6174,
      "Ġwim": 6175,
      "Ġcu": 6176,
      "Ġbert": 6177,
      "itled": 6178,
      "Ġpage": 6179,
      "Ġmam": 6180,
      "Ġdag": 6181,
      "Ġnap": 6182,
      "Ġech": 6183,
      "Ġgather": 6184,
      "Ġherit": 6185,
      "Ġalph": 6186,
      "avia": 6187,
      "Ġproceed": 6188,
      "Ġyan": 6189,
      "Ġshop": 6190,
      "abeth": 6191,
      "berts": 6192,
      "anger": 6193,
      "ultane": 6194,
      "Ġjoe": 6195,
      "iously": 6196,
      "Ġconsum": 6197,
      "Ġsimultane": 6198,
      "Ġ121": 6199,
      "Ġlanded": 6200,
      "Ġ1961": 6201,
      "graded": 6202,
      "Ġchen": 6203,
      "Ġ1954": 6204,
      "Ġbreaking": 6205,
      "Ġarchb": 6206,
      "Ġstream": 6207,
      "Ġskye": 6208,
      "Ġbrigades": 6209,
      "Ġreplacement": 6210,
      "Ġhistorians": 6211,
      "Ġnighting": 6212,
      "Ġcrossing": 6213,
      "Ġcoup": 6214,
      "Ġraces": 6215,
      "onica": 6216,
      "Ġrelationships": 6217,
      "Ġancest": 6218,
      "Ġnomination": 6219,
      "Ġobservations": 6220,
      "Ġleadership": 6221,
      "Ġsomali": 6222,
      "Ġcandidate": 6223,
      "Ġneighbor": 6224,
      "Ġclarkson": 6225,
      "Ġcloud": 6226,
      "Ġchamber": 6227,
      "Ġmozamb": 6228,
      "Ġjifna": 6229,
      "Ġheritage": 6230,
      "brien": 6231,
      "dal": 6232,
      "eper": 6233,
      "iary": 6234,
      "oth": 6235,
      "Ġtu": 6236,
      "Ġtank": 6237,
      "Ġsanta": 6238,
      "Ġcot": 6239,
      "Ġbure": 6240,
      "Ġfro": 6241,
      "orous": 6242,
      "Ġdiet": 6243,
      "Ġrever": 6244,
      "Ġgle": 6245,
      "eless": 6246,
      "ivals": 6247,
      "aya": 6248,
      "osa": 6249,
      "istol": 6250,
      "illing": 6251,
      "Ġroberts": 6252,
      "Ġadults": 6253,
      "Ġteeth": 6254,
      "Ġmarines": 6255,
      "Ġagency": 6256,
      "Ġparties": 6257,
      "Ġpartial": 6258,
      "Ġsecured": 6259,
      "Ġblocks": 6260,
      "Ġaccur": 6261,
      "Ġparas": 6262,
      "Ġcarbon": 6263,
      "Ġ99": 6264,
      "ropol": 6265,
      "Ġsimps": 6266,
      "Ġestate": 6267,
      "Ġdistributed": 6268,
      "Ġclassical": 6269,
      "Ġ1937": 6270,
      "Ġlegs": 6271,
      "Ġbelieves": 6272,
      "Ġwalk": 6273,
      "Ġdestroyers": 6274,
      "Ġrooms": 6275,
      "Ġwilde": 6276,
      "Ġjerusal": 6277,
      "Ġbringing": 6278,
      "Ġwatershed": 6279,
      "Ġbono": 6280,
      "Ġdocumentary": 6281,
      "Ġpicked": 6282,
      "Ġintersection": 6283,
      "Ġbehavi": 6284,
      "Ġrecommended": 6285,
      "ranean": 6286,
      "Ġfrancisco": 6287,
      "Ġfungus": 6288,
      "Ġorganizations": 6289,
      "Ġamateur": 6290,
      "Ġextremely": 6291,
      "Ġnightingale": 6292,
      "Ġsimpsons": 6293,
      "Ġjerusalem": 6294,
      "crib": 6295,
      "ext": 6296,
      "gas": 6297,
      "ipe": 6298,
      "theless": 6299,
      "yles": 6300,
      "Ġwic": 6301,
      "Ġpir": 6302,
      "Ġgam": 6303,
      "Ġgone": 6304,
      "ussion": 6305,
      "Ġsections": 6306,
      "umps": 6307,
      "avada": 6308,
      "Ġclay": 6309,
      "Ġdisapp": 6310,
      "Ġweb": 6311,
      "actions": 6312,
      "Ġgenre": 6313,
      "Ġcarter": 6314,
      "Ġshowing": 6315,
      "Ġannivers": 6316,
      "Ġmissed": 6317,
      "Ġ1955": 6318,
      "Ġgodd": 6319,
      "Ġlisten": 6320,
      "Ġconstruct": 6321,
      "Ġstreets": 6322,
      "iveness": 6323,
      "ivalent": 6324,
      "Ġnevertheless": 6325,
      "Ġhamilton": 6326,
      "Ġdiameter": 6327,
      "Ġsurviving": 6328,
      "Ġterritories": 6329,
      "Ġwindows": 6330,
      "Ġlanguages": 6331,
      "Ġmulti": 6332,
      "Ġbanai": 6333,
      "Ġimmediate": 6334,
      "Ġsurrounded": 6335,
      "Ġolympics": 6336,
      "Ġconcerns": 6337,
      "Ġrifle": 6338,
      "Ġtunnel": 6339,
      "Ġadams": 6340,
      "Ġargentina": 6341,
      "ĠÃĹ": 6342,
      "Ġmunicipal": 6343,
      "Ġisolated": 6344,
      "Ġlearning": 6345,
      "Ġexpansion": 6346,
      "bie": 6347,
      "sch": 6348,
      "uge": 6349,
      "Ġtick": 6350,
      "inals": 6351,
      "Ġsons": 6352,
      "rets": 6353,
      "Ġwants": 6354,
      "Ġhoc": 6355,
      "Ġlanc": 6356,
      "aments": 6357,
      "adow": 6358,
      "Ġvac": 6359,
      "Ġ1900": 6360,
      "Ġexisted": 6361,
      "Ġfiring": 6362,
      "Ġintention": 6363,
      "raf": 6364,
      "Ġflat": 6365,
      "wealth": 6366,
      "Ġ89": 6367,
      "Ġretreat": 6368,
      "Ġarmor": 6369,
      "Ġgerard": 6370,
      "Ġcris": 6371,
      "Ġ1958": 6372,
      "Ġtries": 6373,
      "Ġapproached": 6374,
      "Ġcommonwealth": 6375,
      "Ġheaven": 6376,
      "Ġdetail": 6377,
      "Ġdetailed": 6378,
      "Ġruler": 6379,
      "Ġinstitutions": 6380,
      "Ġprotests": 6381,
      "Ġinhabit": 6382,
      "Ġarrangement": 6383,
      "Ġemerged": 6384,
      "Ġextreme": 6385,
      "Ġencouraged": 6386,
      "Ġadmiral": 6387,
      "Ġcompounds": 6388,
      "Ġreunion": 6389,
      "Ġportrait": 6390,
      "Ġdipl": 6391,
      "Ġinspiration": 6392,
      "Ġanniversary": 6393,
      "cia": 6394,
      "eor": 6395,
      "ien": 6396,
      "mus": 6397,
      "real": 6398,
      "Ġcov": 6399,
      "Ġfern": 6400,
      "itals": 6401,
      "Ġpin": 6402,
      "Ġpure": 6403,
      "Ġhi": 6404,
      "Ġgiant": 6405,
      "iling": 6406,
      "Ġstem": 6407,
      "Ġbear": 6408,
      "using": 6409,
      "Ġroger": 6410,
      "Ġscrap": 6411,
      "Ġmega": 6412,
      "Ġpointed": 6413,
      "Ġcob": 6414,
      "Ġflo": 6415,
      "Ġsongwrit": 6416,
      "Ġcounties": 6417,
      "Ġcrest": 6418,
      "Ġinfr": 6419,
      "Ġimplement": 6420,
      "Ġ1949": 6421,
      "Ġ1977": 6422,
      "Ġdesignation": 6423,
      "ocked": 6424,
      "Ġtriple": 6425,
      "Ġvideos": 6426,
      "Ġinternal": 6427,
      "Ġattempting": 6428,
      "Ġbush": 6429,
      "Ġtreated": 6430,
      "Ġcrossed": 6431,
      "Ġsuffering": 6432,
      "Ġceratops": 6433,
      "Ġregularly": 6434,
      "Ġadmitted": 6435,
      "Ġsequel": 6436,
      "Ġnorman": 6437,
      "Ġinstitution": 6438,
      "Ġchoir": 6439,
      "Ġautom": 6440,
      "Ġhoped": 6441,
      "Ġclimate": 6442,
      "Ġlbw": 6443,
      "Ġcorrect": 6444,
      "Ġryan": 6445,
      "Ġunusual": 6446,
      "Ġeggs": 6447,
      "Ġrenew": 6448,
      "Ġfreedom": 6449,
      "Ġlennon": 6450,
      "ois": 6451,
      "wich": 6452,
      "Ġtales": 6453,
      "Ġsulf": 6454,
      "Ġsessions": 6455,
      "Ġped": 6456,
      "Ġpione": 6457,
      "esi": 6458,
      "arf": 6459,
      "inger": 6460,
      "icts": 6461,
      "Ġna": 6462,
      "Ġgor": 6463,
      "imate": 6464,
      "otic": 6465,
      "ceived": 6466,
      "Ġanek": 6467,
      "Ġkid": 6468,
      "emia": 6469,
      "rif": 6470,
      "Ġprohib": 6471,
      "unt": 6472,
      "apped": 6473,
      "antly": 6474,
      "uda": 6475,
      "oca": 6476,
      "Ġherge": 6477,
      "Ġdesert": 6478,
      "Ġserial": 6479,
      "Ġaged": 6480,
      "Ġgoffman": 6481,
      "Ġfled": 6482,
      "Ġflower": 6483,
      "Ġassumed": 6484,
      "Ġverse": 6485,
      "Ġrelative": 6486,
      "Ġackn": 6487,
      "Ġ07": 6488,
      "Ġairline": 6489,
      "Ġtransition": 6490,
      "Ġmusicians": 6491,
      "Ġmeteor": 6492,
      "Ġimposs": 6493,
      "Ġowner": 6494,
      "Ġmedium": 6495,
      "inking": 6496,
      "Ġvisible": 6497,
      "Ġxe": 6498,
      "Ġapproved": 6499,
      "Ġpossession": 6500,
      "Ġfootage": 6501,
      "aurus": 6502,
      "Ġlaws": 6503,
      "Ġjean": 6504,
      "Ġstrongly": 6505,
      "Ġstatistics": 6506,
      "Ġindeed": 6507,
      "Ġconvoy": 6508,
      "coming": 6509,
      "Ġidentity": 6510,
      "Ġimprove": 6511,
      "Ġkilmer": 6512,
      "Ġduties": 6513,
      "Ġrhodes": 6514,
      "Ġhundreds": 6515,
      "Ġjaneiro": 6516,
      "Ġwearing": 6517,
      "Ġcrusad": 6518,
      "Ġreconstruction": 6519,
      "Ġsaprang": 6520,
      "Ġcaval": 6521,
      "Ġprotagonist": 6522,
      "Ġinitiative": 6523,
      "Ġresources": 6524,
      "Ġfranchise": 6525,
      "Ġacknow": 6526,
      "hu": 6527,
      "oom": 6528,
      "pret": 6529,
      "right": 6530,
      "rates": 6531,
      "tw": 6532,
      "wen": 6533,
      "Ġak": 6534,
      "erog": 6535,
      "Ġwel": 6536,
      "Ġwings": 6537,
      "Ġcater": 6538,
      "Ġcraft": 6539,
      "Ġbce": 6540,
      "Ġina": 6541,
      "Ġthro": 6542,
      "lying": 6543,
      "Ġheat": 6544,
      "uses": 6545,
      "Ġdean": 6546,
      "Ġkin": 6547,
      "odies": 6548,
      "Ġproport": 6549,
      "Ġshif": 6550,
      "Ġshakes": 6551,
      "ables": 6552,
      "udes": 6553,
      "Ġinte": 6554,
      "Ġreconna": 6555,
      "Ġmeets": 6556,
      "Ġages": 6557,
      "Ġpartly": 6558,
      "Ġpreced": 6559,
      "Ġprerog": 6560,
      "Ġ63": 6561,
      "Ġaccused": 6562,
      "Ġ93": 6563,
      "Ġwinner": 6564,
      "Ġ06": 6565,
      "Ġ1983": 6566,
      "ahl": 6567,
      "Ġinsur": 6568,
      "Ġstarling": 6569,
      "Ġmedal": 6570,
      "Ġtrials": 6571,
      "Ġ1910": 6572,
      "Ġharm": 6573,
      "Ġeasily": 6574,
      "Ġlawton": 6575,
      "Ġdebate": 6576,
      "Ġcycle": 6577,
      "Ġcatch": 6578,
      "encies": 6579,
      "Ġequal": 6580,
      "Ġlooked": 6581,
      "Ġcollabor": 6582,
      "Ġcamera": 6583,
      "Ġindicated": 6584,
      "Ġpractices": 6585,
      "Ġrichardson": 6586,
      "Ġhunting": 6587,
      "Ġcompletion": 6588,
      "Ġconcerned": 6589,
      "Ġpleasure": 6590,
      "Ġattracted": 6591,
      "Ġmolec": 6592,
      "Ġowen": 6593,
      "Ġcabin": 6594,
      "Ġspecimen": 6595,
      "Ġterminus": 6596,
      "Ġdoubt": 6597,
      "Ġfixed": 6598,
      "Ġadjacent": 6599,
      "Ġdramatic": 6600,
      "Ġconcerts": 6601,
      "Ġjesus": 6602,
      "bledon": 6603,
      "Ġgeorgia": 6604,
      "Ġcircumst": 6605,
      "Ġwimbledon": 6606,
      "Ġbehaviour": 6607,
      "Ġreconnaissance": 6608,
      "how": 6609,
      "hang": 6610,
      "za": 6611,
      "Ġward": 6612,
      "Ġboss": 6613,
      "organ": 6614,
      "Ġpink": 6615,
      "Ġmant": 6616,
      "lets": 6617,
      "Ġrated": 6618,
      "eton": 6619,
      "Ġjag": 6620,
      "Ġky": 6621,
      "umin": 6622,
      "Ġprol": 6623,
      "Ġshots": 6624,
      "allow": 6625,
      "Ġexha": 6626,
      "Ġspaces": 6627,
      "Ġfeather": 6628,
      "oking": 6629,
      "Ġpool": 6630,
      "Ġaggress": 6631,
      "Ġoverw": 6632,
      "Ġparks": 6633,
      "Ġverte": 6634,
      "Ġrecordings": 6635,
      "Ġunderstand": 6636,
      "Ġministry": 6637,
      "Ġdoctor": 6638,
      "Ġpublishing": 6639,
      "Ġartific": 6640,
      "Ġmetall": 6641,
      "Ġmoral": 6642,
      "Ġdestruction": 6643,
      "Ġeffectively": 6644,
      "Ġinfluences": 6645,
      "Ġfalling": 6646,
      "Ġsettled": 6647,
      "Ġreduce": 6648,
      "Ġcomposer": 6649,
      "Ġcambridge": 6650,
      "Ġtraveled": 6651,
      "Ġpurchase": 6652,
      "Ġchalleng": 6653,
      "Ġsomalia": 6654,
      "Ġcongreg": 6655,
      "Ġincorporated": 6656,
      "Ġkorean": 6657,
      "Ġsculpture": 6658,
      "Ġqueens": 6659,
      "Ġremnants": 6660,
      "Ġdiamond": 6661,
      "Ġdownload": 6662,
      "Ġrhythm": 6663,
      "ras": 6664,
      "rus": 6665,
      "vis": 6666,
      "yard": 6667,
      "zen": 6668,
      "Ê»": 6669,
      "Ġace": 6670,
      "heim": 6671,
      "Ġsb": 6672,
      "Ġwet": 6673,
      "Ġcant": 6674,
      "itated": 6675,
      "Ġaniston": 6676,
      "Ġker": 6677,
      "Ġkomb": 6678,
      "Ġva": 6679,
      "ifer": 6680,
      "opl": 6681,
      "atech": 6682,
      "Ġboom": 6683,
      "Ġcontext": 6684,
      "Ġafterwards": 6685,
      "Ġspr": 6686,
      "Ġrecalled": 6687,
      "Ġdispl": 6688,
      "Ġimpl": 6689,
      "Ġgrace": 6690,
      "Ġsomewh": 6691,
      "aware": 6692,
      "Ġlob": 6693,
      "Ġeleven": 6694,
      "Ġ05": 6695,
      "Ġ122": 6696,
      "Ġdriving": 6697,
      "Ġoperating": 6698,
      "Ġkeamy": 6699,
      "Ġadvis": 6700,
      "Ġattacking": 6701,
      "Ġfurt": 6702,
      "Ġstorms": 6703,
      "Ġrestoration": 6704,
      "Ġaviation": 6705,
      "Ġsolar": 6706,
      "Ġvictims": 6707,
      "Ġstands": 6708,
      "Ġhob": 6709,
      "attered": 6710,
      "Ġpitcher": 6711,
      "Ġconvention": 6712,
      "Ġ1909": 6713,
      "Ġmerch": 6714,
      "Ġholiday": 6715,
      "Ġmeetings": 6716,
      "Ġaccommod": 6717,
      "Ġselection": 6718,
      "Ġfunds": 6719,
      "going": 6720,
      "Ġmeasures": 6721,
      "Ġ1880": 6722,
      "Ġgarcia": 6723,
      "Ġpainted": 6724,
      "Ġseemed": 6725,
      "Ġabsol": 6726,
      "Ġessential": 6727,
      "Ġrecovered": 6728,
      "Ġcontroversial": 6729,
      "Ġbehavior": 6730,
      "Ġobtained": 6731,
      "Ġbridges": 6732,
      "Ġpuppet": 6733,
      "Ġparallel": 6734,
      "Ġpupils": 6735,
      "Ġkombat": 6736,
      "Ġsomewhat": 6737,
      "Ġtone": 6738,
      "onso": 6739,
      "Ġcem": 6740,
      "Ġcave": 6741,
      "Ġcake": 6742,
      "Ġoak": 6743,
      "Ġpad": 6744,
      "Ġpier": 6745,
      "icate": 6746,
      "idae": 6747,
      "thosaurus": 6748,
      "Ġrag": 6749,
      "Ġmanus": 6750,
      "Ġ58": 6751,
      "ected": 6752,
      "achus": 6753,
      "Ġinteraction": 6754,
      "Ġmayor": 6755,
      "Ġunderst": 6756,
      "Ġconsc": 6757,
      "Ġfraser": 6758,
      "Ġbuck": 6759,
      "Ġpreserved": 6760,
      "Ġincom": 6761,
      "Ġ08": 6762,
      "Ġgenerals": 6763,
      "Ġpoland": 6764,
      "Ġrepr": 6765,
      "Ġdivor": 6766,
      "Ġorigins": 6767,
      "Ġobl": 6768,
      "annah": 6769,
      "Ġjohnston": 6770,
      "Ġgermans": 6771,
      "Ġpassengers": 6772,
      "Ġdirectors": 6773,
      "Ġ1931": 6774,
      "Ġ1935": 6775,
      "Ġ1912": 6776,
      "Ġlowest": 6777,
      "Ġrepresenting": 6778,
      "Ġdestroyer": 6779,
      "Ġpraise": 6780,
      "Ġconvin": 6781,
      "Ġcirculation": 6782,
      "Ġrebels": 6783,
      "Ġhosted": 6784,
      "Ġescort": 6785,
      "Ġnormally": 6786,
      "Ġarabic": 6787,
      "Ġlinked": 6788,
      "Ġpanel": 6789,
      "Ġwitch": 6790,
      "Ġopposite": 6791,
      "Ġarchitecture": 6792,
      "Ġthrowing": 6793,
      "Ġcancer": 6794,
      "Ġdistinguished": 6795,
      "Ġresearchers": 6796,
      "Ġelizabeth": 6797,
      "Ġplunketts": 6798,
      "Ġcorythosaurus": 6799,
      "Ġgoddess": 6800,
      "Ġcrisis": 6801,
      "Ġshakespe": 6802,
      "hist": 6803,
      "pic": 6804,
      "yon": 6805,
      "Ġtong": 6806,
      "Ġtailed": 6807,
      "Ġsab": 6808,
      "Ġwine": 6809,
      "Ġbone": 6810,
      "Ġbapt": 6811,
      "Ġfate": 6812,
      "Ġfia": 6813,
      "Ġfold": 6814,
      "atures": 6815,
      "Ġinse": 6816,
      "esse": 6817,
      "Ġdc": 6818,
      "Ġtoll": 6819,
      "Ġgri": 6820,
      "Ġgib": 6821,
      "Ġust": 6822,
      "olay": 6823,
      "ira": 6824,
      "Ġalf": 6825,
      "Ġalt": 6826,
      "Ġansw": 6827,
      "Ġsees": 6828,
      "aku": 6829,
      "Ġrecur": 6830,
      "Ġdisaster": 6831,
      "Ġcovers": 6832,
      "Ġinterpret": 6833,
      "ensis": 6834,
      "Ġforming": 6835,
      "Ġ68": 6836,
      "Ġ86": 6837,
      "Ġmonuments": 6838,
      "Ġmah": 6839,
      "Ġdefences": 6840,
      "Ġdefended": 6841,
      "Ġincome": 6842,
      "Ġwilling": 6843,
      "Ġexpensive": 6844,
      "Ġhelmet": 6845,
      "Ġreturns": 6846,
      "Ġ1932": 6847,
      "Ġwaterfall": 6848,
      "Ġira": 6849,
      "tendo": 6850,
      "Ġcalc": 6851,
      "Ġtrading": 6852,
      "Ġpropag": 6853,
      "Ġcrosses": 6854,
      "Ġeccl": 6855,
      "Ġpalmy": 6856,
      "Ġcovering": 6857,
      "Ġprogramme": 6858,
      "Ġlimit": 6859,
      "Ġaudio": 6860,
      "Ġdifficulties": 6861,
      "Ġsatur": 6862,
      "Ġstayed": 6863,
      "Ġjudge": 6864,
      "Ġresponsibility": 6865,
      "Ġnintendo": 6866,
      "Ġjunior": 6867,
      "Ġequipped": 6868,
      "Ġcarrying": 6869,
      "Ġmobile": 6870,
      "Ġelsewhere": 6871,
      "Ġvessel": 6872,
      "Ġsisters": 6873,
      "Ġstanley": 6874,
      "Ġmarlborough": 6875,
      "Ġarchbishop": 6876,
      "Ġhockey": 6877,
      "Ġinfrast": 6878,
      "Ġinaug": 6879,
      "Ġprerogative": 6880,
      "Ġartificial": 6881,
      "Ġcemeter": 6882,
      "Ġshakespeare": 6883,
      "burn": 6884,
      "gers": 6885,
      "pent": 6886,
      "put": 6887,
      "rating": 6888,
      "ware": 6889,
      "ym": 6890,
      "Ġnd": 6891,
      "Ġeric": 6892,
      "Ġtip": 6893,
      "Ġaz": 6894,
      "Ġwag": 6895,
      "Ġcull": 6896,
      "Ġbac": 6897,
      "Ġbang": 6898,
      "Ġpant": 6899,
      "Ġpushed": 6900,
      "Ġhou": 6901,
      "Ġhay": 6902,
      "icide": 6903,
      "Ġlith": 6904,
      "oles": 6905,
      "owie": 6906,
      "ithic": 6907,
      "Ġalter": 6908,
      "Ġcomments": 6909,
      "ishment": 6910,
      "Ġtex": 6911,
      "Ġspur": 6912,
      "Ġfei": 6913,
      "Ġagree": 6914,
      "Ġotherwise": 6915,
      "Ġcanter": 6916,
      "amps": 6917,
      "Ġ82": 6918,
      "cki": 6919,
      "Ġsupporters": 6920,
      "Ġstead": 6921,
      "Ġbarr": 6922,
      "raph": 6923,
      "Ġelabor": 6924,
      "Ġgeoff": 6925,
      "Ġconfeder": 6926,
      "Ġglad": 6927,
      "Ġ1911": 6928,
      "Ġuniversal": 6929,
      "Ġinternet": 6930,
      "Ġswit": 6931,
      "Ġpatri": 6932,
      "Ġpatrick": 6933,
      "Ġvillages": 6934,
      "Ġ1921": 6935,
      "Ġ1929": 6936,
      "Ġlawrence": 6937,
      "Ġobser": 6938,
      "Ġdefeating": 6939,
      "Ġhoriz": 6940,
      "Ġburning": 6941,
      "Ġpromote": 6942,
      "Ġsatisf": 6943,
      "Ġtribut": 6944,
      "scop": 6945,
      "Ġambass": 6946,
      "Ġbombard": 6947,
      "Ġvoted": 6948,
      "Ġthousand": 6949,
      "Ġlegislation": 6950,
      "hews": 6951,
      "Ġenvironmental": 6952,
      "Ġbeautiful": 6953,
      "Ġarrested": 6954,
      "Ġsurvivors": 6955,
      "Ġelder": 6956,
      "Ġoccasions": 6957,
      "Ġprincess": 6958,
      "Ġcitizens": 6959,
      "Ġnetherlands": 6960,
      "Ġdiplom": 6961,
      "Ġfernand": 6962,
      "Ġimpossible": 6963,
      "Ġmanuscript": 6964,
      "cru": 6965,
      "fare": 6966,
      "uv": 6967,
      "Ġtight": 6968,
      "Ġtale": 6969,
      "Ġciting": 6970,
      "Ġcatech": 6971,
      "Ġbou": 6972,
      "Ġpig": 6973,
      "ishes": 6974,
      "arm": 6975,
      "Ġdens": 6976,
      "ician": 6977,
      "Ġlas": 6978,
      "Ġnad": 6979,
      "lete": 6980,
      "Ġgates": 6981,
      "str": 6982,
      "elin": 6983,
      "elle": 6984,
      "acle": 6985,
      "Ġrib": 6986,
      "etime": 6987,
      "ifies": 6988,
      "oceratops": 6989,
      "Ġabund": 6990,
      "Ġamino": 6991,
      "Ġmargin": 6992,
      "weight": 6993,
      "Ġcharity": 6994,
      "Ġparish": 6995,
      "Ġunderstanding": 6996,
      "Ġacclaim": 6997,
      "Ġproducts": 6998,
      "Ġretained": 6999,
      "Ġsurpr": 7000,
      "Ġ161": 7001,
      "Ġinstru": 7002,
      "Ġchron": 7003,
      "Ġ1962": 7004,
      "Ġmediter": 7005,
      "Ġraff": 7006,
      "Ġraise": 7007,
      "Ġ1959": 7008,
      "Ġ1938": 7009,
      "Ġstreak": 7010,
      "Ġpatron": 7011,
      "Ġperiods": 7012,
      "quez": 7013,
      "Ġpitman": 7014,
      "Ġequivalent": 7015,
      "Ġinvolving": 7016,
      "Ġvoiced": 7017,
      "Ġatlanta": 7018,
      "Ġaccompany": 7019,
      "Ġtribute": 7020,
      "Ġcloser": 7021,
      "Ġobjects": 7022,
      "Ġobservatory": 7023,
      "Ġintensified": 7024,
      "Ġgarden": 7025,
      "Ġsleep": 7026,
      "Ġvessels": 7027,
      "Ġcryst": 7028,
      "iques": 7029,
      "Ġbatsman": 7030,
      "Ġcambodia": 7031,
      "Ġpreferred": 7032,
      "Ġunsuccessful": 7033,
      "Ġresistance": 7034,
      "Ġdoctr": 7035,
      "Ġcriminal": 7036,
      "Ġstefani": 7037,
      "Ġdisappo": 7038,
      "Ġcemetery": 7039,
      "ook": 7040,
      "pes": 7041,
      "rator": 7042,
      "ĠÎ": 7043,
      "Ġsic": 7044,
      "Ġcbs": 7045,
      "Ġnur": 7046,
      "Ġnurs": 7047,
      "Ġrect": 7048,
      "Ġgent": 7049,
      "Ġstable": 7050,
      "Ġasc": 7051,
      "Ġdeck": 7052,
      "iform": 7053,
      "aboration": 7054,
      "Ġnotably": 7055,
      "Ġclock": 7056,
      "Ġtwin": 7057,
      "Ġabd": 7058,
      "Ġcommitted": 7059,
      "Ġagg": 7060,
      "Ġformal": 7061,
      "Ġ67": 7062,
      "Ġappropri": 7063,
      "Ġ162": 7064,
      "Ġslide": 7065,
      "Ġhelic": 7066,
      "Ġlatex": 7067,
      "Ġtemples": 7068,
      "Ġcauses": 7069,
      "Ġcriticised": 7070,
      "Ġneeds": 7071,
      "Ġfallen": 7072,
      "Ġdoesn": 7073,
      "Ġnarrative": 7074,
      "Ġcollaps": 7075,
      "Ġcollaboration": 7076,
      "pecies": 7077,
      "Ġantiqu": 7078,
      "Ġreveals": 7079,
      "Ġhousing": 7080,
      "Ġcaes": 7081,
      "Ġabsence": 7082,
      "Ġvisitors": 7083,
      "Ġmoments": 7084,
      "Ġaerith": 7085,
      "Ġsaved": 7086,
      "Ġlaboratory": 7087,
      "Ġspiritual": 7088,
      "Ġsubspecies": 7089,
      "Ġapparently": 7090,
      "Ġproposal": 7091,
      "Ġpalestine": 7092,
      "Ġdeployed": 7093,
      "Ġsharp": 7094,
      "Ġdialogue": 7095,
      "Ġdemocratic": 7096,
      "Ġphillies": 7097,
      "Ġoverseas": 7098,
      "Ġconvection": 7099,
      "Ġcanterbury": 7100,
      "Ġcatechism": 7101,
      "Ġmediterranean": 7102,
      "boy": 7103,
      "dy": 7104,
      "graf": 7105,
      "la": 7106,
      "mate": 7107,
      "math": 7108,
      "rabb": 7109,
      "ses": 7110,
      "ti": 7111,
      "vn": 7112,
      "vada": 7113,
      "vements": 7114,
      "Ġtam": 7115,
      "Ġah": 7116,
      "inje": 7117,
      "Ġsale": 7118,
      "Ġsaves": 7119,
      "Ġcape": 7120,
      "esco": 7121,
      "Ġhull": 7122,
      "Ġready": 7123,
      "illy": 7124,
      "eline": 7125,
      "Ġforb": 7126,
      "igation": 7127,
      "chang": 7128,
      "Ġdeem": 7129,
      "Ġkann": 7130,
      "uls": 7131,
      "osom": 7132,
      "illed": 7133,
      "Ġtrick": 7134,
      "iped": 7135,
      "Ġintense": 7136,
      "Ġmanga": 7137,
      "Ġrecon": 7138,
      "Ġusd": 7139,
      "Ġcanyon": 7140,
      "Ġformally": 7141,
      "Ġwarning": 7142,
      "Ġfollowers": 7143,
      "Ġproductions": 7144,
      "Ġloan": 7145,
      "Ġenth": 7146,
      "Ġphr": 7147,
      "Ġ09": 7148,
      "Ġmusician": 7149,
      "Ġshipping": 7150,
      "Ġexpand": 7151,
      "Ġmodified": 7152,
      "Ġconsiders": 7153,
      "Ġextension": 7154,
      "Ġrestrict": 7155,
      "Ġmarkgraf": 7156,
      "Ġrefers": 7157,
      "Ġskull": 7158,
      "Ġposted": 7159,
      "Ġsuggesting": 7160,
      "Ġrepresents": 7161,
      "Ġjackrabb": 7162,
      "Ġrepresentative": 7163,
      "onomy": 7164,
      "after": 7165,
      "Ġstationed": 7166,
      "Ġrepublican": 7167,
      "Ġplatoon": 7168,
      "Ġcorner": 7169,
      "Ġjournalist": 7170,
      "Ġcolorado": 7171,
      "Ġimagine": 7172,
      "Ġdrums": 7173,
      "Ġkrak": 7174,
      "Ġdawn": 7175,
      "otype": 7176,
      "Ġtrouble": 7177,
      "Ġgrammy": 7178,
      "Ġsubmarine": 7179,
      "Ġexposure": 7180,
      "Ġbureau": 7181,
      "Ġanekant": 7182,
      "Ġoverwhel": 7183,
      "Ġfurtado": 7184,
      "Ġraffles": 7185,
      "Ġhelicop": 7186,
      "hol": 7187,
      "rants": 7188,
      "vati": 7189,
      "Ġille": 7190,
      "hered": 7191,
      "Ġoption": 7192,
      "Ġbaker": 7193,
      "Ġmud": 7194,
      "Ġandre": 7195,
      "Ġhok": 7196,
      "Ġlose": 7197,
      "Ġnhl": 7198,
      "Ġdeleg": 7199,
      "Ġseas": 7200,
      "agas": 7201,
      "apers": 7202,
      "Ġsholay": 7203,
      "abled": 7204,
      "Ġaftermath": 7205,
      "Ġresign": 7206,
      "Ġremember": 7207,
      "Ġthereafter": 7208,
      "Ġengines": 7209,
      "Ġactual": 7210,
      "Ġreprodu": 7211,
      "Ġ166": 7212,
      "Ġobst": 7213,
      "Ġdisturb": 7214,
      "Ġbarker": 7215,
      "Ġpersu": 7216,
      "Ġannually": 7217,
      "Ġextent": 7218,
      "Ġ140": 7219,
      "Ġavo": 7220,
      "Ġvalky": 7221,
      "Ġcommunications": 7222,
      "Ġsugar": 7223,
      "Ġnetworks": 7224,
      "Ġordin": 7225,
      "Ġgrounds": 7226,
      "Ġpredators": 7227,
      "Ġfavour": 7228,
      "Ġinnov": 7229,
      "Ġinformed": 7230,
      "Ġdominican": 7231,
      "Ġmaterials": 7232,
      "Ġpoorly": 7233,
      "Ġhappened": 7234,
      "Ġranges": 7235,
      "Ġdisplays": 7236,
      "Ġensure": 7237,
      "Ġrecovery": 7238,
      "Ġdepending": 7239,
      "Ġsacred": 7240,
      "Ġpurposes": 7241,
      "Ġvehicle": 7242,
      "Ġmuscaria": 7243,
      "Ġorbit": 7244,
      "Ġreservoir": 7245,
      "Ġcotton": 7246,
      "Ġsaturday": 7247,
      "iac": 7248,
      "life": 7249,
      "mont": 7250,
      "tav": 7251,
      "Ġwrap": 7252,
      "Ġpull": 7253,
      "Ġmail": 7254,
      "Ġlists": 7255,
      "Ġnichol": 7256,
      "Ġthor": 7257,
      "Ġgust": 7258,
      "entional": 7259,
      "Ġrates": 7260,
      "Ġjenn": 7261,
      "Ġkim": 7262,
      "Ġvel": 7263,
      "ager": 7264,
      "osl": 7265,
      "Ġyo": 7266,
      "una": 7267,
      "Ġplane": 7268,
      "ocy": 7269,
      "acked": 7270,
      "iang": 7271,
      "ishn": 7272,
      "ogy": 7273,
      "Ġteen": 7274,
      "Ġago": 7275,
      "Ġcoins": 7276,
      "ricted": 7277,
      "Ġblow": 7278,
      "Ġwritings": 7279,
      "Ġentitled": 7280,
      "Ġdriven": 7281,
      "Ġmodels": 7282,
      "Ġstarlings": 7283,
      "Ġuseful": 7284,
      "Ġmaggie": 7285,
      "Ġcheck": 7286,
      "Ġblacks": 7287,
      "Ġchildhood": 7288,
      "Ġeasy": 7289,
      "Ġsupern": 7290,
      "Ġradiation": 7291,
      "Ġwatching": 7292,
      "Ġsituated": 7293,
      "Ġrichmond": 7294,
      "Ġrepresentatives": 7295,
      "Ġinfluential": 7296,
      "Ġfifa": 7297,
      "Ġfactors": 7298,
      "Ġreaders": 7299,
      "Ġtalking": 7300,
      "Ġmexican": 7301,
      "Ġcamer": 7302,
      "Ġinjuries": 7303,
      "Ġlayer": 7304,
      "Ġwithdrew": 7305,
      "ooth": 7306,
      "Ġthrone": 7307,
      "Ġopportunities": 7308,
      "Ġwisni": 7309,
      "Ġexcavation": 7310,
      "Ġrecommend": 7311,
      "Ġadvertising": 7312,
      "friend": 7313,
      "Ġsimultaneously": 7314,
      "Ġinfrastructure": 7315,
      "Ġwisniowie": 7316,
      "va": 7317,
      "Ġtag": 7318,
      "inian": 7319,
      "Ġsel": 7320,
      "Ġcass": 7321,
      "Ġbenn": 7322,
      "Ġpagan": 7323,
      "rous": 7324,
      "Ġliv": 7325,
      "ilst": 7326,
      "Ġrush": 7327,
      "Ġanime": 7328,
      "Ġanaly": 7329,
      "Ġmoore": 7330,
      "Ġshark": 7331,
      "Ġexcess": 7332,
      "Ġark": 7333,
      "Ġintel": 7334,
      "Ġammun": 7335,
      "Ġspons": 7336,
      "Ġspoke": 7337,
      "teenth": 7338,
      "oven": 7339,
      "Ġcommem": 7340,
      "Ġpartially": 7341,
      "Ġpeters": 7342,
      "Ġ78": 7343,
      "Ġparam": 7344,
      "Ġparvati": 7345,
      "Ġnorway": 7346,
      "Ġ900": 7347,
      "ugosl": 7348,
      "Ġseverely": 7349,
      "Ġgenerated": 7350,
      "Ġ101": 7351,
      "Ġdriver": 7352,
      "Ġoriginated": 7353,
      "Ġinstalled": 7354,
      "inson": 7355,
      "Ġoperate": 7356,
      "Ġ155": 7357,
      "Ġpassion": 7358,
      "Ġmovements": 7359,
      "Ġpersonality": 7360,
      "Ġvictories": 7361,
      "Ġ1928": 7362,
      "Ġhistorically": 7363,
      "Ġfuner": 7364,
      "chell": 7365,
      "Ġmassachus": 7366,
      "Ġburned": 7367,
      "Ġturb": 7368,
      "Ġinterests": 7369,
      "Ġfundament": 7370,
      "Ġsequences": 7371,
      "itzer": 7372,
      "Ġproperties": 7373,
      "Ġathletics": 7374,
      "Ġisraeli": 7375,
      "Ġportugal": 7376,
      "Ġadventures": 7377,
      "Ġinstruments": 7378,
      "Ġstruggle": 7379,
      "Ġbulls": 7380,
      "Ġwrestling": 7381,
      "Ġplateau": 7382,
      "Ġsubstantial": 7383,
      "Ġcircumstances": 7384,
      "Ġanekantavada": 7385,
      "Ġammunition": 7386,
      "Ġmassachusetts": 7387,
      "aver": 7388,
      "cer": 7389,
      "kes": 7390,
      "wan": 7391,
      "western": 7392,
      "Ġtast": 7393,
      "Ġtide": 7394,
      "heera": 7395,
      "Ġsans": 7396,
      "Ġot": 7397,
      "Ġosc": 7398,
      "Ġbald": 7399,
      "Ġbrick": 7400,
      "Ġfert": 7401,
      "ashed": 7402,
      "Ġhamp": 7403,
      "Ġhars": 7404,
      "Ġlud": 7405,
      "Ġniel": 7406,
      "Ġgary": 7407,
      "Ġgwen": 7408,
      "ilation": 7409,
      "owa": 7410,
      "Ġrav": 7411,
      "Ġrising": 7412,
      "Ġwhilst": 7413,
      "Ġvast": 7414,
      "Ġyugosl": 7415,
      "Ġroth": 7416,
      "ĠâĤ": 7417,
      "Ġscar": 7418,
      "Ġbore": 7419,
      "Ġtwins": 7420,
      "oren": 7421,
      "Ġspores": 7422,
      "ryce": 7423,
      "Ġpoison": 7424,
      "Ġagents": 7425,
      "Ġprefect": 7426,
      "rene": 7427,
      "Ġremark": 7428,
      "Ġgene": 7429,
      "Ġcarved": 7430,
      "Ġconsult": 7431,
      "Ġfrig": 7432,
      "Ġfrust": 7433,
      "Ġrelie": 7434,
      "Ġ84": 7435,
      "Ġguer": 7436,
      "Ġreven": 7437,
      "Ġmiller": 7438,
      "Ġmetropol": 7439,
      "Ġanyone": 7440,
      "Ġraaf": 7441,
      "Ġlisting": 7442,
      "Ġ1927": 7443,
      "Ġamongst": 7444,
      "Ġhurricanes": 7445,
      "Ġeveryone": 7446,
      "Ġcasting": 7447,
      "Ġlooks": 7448,
      "Ġmixture": 7449,
      "Ġsurvive": 7450,
      "Ġpredomin": 7451,
      "Ġdeparture": 7452,
      "Ġkhand": 7453,
      "Ġbiggest": 7454,
      "Ġwilson": 7455,
      "Ġgarrison": 7456,
      "forced": 7457,
      "Ġthinking": 7458,
      "Ġestablishing": 7459,
      "Ġemergency": 7460,
      "Ġaffairs": 7461,
      "Ġshells": 7462,
      "Ġwright": 7463,
      "Ġeaton": 7464,
      "Ġswedish": 7465,
      "Ġacknowled": 7466,
      "Ġustase": 7467,
      "Ġkannada": 7468,
      "ec": 7469,
      "ection": 7470,
      "oot": 7471,
      "piece": 7472,
      "Ġtiss": 7473,
      "inery": 7474,
      "Ġwives": 7475,
      "Ġcelt": 7476,
      "Ġcaves": 7477,
      "ori": 7478,
      "Ġpag": 7479,
      "Ġmack": 7480,
      "Ġmys": 7481,
      "Ġmental": 7482,
      "Ġgill": 7483,
      "state": 7484,
      "Ġwasn": 7485,
      "Ġbearing": 7486,
      "Ġforty": 7487,
      "Ġjr": 7488,
      "ulted": 7489,
      "agement": 7490,
      "Ġherald": 7491,
      "Ġmarry": 7492,
      "Ġmarquez": 7493,
      "Ġshear": 7494,
      "Ġresidence": 7495,
      "Ġresigned": 7496,
      "Ġplayoff": 7497,
      "Ġoverl": 7498,
      "Ġpret": 7499,
      "Ġspend": 7500,
      "Ġblues": 7501,
      "Ġparaly": 7502,
      "Ġveronica": 7503,
      "Ġcars": 7504,
      "ugu": 7505,
      "Ġloose": 7506,
      "Ġzoo": 7507,
      "Ġarmored": 7508,
      "Ġinstance": 7509,
      "Ġports": 7510,
      "Ġ113": 7511,
      "Ġ178": 7512,
      "Ġimpress": 7513,
      "Ġdowntown": 7514,
      "onto": 7515,
      "Ġwestward": 7516,
      "Ġoffices": 7517,
      "Ġraf": 7518,
      "Ġmidge": 7519,
      "Ġclassification": 7520,
      "Ġ1933": 7521,
      "Ġrestored": 7522,
      "Ġtrek": 7523,
      "Ġformerly": 7524,
      "Ġcompete": 7525,
      "encing": 7526,
      "Ġsung": 7527,
      "Ġtechniques": 7528,
      "Ġfifteen": 7529,
      "Ġburial": 7530,
      "Ġinteresting": 7531,
      "Ġsalv": 7532,
      "Ġhonour": 7533,
      "Ġcreative": 7534,
      "Ġ1860": 7535,
      "Ġdocuments": 7536,
      "Ġoccupation": 7537,
      "Ġboxing": 7538,
      "Ġphotograph": 7539,
      "Ġsimpson": 7540,
      "Ġpictures": 7541,
      "Ġexperiences": 7542,
      "cules": 7543,
      "Ġpremiered": 7544,
      "Ġdelayed": 7545,
      "Ġtanks": 7546,
      "Ġgilbert": 7547,
      "Ġterrorist": 7548,
      "Ġcorporation": 7549,
      "Ġprice": 7550,
      "Ġstewart": 7551,
      "Ġreinforcements": 7552,
      "Ġphoenix": 7553,
      "Ġyanke": 7554,
      "cribed": 7555,
      "Ġwicca": 7556,
      "Ġkhandoba": 7557,
      "lie": 7558,
      "rich": 7559,
      "uz": 7560,
      "uable": 7561,
      "Ġcow": 7562,
      "Ġcode": 7563,
      "isters": 7564,
      "Ġmall": 7565,
      "Ġmcl": 7566,
      "Ġdak": 7567,
      "inge": 7568,
      "roit": 7569,
      "Ġwasp": 7570,
      "Ġstal": 7571,
      "Ġforg": 7572,
      "Ġforcing": 7573,
      "oli": 7574,
      "Ġrig": 7575,
      "Ġride": 7576,
      "vere": 7577,
      "Ġjosh": 7578,
      "Ġkam": 7579,
      "Ġprove": 7580,
      "apse": 7581,
      "anti": 7582,
      "Ġtrained": 7583,
      "Ġcomplic": 7584,
      "Ġresolution": 7585,
      "Ġattrib": 7586,
      "Ġformat": 7587,
      "ologies": 7588,
      "Ġsurge": 7589,
      "Ġsupplement": 7590,
      "Ġfounder": 7591,
      "Ġ123": 7592,
      "Ġdrain": 7593,
      "Ġ165": 7594,
      "Ġimprison": 7595,
      "Ġcontinental": 7596,
      "yline": 7597,
      "Ġdesigns": 7598,
      "Ġweeke": 7599,
      "Ġ1957": 7600,
      "bey": 7601,
      "Ġuniverse": 7602,
      "Ġdifferences": 7603,
      "Ġskills": 7604,
      "Ġfrelim": 7605,
      "Ġdetroit": 7606,
      "Ġfederation": 7607,
      "Ġsounds": 7608,
      "Ġtoronto": 7609,
      "Ġphilip": 7610,
      "Ġscientists": 7611,
      "Ġaudiences": 7612,
      "Ġrecognised": 7613,
      "Ġcosts": 7614,
      "Ġmeasured": 7615,
      "Ġachieve": 7616,
      "Ġclearly": 7617,
      "Ġsuspend": 7618,
      "Ġmartial": 7619,
      "Ġinhg": 7620,
      "Ġweapon": 7621,
      "Ġpreparation": 7622,
      "Ġjurchen": 7623,
      "Ġillustrated": 7624,
      "Ġapplication": 7625,
      "Ġminimum": 7626,
      "Ġmulder": 7627,
      "Ġmoderate": 7628,
      "Ġretirement": 7629,
      "Ġhudson": 7630,
      "Ġmozambique": 7631,
      "Ġwisniowiecki": 7632,
      "Ġfrelimo": 7633,
      "bn": 7634,
      "tles": 7635,
      "vant": 7636,
      "Ġtack": 7637,
      "inus": 7638,
      "Ġsas": 7639,
      "onia": 7640,
      "rees": 7641,
      "Ġww": 7642,
      "Ġwonder": 7643,
      "edy": 7644,
      "Ġbones": 7645,
      "Ġfoss": 7646,
      "Ġfasc": 7647,
      "Ġmes": 7648,
      "Ġmbar": 7649,
      "Ġns": 7650,
      "Ġgamb": 7651,
      "olen": 7652,
      "imet": 7653,
      "Ġkansas": 7654,
      "Ġcha": 7655,
      "opher": 7656,
      "Ġplus": 7657,
      "Ġscully": 7658,
      "Ġenh": 7659,
      "Ġcommons": 7660,
      "Ġusage": 7661,
      "Ġcoff": 7662,
      "Ġjobs": 7663,
      "Ġremarked": 7664,
      "Ġwarren": 7665,
      "Ġengage": 7666,
      "Ġsymp": 7667,
      "Ġelections": 7668,
      "Ġzomb": 7669,
      "Ġdepicts": 7670,
      "Ġartwork": 7671,
      "atherine": 7672,
      "Ġkevin": 7673,
      "Ġvariation": 7674,
      "Ġbarry": 7675,
      "Ġcrake": 7676,
      "Ġstarred": 7677,
      "Ġmagdal": 7678,
      "Ġchest": 7679,
      "Ġcharacterized": 7680,
      "Ġpromised": 7681,
      "gery": 7682,
      "Ġtemporary": 7683,
      "Ġpresentation": 7684,
      "Ġerr": 7685,
      "Ġcleared": 7686,
      "Ġexpert": 7687,
      "Ġcyt": 7688,
      "Ġbattlecru": 7689,
      "Ġcondem": 7690,
      "Ġ1850": 7691,
      "Ġarchaeologist": 7692,
      "Ġobjective": 7693,
      "Ġranging": 7694,
      "Ġbadly": 7695,
      "Ġgrown": 7696,
      "Ġrussia": 7697,
      "Ġrevolutionary": 7698,
      "Ġvictorian": 7699,
      "Ġhuge": 7700,
      "Ġdraf": 7701,
      "Ġdefending": 7702,
      "Ġfatal": 7703,
      "Ġexcavations": 7704,
      "criptions": 7705,
      "Ġmechanical": 7706,
      "Ġcubs": 7707,
      "Ġethnic": 7708,
      "Ġtactics": 7709,
      "Ġcoleman": 7710,
      "Ġcinema": 7711,
      "Ġgiants": 7712,
      "Ġcrops": 7713,
      "Ġscheme": 7714,
      "Ġvoyage": 7715,
      "Ġphilosophy": 7716,
      "Ġintegr": 7717,
      "Ġconvinced": 7718,
      "eu": 7719,
      "efa": 7720,
      "gov": 7721,
      "night": 7722,
      "xe": 7723,
      "Ġå": 7724,
      "Ġaster": 7725,
      "Ġcel": 7726,
      "Ġbom": 7727,
      "Ġbind": 7728,
      "Ġfisher": 7729,
      "Ġdave": 7730,
      "Ġdenn": 7731,
      "asm": 7732,
      "Ġhub": 7733,
      "icia": 7734,
      "Ġlia": 7735,
      "Ġrender": 7736,
      "Ġstyles": 7737,
      "Ġisot": 7738,
      "Ġjar": 7739,
      "Ġkong": 7740,
      "Ġchanc": 7741,
      "emies": 7742,
      "aints": 7743,
      "unction": 7744,
      "Ġnebr": 7745,
      "akum": 7746,
      "ategy": 7747,
      "ante": 7748,
      "Ġarcher": 7749,
      "Ġclin": 7750,
      "Ġfee": 7751,
      "rupted": 7752,
      "Ġmars": 7753,
      "Ġpartner": 7754,
      "Ġinterpre": 7755,
      "Ġpeach": 7756,
      "Ġregiments": 7757,
      "Ġcargo": 7758,
      "Ġrelation": 7759,
      "Ġbuy": 7760,
      "Ġeleph": 7761,
      "Ġ02": 7762,
      "Ġ03": 7763,
      "Ġsmooth": 7764,
      "Ġrevival": 7765,
      "Ġdecides": 7766,
      "Ġ163": 7767,
      "Ġinstall": 7768,
      "Ġstrategy": 7769,
      "Ġimpressed": 7770,
      "Ġdescribe": 7771,
      "Ġpersian": 7772,
      "Ġinscription": 7773,
      "Ġdesigner": 7774,
      "Ġcrab": 7775,
      "Ġpublications": 7776,
      "Ġcorb": 7777,
      "Ġrestricted": 7778,
      "Ġarriving": 7779,
      "Ġpossess": 7780,
      "Ġvaluable": 7781,
      "Ġexplo": 7782,
      "Ġcommunication": 7783,
      "Ġ1926": 7784,
      "Ġopponent": 7785,
      "Ġclaiming": 7786,
      "Ġhamlet": 7787,
      "Ġdavis": 7788,
      "Ġfactory": 7789,
      "Ġdiagn": 7790,
      "Ġstriking": 7791,
      "Ġranking": 7792,
      "Ġclosest": 7793,
      "ucky": 7794,
      "Ġquarterback": 7795,
      "Ġprotestant": 7796,
      "Ġduty": 7797,
      "Ġdisplayed": 7798,
      "Ġmrs": 7799,
      "Ġfrequent": 7800,
      "Ġmagnetic": 7801,
      "Ġmagnitude": 7802,
      "Ġboundary": 7803,
      "Ġvote": 7804,
      "Ġdetermine": 7805,
      "Ġschedule": 7806,
      "Ġgraphics": 7807,
      "Ġneutral": 7808,
      "Ġfeeding": 7809,
      "Ġdwarf": 7810,
      "Ġfalse": 7811,
      "Ġbenefit": 7812,
      "Ġalleged": 7813,
      "Ġdrug": 7814,
      "Ġresidential": 7815,
      "Ġpredecessor": 7816,
      "Ġinhabitants": 7817,
      "Ġcavalry": 7818,
      "Ġfeathers": 7819,
      "Ġtexts": 7820,
      "Ġambassador": 7821,
      "Ġhokies": 7822,
      "Ġintellect": 7823,
      "Ġoscar": 7824,
      "bing": 7825,
      "father": 7826,
      "gam": 7827,
      "ij": 7828,
      "rad": 7829,
      "wa": 7830,
      "zi": 7831,
      "Ġtut": 7832,
      "Ġtenth": 7833,
      "oral": 7834,
      "Ġpc": 7835,
      "Ġpic": 7836,
      "Ġmk": 7837,
      "Ġdies": 7838,
      "Ġdual": 7839,
      "Ġhans": 7840,
      "icit": 7841,
      "Ġrevers": 7842,
      "Ġeg": 7843,
      "acles": 7844,
      "Ġaside": 7845,
      "iders": 7846,
      "Ġalleg": 7847,
      "Ġisbn": 7848,
      "Ġjet": 7849,
      "char": 7850,
      "Ġkenn": 7851,
      "Ġchan": 7852,
      "Ġchagas": 7853,
      "opp": 7854,
      "Ġroots": 7855,
      "Ġuniform": 7856,
      "ellar": 7857,
      "Ġclust": 7858,
      "Ġabby": 7859,
      "Ġintr": 7860,
      "Ġallen": 7861,
      "ignment": 7862,
      "oko": 7863,
      "Ġcoin": 7864,
      "Ġoutbreak": 7865,
      "Ġcenters": 7866,
      "Ġbrill": 7867,
      "Ġattained": 7868,
      "Ġcharged": 7869,
      "Ġreleases": 7870,
      "neth": 7871,
      "Ġ01": 7872,
      "Ġrevol": 7873,
      "Ġdecay": 7874,
      "Ġdeput": 7875,
      "Ġbelg": 7876,
      "Ġarmament": 7877,
      "Ġmillenn": 7878,
      "Ġsteep": 7879,
      "Ġmathews": 7880,
      "Ġperspective": 7881,
      "Ġcommandment": 7882,
      "Ġconsidering": 7883,
      "Ġprompted": 7884,
      "Ġanthem": 7885,
      "Ġswim": 7886,
      "Ġrefuge": 7887,
      "Ġdifference": 7888,
      "Ġarrive": 7889,
      "Ġexplains": 7890,
      "Ġbands": 7891,
      "Ġhighways": 7892,
      "Ġargues": 7893,
      "Ġdevot": 7894,
      "Ġ1905": 7895,
      "Ġannounce": 7896,
      "Ġturks": 7897,
      "Ġsatell": 7898,
      "Ġmachines": 7899,
      "Ġruling": 7900,
      "Ġdominant": 7901,
      "Ġcruise": 7902,
      "Ġbatteries": 7903,
      "Ġdegrees": 7904,
      "Ġnewspapers": 7905,
      "Ġbudd": 7906,
      "Ġbulk": 7907,
      "Ġwaiting": 7908,
      "Ġliberal": 7909,
      "Ġleslie": 7910,
      "Ġdefinition": 7911,
      "Ġjonathan": 7912,
      "malley": 7913,
      "Ġpremiere": 7914,
      "Ġadaptation": 7915,
      "Ġexclusively": 7916,
      "Ġupdated": 7917,
      "Ġkelly": 7918,
      "Ġstrengthened": 7919,
      "Ġsettlements": 7920,
      "Ġerected": 7921,
      "Ġwagner": 7922,
      "Ġdeemed": 7923,
      "Ġvalkyria": 7924,
      "Ġparalymp": 7925,
      "da": 7926,
      "mouth": 7927,
      "oh": 7928,
      "wer": 7929,
      "Ġbah": 7930,
      "Ġbanned": 7931,
      "Ġfib": 7932,
      "itively": 7933,
      "Ġinfer": 7934,
      "anth": 7935,
      "Ġnut": 7936,
      "Ġnash": 7937,
      "Ġrend": 7938,
      "ilty": 7939,
      "stic": 7940,
      "adheera": 7941,
      "Ġstu": 7942,
      "Ġuefa": 7943,
      "olithic": 7944,
      "Ġdeity": 7945,
      "Ġchrom": 7946,
      "Ġcomics": 7947,
      "Ġsuicide": 7948,
      "Ġshield": 7949,
      "aki": 7950,
      "arte": 7951,
      "Ġexport": 7952,
      "Ġexists": 7953,
      "ĠâĢľ": 7954,
      "Ġclark": 7955,
      "Ġscattered": 7956,
      "Ġherze": 7957,
      "Ġamid": 7958,
      "Ġamaz": 7959,
      "Ġamounts": 7960,
      "Ġresumed": 7961,
      "Ġcoinc": 7962,
      "Ġupset": 7963,
      "Ġoutl": 7964,
      "Ġbrain": 7965,
      "Ġcharm": 7966,
      "Ġassess": 7967,
      "Ġassisted": 7968,
      "Ġcarn": 7969,
      "Ġnorthward": 7970,
      "Ġartistic": 7971,
      "Ġobv": 7972,
      "rows": 7973,
      "ucks": 7974,
      "Ġlandings": 7975,
      "Ġmetre": 7976,
      "Ġimpression": 7977,
      "Ġexposed": 7978,
      "Ġmathem": 7979,
      "Ġinscriptions": 7980,
      "Ġmagadheera": 7981,
      "Ġcheval": 7982,
      "Ġglobe": 7983,
      "Ġdeliber": 7984,
      "Ġnortheastern": 7985,
      "Ġhandled": 7986,
      "box": 7987,
      "Ġfurthermore": 7988,
      "Ġcurt": 7989,
      "Ġtourist": 7990,
      "Ġprofile": 7991,
      "Ġseek": 7992,
      "Ġjackets": 7993,
      "Ġheroes": 7994,
      "Ġstructural": 7995,
      "Ġfifty": 7996,
      "Ġtesting": 7997,
      "borne": 7998,
      "Ġtalent": 7999,
      "Ġcrews": 8000,
      "Ġinjured": 8001,
      "Ġcelebrated": 8002,
      "Ġattract": 8003,
      "burgh": 8004,
      "Ġinvestigation": 8005,
      "Ġdefenders": 8006,
      "Ġchronicles": 8007,
      "Ġmanufactur": 8008,
      "Ġdistinctive": 8009,
      "Ġkurt": 8010,
      "Ġjacob": 8011,
      "Ġdisappeared": 8012,
      "Ġbrooks": 8013,
      "Ġbertin": 8014,
      "Ġiraq": 8015,
      "Ġnurse": 8016,
      "Ġcommemor": 8017,
      "Ġceltic": 8018,
      "govina": 8019,
      "Ġnebraska": 8020,
      "ko": 8021,
      "à¤": 8022,
      "Ġsoph": 8023,
      "reet": 8024,
      "Ġwander": 8025,
      "Ġcod": 8026,
      "Ġcous": 8027,
      "atically": 8028,
      "Ġpryce": 8029,
      "Ġdd": 8030,
      "Ġdict": 8031,
      "Ġhaz": 8032,
      "icial": 8033,
      "Ġlies": 8034,
      "oux": 8035,
      "ili": 8036,
      "omtav": 8037,
      "adier": 8038,
      "Ġstores": 8039,
      "urally": 8040,
      "Ġforth": 8041,
      "Ġasomtav": 8042,
      "olia": 8043,
      "Ġric": 8044,
      "Ġanch": 8045,
      "Ġsend": 8046,
      "ulating": 8047,
      "Ġchain": 8048,
      "Ġsure": 8049,
      "unch": 8050,
      "Ġabol": 8051,
      "okovic": 8052,
      "Ġsheff": 8053,
      "Ġdisband": 8054,
      "Ġcoordin": 8055,
      "Ġpeaking": 8056,
      "Ġquant": 8057,
      "Ġparan": 8058,
      "Ġcarre": 8059,
      "Ġ92": 8060,
      "Ġemmy": 8061,
      "Ġguilty": 8062,
      "Ġenters": 8063,
      "endar": 8064,
      "Ġzinc": 8065,
      "inton": 8066,
      "Ġ117": 8067,
      "Ġrunners": 8068,
      "Ġkeys": 8069,
      "Ġprompt": 8070,
      "Ġtriang": 8071,
      "Ġdemands": 8072,
      "Ġorganisation": 8073,
      "Ġapproval": 8074,
      "Ġtempor": 8075,
      "Ġbasement": 8076,
      "Ġharold": 8077,
      "Ġ1924": 8078,
      "Ġ1925": 8079,
      "Ġreferring": 8080,
      "Ġhyg": 8081,
      "Ġtrophy": 8082,
      "Ġsunk": 8083,
      "Ġturrets": 8084,
      "Ġmagazines": 8085,
      "Ġcircle": 8086,
      "Ġcircuit": 8087,
      "Ġmemor": 8088,
      "Ġmadrid": 8089,
      "Ġrebell": 8090,
      "Ġmurray": 8091,
      "Ġviolent": 8092,
      "Ġuncertain": 8093,
      "Ġloud": 8094,
      "Ġprevented": 8095,
      "Ġdjokovic": 8096,
      "Ġtournaments": 8097,
      "Ġsoutheastern": 8098,
      "Ġdemonstrated": 8099,
      "Ġdelivery": 8100,
      "Ġexecuted": 8101,
      "Ġassassination": 8102,
      "Ġpursue": 8103,
      "Ġsubstitute": 8104,
      "Ġmeteorological": 8105,
      "Ġalfred": 8106,
      "Ġhouston": 8107,
      "Ġnielsen": 8108,
      "Ġyankees": 8109,
      "Ġherzegovina": 8110,
      "Ġasomtavruli": 8111,
      "gars": 8112,
      "jan": 8113,
      "noon": 8114,
      "pir": 8115,
      "vised": 8116,
      "went": 8117,
      "xic": 8118,
      "inations": 8119,
      "Ġbible": 8120,
      "Ġfulf": 8121,
      "Ġpor": 8122,
      "Ġphen": 8123,
      "esis": 8124,
      "Ġdat": 8125,
      "Ġdor": 8126,
      "Ġdiver": 8127,
      "rog": 8128,
      "Ġgets": 8129,
      "oma": 8130,
      "adi": 8131,
      "Ġsting": 8132,
      "Ġstood": 8133,
      "Ġump": 8134,
      "ivated": 8135,
      "iri": 8136,
      "Ġaltered": 8137,
      "Ġri": 8138,
      "Ġcongo": 8139,
      "Ġconclusion": 8140,
      "Ġjen": 8141,
      "sex": 8142,
      "arya": 8143,
      "Ġscand": 8144,
      "Ġafternoon": 8145,
      "Ġfeels": 8146,
      "Ġdisagre": 8147,
      "Ġevolution": 8148,
      "Ġweir": 8149,
      "Ġcanon": 8150,
      "Ġbrack": 8151,
      "Ġgran": 8152,
      "Ġnoble": 8153,
      "osex": 8154,
      "Ġgenetic": 8155,
      "Ġcarpent": 8156,
      "Ġacre": 8157,
      "Ġacute": 8158,
      "Ġliked": 8159,
      "Ġsurve": 8160,
      "Ġedges": 8161,
      "ieties": 8162,
      "Ġstring": 8163,
      "Ġ170": 8164,
      "Ġrunway": 8165,
      "Ġexpression": 8166,
      "Ġsixteen": 8167,
      "Ġhelium": 8168,
      "Ġcommandos": 8169,
      "Ġtyph": 8170,
      "Ġconflic": 8171,
      "Ġ1934": 8172,
      "Ġeshm": 8173,
      "Ġsoci": 8174,
      "Ġvalve": 8175,
      "Ġsket": 8176,
      "Ġinitiated": 8177,
      "Ġanglo": 8178,
      "Ġideal": 8179,
      "Ġberlin": 8180,
      "Ġinnoc": 8181,
      "Ġmadison": 8182,
      "Ġterritorial": 8183,
      "Ġjews": 8184,
      "Ġhostile": 8185,
      "Ġindicating": 8186,
      "Ġemployees": 8187,
      "Ġsubjects": 8188,
      "Ġmelody": 8189,
      "Ġninet": 8190,
      "Ġtennesse": 8191,
      "Ġadopt": 8192,
      "Ġtranslation": 8193,
      "Ġsucceed": 8194,
      "Ġhawaii": 8195,
      "Ġadvertis": 8196,
      "Ġpounds": 8197,
      "Ġcosm": 8198,
      "Ġwarrior": 8199,
      "Ġsuspended": 8200,
      "Ġeshmun": 8201,
      "Ġtennessee": 8202,
      "bel": 8203,
      "kon": 8204,
      "sis": 8205,
      "wick": 8206,
      "Ġï": 8207,
      "Ġion": 8208,
      "inth": 8209,
      "Ġsult": 8210,
      "Ġcash": 8211,
      "Ġost": 8212,
      "Ġomar": 8213,
      "Ġoreg": 8214,
      "Ġbib": 8215,
      "nda": 8216,
      "Ġpip": 8217,
      "Ġmol": 8218,
      "Ġdud": 8219,
      "Ġtoured": 8220,
      "Ġlis": 8221,
      "Ġlumber": 8222,
      "leton": 8223,
      "Ġgap": 8224,
      "Ġgosp": 8225,
      "Ġgift": 8226,
      "eland": 8227,
      "oming": 8228,
      "Ġontar": 8229,
      "Ġstav": 8230,
      "Ġstrict": 8231,
      "urst": 8232,
      "Ġkon": 8233,
      "ulu": 8234,
      "agen": 8235,
      "osing": 8236,
      "estyle": 8237,
      "odore": 8238,
      "Ġyield": 8239,
      "ieth": 8240,
      "iney": 8241,
      "Ġcomponents": 8242,
      "Ġscout": 8243,
      "Ġboot": 8244,
      "Ġenzy": 8245,
      "Ġabc": 8246,
      "Ġamph": 8247,
      "Ġrecip": 8248,
      "Ġmariana": 8249,
      "Ġuss": 8250,
      "Ġevans": 8251,
      "Ġpeck": 8252,
      "Ġunderne": 8253,
      "Ġconsol": 8254,
      "Ġliqu": 8255,
      "enden": 8256,
      "Ġrepair": 8257,
      "Ġreceives": 8258,
      "Ġ114": 8259,
      "Ġsigns": 8260,
      "oster": 8261,
      "isms": 8262,
      "Ġcolleagues": 8263,
      "Ġconfront": 8264,
      "Ġswiss": 8265,
      "Ġvalid": 8266,
      "Ġharbour": 8267,
      "Ġsentiment": 8268,
      "Ġrealized": 8269,
      "Ġ1000": 8270,
      "Ġordering": 8271,
      "Ġseeking": 8272,
      "Ġwalking": 8273,
      "Ġcatal": 8274,
      "itarian": 8275,
      "Ġromanian": 8276,
      "Ġprogramming": 8277,
      "shore": 8278,
      "Ġpresidential": 8279,
      "Ġtooth": 8280,
      "Ġ1908": 8281,
      "Ġbiological": 8282,
      "Ġreader": 8283,
      "Ġputting": 8284,
      "Ġreducing": 8285,
      "Ġrespective": 8286,
      "Ġvenues": 8287,
      "Ġpotentially": 8288,
      "Ġreveal": 8289,
      "Ġ1870": 8290,
      "Ġtheatrical": 8291,
      "Ġrenov": 8292,
      "Ġcertainly": 8293,
      "Ġmichel": 8294,
      "Ġbirthday": 8295,
      "Ġkeeping": 8296,
      "Ġrequested": 8297,
      "Ġarchitectural": 8298,
      "Ġconservative": 8299,
      "Ġbidd": 8300,
      "Ġsorra": 8301,
      "Ġmeasurements": 8302,
      "Ġwithdrawal": 8303,
      "Ġkirk": 8304,
      "Ġeliminated": 8305,
      "Ġculmin": 8306,
      "Ġorchestra": 8307,
      "Ġrebuilt": 8308,
      "Ġndh": 8309,
      "Ġparamount": 8310,
      "Ġpretty": 8311,
      "Ġchevaliers": 8312,
      "Ġsheffield": 8313,
      "Ġoregon": 8314,
      "Ġontario": 8315,
      "Ġunderneath": 8316,
      "Ġwik": 8317,
      "Ġcress": 8318,
      "Ġfishing": 8319,
      "Ġmg": 8320,
      "aski": 8321,
      "Ġhast": 8322,
      "rose": 8323,
      "Ġliz": 8324,
      "Ġlakes": 8325,
      "Ġlinc": 8326,
      "Ġlaugh": 8327,
      "Ġlamb": 8328,
      "Ġnam": 8329,
      "star": 8330,
      "eled": 8331,
      "Ġstere": 8332,
      "Ġasian": 8333,
      "Ġasks": 8334,
      "Ġriding": 8335,
      "Ġvig": 8336,
      "Ġrook": 8337,
      "ardine": 8338,
      "Ġleigh": 8339,
      "Ġtracy": 8340,
      "Ġabb": 8341,
      "rae": 8342,
      "Ġresol": 8343,
      "pled": 8344,
      "Ġupr": 8345,
      "Ġearning": 8346,
      "Ġbrut": 8347,
      "enses": 8348,
      "orship": 8349,
      "Ġparody": 8350,
      "Ġcarmel": 8351,
      "Ġsovere": 8352,
      "Ġpresby": 8353,
      "Ġsurgery": 8354,
      "Ġ125": 8355,
      "Ġoperates": 8356,
      "Ġbarbar": 8357,
      "Ġprovinc": 8358,
      "Ġpeoples": 8359,
      "Ġdams": 8360,
      "Ġchristine": 8361,
      "Ġvisiting": 8362,
      "Ġorganised": 8363,
      "Ġbases": 8364,
      "Ġrede": 8365,
      "Ġpersonally": 8366,
      "Ġharrison": 8367,
      "Ġkills": 8368,
      "Ġ1923": 8369,
      "Ġsentences": 8370,
      "minster": 8371,
      "Ġnettles": 8372,
      "Ġveter": 8373,
      "Ġcougars": 8374,
      "Ġshoulder": 8375,
      "ships": 8376,
      "Ġanimation": 8377,
      "Ġstrip": 8378,
      "Ġrounds": 8379,
      "Ġwider": 8380,
      "Ġparliamentary": 8381,
      "Ġsympt": 8382,
      "Ġkilome": 8383,
      "Ġdetermin": 8384,
      "Ġspacecraft": 8385,
      "Ġautumn": 8386,
      "Ġobservation": 8387,
      "Ġchicks": 8388,
      "Ġsemif": 8389,
      "Ġremoval": 8390,
      "Ġbenjam": 8391,
      "Ġcoaching": 8392,
      "Ġfavorable": 8393,
      "Ġrhys": 8394,
      "Ġmolecules": 8395,
      "Ġpulaski": 8396,
      "Ġrhyme": 8397,
      "Ġhawaiian": 8398,
      "Ġsculptures": 8399,
      "Ġcomparison": 8400,
      "Ġvertical": 8401,
      "Ġpartnership": 8402,
      "Ġernest": 8403,
      "music": 8404,
      "Ġqueensland": 8405,
      "Ġpropaganda": 8406,
      "Ġelaborate": 8407,
      "Ġaggreg": 8408,
      "Ġcollapsed": 8409,
      "Ġwrapped": 8410,
      "Ġfundamental": 8411,
      "Ġdakota": 8412,
      "Ġsatellite": 8413,
      "Ġlincol": 8414,
      "Ġsovereign": 8415,
      "Ġpresbyter": 8416,
      "Ġbenjamin": 8417,
      "bound": 8418,
      "cour": 8419,
      "chens": 8420,
      "krit": 8421,
      "nc": 8422,
      "oly": 8423,
      "ws": 8424,
      "wall": 8425,
      "eries": 8426,
      "Ġsib": 8427,
      "Ġsony": 8428,
      "atural": 8429,
      "Ġpel": 8430,
      "Ġpse": 8431,
      "Ġpace": 8432,
      "anita": 8433,
      "Ġdust": 8434,
      "rot": 8435,
      "roph": 8436,
      "Ġtoler": 8437,
      "Ġlig": 8438,
      "Ġlanes": 8439,
      "ami": 8440,
      "Ġstim": 8441,
      "Ġbeam": 8442,
      "Ġasking": 8443,
      "Ġrick": 8444,
      "etown": 8445,
      "Ġconj": 8446,
      "Ġjason": 8447,
      "Ġatom": 8448,
      "Ġkw": 8449,
      "Ġvand": 8450,
      "Ġchase": 8451,
      "Ġsuitable": 8452,
      "apore": 8453,
      "Ġshorter": 8454,
      "Ġplatin": 8455,
      "Ġtrig": 8456,
      "Ġade": 8457,
      "Ġcontribution": 8458,
      "Ġgoat": 8459,
      "Ġoverlo": 8460,
      "kshire": 8461,
      "Ġremove": 8462,
      "Ġparade": 8463,
      "Ġmines": 8464,
      "Ġacids": 8465,
      "Ġguid": 8466,
      "Ġsingapore": 8467,
      "Ġsignal": 8468,
      "Ġcompleting": 8469,
      "Ġadvancing": 8470,
      "Ġstarring": 8471,
      "Ġextrat": 8472,
      "Ġchristopher": 8473,
      "Ġbelieving": 8474,
      "Ġyoungest": 8475,
      "Ġprix": 8476,
      "Ġprofit": 8477,
      "Ġrepresentation": 8478,
      "Ġwoodhouse": 8479,
      "Ġvoices": 8480,
      "Ġcollapse": 8481,
      "Ġsynag": 8482,
      "Ġwildlife": 8483,
      "Ġbodyline": 8484,
      "Ġ1830": 8485,
      "Ġdispat": 8486,
      "Ġdispute": 8487,
      "Ġquestions": 8488,
      "Ġdrove": 8489,
      "Ġlogic": 8490,
      "Ġinhab": 8491,
      "Ġboundaries": 8492,
      "Ġdocumented": 8493,
      "Ġborough": 8494,
      "Ġtranslated": 8495,
      "Ġgardner": 8496,
      "Ġcompliment": 8497,
      "Ġ766": 8498,
      "Ġkorea": 8499,
      "Ġsisler": 8500,
      "Ġcolumns": 8501,
      "Ġnegotiations": 8502,
      "Ġislamic": 8503,
      "Ġcampbell": 8504,
      "Ġmolecular": 8505,
      "Ġdoctrine": 8506,
      "Ġenthus": 8507,
      "Ġphrase": 8508,
      "Ġsanskrit": 8509,
      "Ġpagod": 8510,
      "Ġweekend": 8511,
      "imetres": 8512,
      "Ġbrilliant": 8513,
      "Ġsorraia": 8514,
      "Ġlincoln": 8515,
      "Ġpseud": 8516,
      "Ġplatinum": 8517,
      "Ġextratropical": 8518,
      "dles": 8519,
      "dney": 8520,
      "fire": 8521,
      "gets": 8522,
      "nels": 8523,
      "pet": 8524,
      "uki": 8525,
      "vard": 8526,
      "zhou": 8527,
      "ËĪ": 8528,
      "Ġtet": 8529,
      "Ġtub": 8530,
      "Ġtape": 8531,
      "Ġsample": 8532,
      "Ġwish": 8533,
      "Ġbare": 8534,
      "Ġinclusion": 8535,
      "Ġpp": 8536,
      "Ġpages": 8537,
      "Ġhidden": 8538,
      "Ġtopped": 8539,
      "Ġnl": 8540,
      "Ġnaming": 8541,
      "eld": 8542,
      "acru": 8543,
      "Ġbears": 8544,
      "olis": 8545,
      "Ġjardine": 8546,
      "Ġsect": 8547,
      "Ġvib": 8548,
      "rome": 8549,
      "Ġneves": 8550,
      "akers": 8551,
      "Ġnotice": 8552,
      "Ġabbey": 8553,
      "Ġamanita": 8554,
      "Ġusher": 8555,
      "Ġmegal": 8556,
      "Ġdisl": 8557,
      "Ġcanning": 8558,
      "Ġspending": 8559,
      "ensions": 8560,
      "Ġgrave": 8561,
      "Ġjoining": 8562,
      "Ġveracru": 8563,
      "Ġmaur": 8564,
      "Ġproduces": 8565,
      "Ġretrie": 8566,
      "Ġpreserv": 8567,
      "Ġrevised": 8568,
      "Ġairlines": 8569,
      "Ġmainland": 8570,
      "Ġsteps": 8571,
      "Ġdiscussion": 8572,
      "Ġcouldn": 8573,
      "Ġcorpus": 8574,
      "Ġuniversities": 8575,
      "Ġxii": 8576,
      "Ġexplain": 8577,
      "Ġexploration": 8578,
      "Ġtraded": 8579,
      "Ġbriggs": 8580,
      "Ġradical": 8581,
      "Ġcontrad": 8582,
      "Ġwalker": 8583,
      "Ġprotes": 8584,
      "Ġfriendly": 8585,
      "Ġfacility": 8586,
      "Ġveer": 8587,
      "Ġillness": 8588,
      "Ġracing": 8589,
      "Ġfactor": 8590,
      "Ġ1907": 8591,
      "Ġindustries": 8592,
      "Ġvolumes": 8593,
      "Ġsnake": 8594,
      "Ġprofession": 8595,
      "Ġreduction": 8596,
      "Ġobjectives": 8597,
      "Ġunlik": 8598,
      "Ġdaughters": 8599,
      "Ġpunt": 8600,
      "Ġdegrom": 8601,
      "Ġpowered": 8602,
      "Ġultimate": 8603,
      "Ġcontroller": 8604,
      "Ġprepare": 8605,
      "Ġreforms": 8606,
      "Ġshrine": 8607,
      "Ġhonorary": 8608,
      "Ġlouisiana": 8609,
      "Ġagriculture": 8610,
      "Ġemphasis": 8611,
      "Ġbeauty": 8612,
      "Ġencountered": 8613,
      "Ġtelugu": 8614,
      "Ġrotation": 8615,
      "Ġsegment": 8616,
      "Ġingres": 8617,
      "Ġsubmitted": 8618,
      "Ġgravity": 8619,
      "Ġbattleships": 8620,
      "Ġreflected": 8621,
      "Ġstrategic": 8622,
      "Ġsuddenly": 8623,
      "Ġcullen": 8624,
      "Ġgentle": 8625,
      "Ġbennett": 8626,
      "Ġguerr": 8627,
      "Ġbelgium": 8628,
      "Ġmillennium": 8629,
      "Ġtemporarily": 8630,
      "Ġbiddenden": 8631,
      "Ġcresswell": 8632,
      "Ġveracruz": 8633,
      "ever": 8634,
      "graph": 8635,
      "rh": 8636,
      "uar": 8637,
      "yers": 8638,
      "Ġtony": 8639,
      "Ġtelling": 8640,
      "Ġaa": 8641,
      "inction": 8642,
      "erm": 8643,
      "eration": 8644,
      "Ġsings": 8645,
      "Ġsailed": 8646,
      "Ġok": 8647,
      "Ġbag": 8648,
      "Ġfitted": 8649,
      "atum": 8650,
      "Ġmason": 8651,
      "Ġdad": 8652,
      "Ġders": 8653,
      "Ġhut": 8654,
      "Ġlind": 8655,
      "Ġnag": 8656,
      "Ġnave": 8657,
      "Ġreass": 8658,
      "Ġthrew": 8659,
      "Ġgat": 8660,
      "Ġstap": 8661,
      "Ġstern": 8662,
      "Ġrud": 8663,
      "oto": 8664,
      "Ġjury": 8665,
      "Ġkiss": 8666,
      "Ġvs": 8667,
      "Ġchord": 8668,
      "ersed": 8669,
      "Ġunnamed": 8670,
      "Ġarvn": 8671,
      "ĠâĢĿ": 8672,
      "ishops": 8673,
      "Ġclinton": 8674,
      "Ġencl": 8675,
      "Ġenemies": 8676,
      "Ġabilities": 8677,
      "rawn": 8678,
      "Ġmeters": 8679,
      "Ġevident": 8680,
      "Ġfinale": 8681,
      "Ġupgraded": 8682,
      "Ġflies": 8683,
      "aceae": 8684,
      "Ġgrap": 8685,
      "Ġunderwent": 8686,
      "Ġapprec": 8687,
      "Ġsax": 8688,
      "Ġzanz": 8689,
      "Ġgenera": 8690,
      "Ġ105": 8691,
      "Ġdecisions": 8692,
      "Ġarmies": 8693,
      "Ġlandsc": 8694,
      "Ġlikewise": 8695,
      "aho": 8696,
      "Ġwestminster": 8697,
      "Ġadvoc": 8698,
      "Ġadvice": 8699,
      "grad": 8700,
      "Ġjuven": 8701,
      "Ġbread": 8702,
      "Ġlaud": 8703,
      "Ġdemon": 8704,
      "Ġswitzer": 8705,
      "Ġeventual": 8706,
      "Ġapproaches": 8707,
      "Ġpatrol": 8708,
      "Ġ1922": 8709,
      "brace": 8710,
      "Ġcharted": 8711,
      "Ġlesser": 8712,
      "Ġfacil": 8713,
      "Ġvii": 8714,
      "Ġballad": 8715,
      "Ġdevast": 8716,
      "Ġmemories": 8717,
      "Ġcommenting": 8718,
      "Ġexcell": 8719,
      "Ġclosure": 8720,
      "Ġchoose": 8721,
      "Ġnominations": 8722,
      "Ġassembled": 8723,
      "Ġsenator": 8724,
      "Ġpanzer": 8725,
      "Ġjunction": 8726,
      "Ġpercentage": 8727,
      "Ġshares": 8728,
      "Ġaerod": 8729,
      "Ġadministrative": 8730,
      "Ġpulled": 8731,
      "Ġwishes": 8732,
      "Ġstruggled": 8733,
      "Ġprisoners": 8734,
      "Ġceremon": 8735,
      "point": 8736,
      "Ġicon": 8737,
      "ycake": 8738,
      "Ġbeliefs": 8739,
      "Ġconsequently": 8740,
      "Ġaccomplish": 8741,
      "yclic": 8742,
      "Ġconversation": 8743,
      "Ġpregnancy": 8744,
      "Ġpattycake": 8745,
      "Ġdemolished": 8746,
      "Ġsioux": 8747,
      "Ġecho": 8748,
      "Ġneighborhood": 8749,
      "Ġcabinet": 8750,
      "howitz": 8751,
      "Ġchrono": 8752,
      "Ġcaesar": 8753,
      "Ġillegal": 8754,
      "osexual": 8755,
      "Ġtyphoon": 8756,
      "Ġconflicts": 8757,
      "Ġconsolid": 8758,
      "Ġprovincial": 8759,
      "Ġsynagogue": 8760,
      "Ġnevesinje": 8761,
      "Ġdershowitz": 8762,
      "Ġzanzib": 8763,
      "bow": 8764,
      "dale": 8765,
      "hum": 8766,
      "low": 8767,
      "power": 8768,
      "ygen": 8769,
      "Ġian": 8770,
      "rep": 8771,
      "Ġfing": 8772,
      "Ġfusion": 8773,
      "Ġpill": 8774,
      "enger": 8775,
      "isp": 8776,
      "Ġment": 8777,
      "Ġmast": 8778,
      "Ġdahl": 8779,
      "Ġtod": 8780,
      "Ġlion": 8781,
      "Ġree": 8782,
      "Ġgael": 8783,
      "ila": 8784,
      "acre": 8785,
      "Ġongoing": 8786,
      "Ġstyl": 8787,
      "Ġstellar": 8788,
      "Ġbeings": 8789,
      "Ġbeats": 8790,
      "imon": 8791,
      "Ġruth": 8792,
      "otte": 8793,
      "Ġisle": 8794,
      "Ġwhit": 8795,
      "Ġjaw": 8796,
      "ulk": 8797,
      "ulous": 8798,
      "herry": 8799,
      "riages": 8800,
      "Ġsuit": 8801,
      "Ġyor": 8802,
      "Ġshim": 8803,
      "Ġshift": 8804,
      "arded": 8805,
      "Ġclo": 8806,
      "Ġclothes": 8807,
      "Ġherd": 8808,
      "Ġallies": 8809,
      "Ġalliance": 8810,
      "Ġrecall": 8811,
      "Ġfeud": 8812,
      "Ġpohl": 8813,
      "Ġovert": 8814,
      "Ġeve": 8815,
      "Ġoffering": 8816,
      "Ġpref": 8817,
      "Ġpreston": 8818,
      "Ġintercept": 8819,
      "aceous": 8820,
      "Ġspeaker": 8821,
      "Ġindones": 8822,
      "Ġblu": 8823,
      "Ġaccum": 8824,
      "Ġcarries": 8825,
      "Ġbuff": 8826,
      "Ġretal": 8827,
      "Ġepic": 8828,
      "ternal": 8829,
      "Ġsmoke": 8830,
      "Ġ127": 8831,
      "Ġdrivers": 8832,
      "Ġmainstream": 8833,
      "Ġdevelopers": 8834,
      "Ġstrange": 8835,
      "Ġ115": 8836,
      "Ġkeith": 8837,
      "azer": 8838,
      "Ġcommands": 8839,
      "Ġanticip": 8840,
      "asha": 8841,
      "Ġreviewed": 8842,
      "Ġrefere": 8843,
      "linger": 8844,
      "Ġharbor": 8845,
      "Ġharmon": 8846,
      "Ġhoover": 8847,
      "Ġcontrols": 8848,
      "Ġgrandfather": 8849,
      "Ġsignificance": 8850,
      "Ġhence": 8851,
      "Ġmerely": 8852,
      "Ġachievement": 8853,
      "Ġmccart": 8854,
      "Ġ1861": 8855,
      "Ġimmort": 8856,
      "Ġconnecting": 8857,
      "Ġ360": 8858,
      "Ġcredit": 8859,
      "Ġpunishment": 8860,
      "Ġtemperatures": 8861,
      "Ġparent": 8862,
      "Ġpilots": 8863,
      "Ġidol": 8864,
      "Ġidaho": 8865,
      "Ġtonina": 8866,
      "Ġchronicle": 8867,
      "Ġcharlotte": 8868,
      "Ġsubsid": 8869,
      "Ġdanger": 8870,
      "Ġcolumbus": 8871,
      "Ġreactions": 8872,
      "Ġibis": 8873,
      "Ġargentine": 8874,
      "Ġpermission": 8875,
      "Ġsweden": 8876,
      "Ġcooperation": 8877,
      "Ġexecution": 8878,
      "Ġmitchell": 8879,
      "Ġrecreation": 8880,
      "Ġrocks": 8881,
      "Ġappointment": 8882,
      "Ġtigers": 8883,
      "Ġleukemia": 8884,
      "Ġproportion": 8885,
      "Ġaggressive": 8886,
      "Ġfernandez": 8887,
      "Ġaccompanying": 8888,
      "ĠâĤ¹": 8889,
      "Ġmetropolitan": 8890,
      "Ġwwf": 8891,
      "Ġwanderers": 8892,
      "Ġunlikely": 8893,
      "Ġswitzerland": 8894,
      "awn": 8895,
      "mates": 8896,
      "wal": 8897,
      "Ġsq": 8898,
      "Ġcock": 8899,
      "Ġbour": 8900,
      "itic": 8901,
      "Ġinher": 8902,
      "isle": 8903,
      "Ġmask": 8904,
      "anag": 8905,
      "Ġdri": 8906,
      "Ġdense": 8907,
      "Ġhab": 8908,
      "Ġreper": 8909,
      "Ġgay": 8910,
      "Ġonwards": 8911,
      "Ġstabil": 8912,
      "terior": 8913,
      "ige": 8914,
      "Ġrus": 8915,
      "Ġrushing": 8916,
      "Ġisesi": 8917,
      "Ġconform": 8918,
      "Ġkos": 8919,
      "Ġyout": 8920,
      "unc": 8921,
      "Ġshirt": 8922,
      "aks": 8923,
      "Ġexclud": 8924,
      "berry": 8925,
      "Ġtrails": 8926,
      "Ġtrapped": 8927,
      "rite": 8928,
      "Ġcompre": 8929,
      "Ġcompens": 8930,
      "cles": 8931,
      "soft": 8932,
      "Ġmanip": 8933,
      "Ġspots": 8934,
      "oken": 8935,
      "Ġtimber": 8936,
      "Ġresid": 8937,
      "Ġeval": 8938,
      "Ġoffshore": 8939,
      "Ġoutf": 8940,
      "Ġprinted": 8941,
      "Ġjoh": 8942,
      "Ġthemed": 8943,
      "Ġparach": 8944,
      "Ġ83": 8945,
      "Ġacyclic": 8946,
      "Ġretail": 8947,
      "Ġdover": 8948,
      "Ġphone": 8949,
      "Ġbacked": 8950,
      "aley": 8951,
      "Ġbelgian": 8952,
      "Ġarmoured": 8953,
      "Ġ168": 8954,
      "Ġslip": 8955,
      "Ġdistrib": 8956,
      "Ġ174": 8957,
      "Ġeverton": 8958,
      "aza": 8959,
      "Ġconcur": 8960,
      "Ġpromin": 8961,
      "Ġtrium": 8962,
      "Ġrestore": 8963,
      "Ġchristians": 8964,
      "Ġinternation": 8965,
      "Ġdelaware": 8966,
      "imeter": 8967,
      "Ġfarming": 8968,
      "Ġlessing": 8969,
      "Ġsoldier": 8970,
      "obi": 8971,
      "Ġtenure": 8972,
      "Ġtravelled": 8973,
      "Ġanimated": 8974,
      "Ġduo": 8975,
      "Ġhelping": 8976,
      "Ġmadero": 8977,
      "Ġmachinery": 8978,
      "Ġdraws": 8979,
      "Ġmeasuring": 8980,
      "Ġ350": 8981,
      "Ġinvestment": 8982,
      "Ġtraveling": 8983,
      "Ġhunt": 8984,
      "Ġairports": 8985,
      "Ġranks": 8986,
      "Ġferry": 8987,
      "Ġtaxonomy": 8988,
      "Ġaerial": 8989,
      "Ġpairs": 8990,
      "Ġlifetime": 8991,
      "Ġpolicies": 8992,
      "Ġconversion": 8993,
      "Ġgardens": 8994,
      "Ġsporting": 8995,
      "Ġprecip": 8996,
      "Ġpreparing": 8997,
      "Ġelevation": 8998,
      "Ġduration": 8999,
      "Ġpatterns": 9000,
      "Ġteachers": 9001,
      "Ġleonard": 9002,
      "Ġnazi": 9003,
      "Ġearnest": 9004,
      "Ġbronze": 9005,
      "Ġalberta": 9006,
      "Ġdepicting": 9007,
      "Ġexactly": 9008,
      "Ġcensus": 9009,
      "Ġknights": 9010,
      "Ġpyram": 9011,
      "Ġnadal": 9012,
      "Ġarkansas": 9013,
      "Ġtaste": 9014,
      "Ġdeputy": 9015,
      "Ġstuart": 9016,
      "Ġphenom": 9017,
      "Ġcarpenter": 9018,
      "Ġsultan": 9019,
      "Ġgospel": 9020,
      "Ġuprising": 9021,
      "Ġgaelic": 9022,
      "Ġmccartney": 9023,
      "Ġyoutube": 9024,
      "60": 9025,
      "bu": 9026,
      "gro": 9027,
      "sky": 9028,
      "tle": 9029,
      "war": 9030,
      "Ġtang": 9031,
      "Ġcards": 9032,
      "Ġpest": 9033,
      "Ġpod": 9034,
      "Ġpak": 9035,
      "Ġmold": 9036,
      "Ġdal": 9037,
      "icians": 9038,
      "Ġnit": 9039,
      "Ġreop": 9040,
      "leys": 9041,
      "Ġgarn": 9042,
      "sters": 9043,
      "street": 9044,
      "aman": 9045,
      "uration": 9046,
      "olence": 9047,
      "owed": 9048,
      "verse": 9049,
      "Ġseattle": 9050,
      "Ġkate": 9051,
      "Ġkau": 9052,
      "Ġchop": 9053,
      "andra": 9054,
      "osph": 9055,
      "Ġunst": 9056,
      "Ġlect": 9057,
      "Ġtrunk": 9058,
      "order": 9059,
      "Ġadela": 9060,
      "Ġmanor": 9061,
      "Ġallosaurus": 9062,
      "Ġspell": 9063,
      "ova": 9064,
      "Ġimb": 9065,
      "Ġflesh": 9066,
      "Ġinteractions": 9067,
      "athy": 9068,
      "Ġremin": 9069,
      "Ġsydney": 9070,
      "Ġpositively": 9071,
      "Ġbacking": 9072,
      "Ġwells": 9073,
      "Ġterrain": 9074,
      "Ġoperas": 9075,
      "Ġoperational": 9076,
      "Ġ118": 9077,
      "Ġmatters": 9078,
      "emble": 9079,
      "Ġsuccession": 9080,
      "Ġcommanders": 9081,
      "Ġraising": 9082,
      "Ġcharacteristic": 9083,
      "Ġtrio": 9084,
      "Ġlaure": 9085,
      "Ġirreg": 9086,
      "ashi": 9087,
      "Ġvalues": 9088,
      "Ġhanded": 9089,
      "Ġheavier": 9090,
      "Ġrequires": 9091,
      "Ġfunctions": 9092,
      "Ġpitching": 9093,
      "Ġstrongest": 9094,
      "Ġwatson": 9095,
      "Ġdeclar": 9096,
      "Ġdonated": 9097,
      "Ġballs": 9098,
      "Ġ1902": 9099,
      "Ġbowling": 9100,
      "Ġsurvival": 9101,
      "Ġpenet": 9102,
      "Ġ1895": 9103,
      "Ġsanct": 9104,
      "Ġmadonna": 9105,
      "Ġderff": 9106,
      "Ġclosing": 9107,
      "Ġcruc": 9108,
      "Ġsymph": 9109,
      "Ġindicates": 9110,
      "Ġmaintaining": 9111,
      "Ġoxygen": 9112,
      "Ġembarked": 9113,
      "Ġtwentieth": 9114,
      "Ġ1840": 9115,
      "Ġfailing": 9116,
      "Ġbulgar": 9117,
      "Ġthirteen": 9118,
      "Ġutah": 9119,
      "Ġcancelled": 9120,
      "Ġsearching": 9121,
[...]
