{
  "version": "1.0",
  "truncation": null,
  "padding": null,
  "added_tokens": [
    {
      "id": 0,
      "content": "[PAD]",
      "single_word": false,
      "lstrip": false,
      "rstrip": false,
      "normalized": false,
      "special": true
    },
    {
      "id": 1,
      "content": "[CLS]",
      "single_word": false,
      "lstrip": false,
      "rstrip": false,
      "normalized": false,
      "special": true
    },
    {
      "id": 2,
      "content": "<|endoftext|>",
      "single_word": false,
      "lstrip": false,
      "rstrip": false,
      "normalized": false,
      "special": true
    }
  ],
  "normalizer": {
    "type": "Sequence",
    "normalizers": [
      {
        "type": "NFD"
      },
      {
        "type": "Lowercase"
      },
      {
        "type": "StripAccents"
      }
    ]
  },
  "pre_tokenizer": {
    "type": "BertPreTokenizer"
  },
  "post_processor": {
    "type": "BertProcessing",
    "sep": [
      "<|endoftext|>",
      2
    ],
    "cls": [
      "[CLS]",
      1
    ]
  },
  "decoder": {
    "type": "WordPiece",
    "prefix": "##",
    "cleanup": true
  },
  "model": {
    "type": "WordPiece",
    "unk_token": "[UNK]",
    "continuing_subword_prefix": "##",
    "max_input_chars_per_word": 100,
    "vocab": {
      "[PAD]": 0,
      "[CLS]": 1,
      "<|endoftext|>": 2,
      "!": 3,
      "\"": 4,
      "#": 5,
      "$": 6,
      "%": 7,
      "&": 8,
      "'": 9,
      "(": 10,
      ")": 11,
      "*": 12,
      "+": 13,
      ",": 14,
      "-": 15,
      ".": 16,
      "/": 17,
      "0": 18,
      "1": 19,
      "2": 20,
      "3": 21,
      "4": 22,
      "5": 23,
      "6": 24,
      "7": 25,
      "8": 26,
      "9": 27,
      ":": 28,
      ";": 29,
      "<": 30,
      "=": 31,
      ">": 32,
      "?": 33,
      "@": 34,
      "[": 35,
      "\\": 36,
      "]": 37,
      "^": 38,
      "_": 39,
      "`": 40,
      "a": 41,
      "b": 42,
      "c": 43,
      "d": 44,
      "e": 45,
      "f": 46,
      "g": 47,
      "h": 48,
      "i": 49,
      "j": 50,
      "k": 51,
      "l": 52,
      "m": 53,
      "n": 54,
      "o": 55,
      "p": 56,
      "q": 57,
      "r": 58,
      "s": 59,
      "t": 60,
      "u": 61,
      "v": 62,
      "w": 63,
      "x": 64,
      "y": 65,
      "z": 66,
      "|": 67,
      "}": 68,
      "~": 69,
      "": 70,
      "": 71,
      "¡": 72,
      "¢": 73,
      "£": 74,
      "¥": 75,
      "§": 76,
      "°": 77,
      "±": 78,
      "²": 79,
      "³": 80,
      "´": 81,
      "µ": 82,
      "·": 83,
      "º": 84,
      "½": 85,
      "¿": 86,
      "×": 87,
      "ß": 88,
      "æ": 89,
      "ð": 90,
      "ø": 91,
      "þ": 92,
      "đ": 93,
      "ħ": 94,
      "ı": 95,
      "ł": 96,
      "œ": 97,
      "ɐ": 98,
      "ɑ": 99,
      "ɒ": 100,
      "ɔ": 101,
      "ə": 102,
      "ɛ": 103,
      "ɜ": 104,
      "ɡ": 105,
      "ɢ": 106,
      "ɪ": 107,
      "ɫ": 108,
      "ɳ": 109,
      "ɽ": 110,
      "ɾ": 111,
      "ʁ": 112,
      "ʃ": 113,
      "ʊ": 114,
      "ʋ": 115,
      "ʒ": 116,
      "ʔ": 117,
      "ʕ": 118,
      "ʲ": 119,
      "ʻ": 120,
      "ʼ": 121,
      "ʾ": 122,
      "ʿ": 123,
      "ˈ": 124,
      "ˌ": 125,
      "ː": 126,
      "α": 127,
      "β": 128,
      "γ": 129,
      "δ": 130,
      "ε": 131,
      "η": 132,
      "θ": 133,
      "ι": 134,
      "κ": 135,
      "λ": 136,
      "μ": 137,
      "ν": 138,
      "ξ": 139,
      "ο": 140,
      "π": 141,
      "ρ": 142,
      "ς": 143,
      "σ": 144,
      "τ": 145,
      "υ": 146,
      "φ": 147,
      "χ": 148,
      "ψ": 149,
      "ω": 150,
      "а": 151,
      "б": 152,
      "в": 153,
      "г": 154,
      "д": 155,
      "е": 156,
      "ж": 157,
      "з": 158,
      "и": 159,
      "к": 160,
      "л": 161,
      "м": 162,
      "н": 163,
      "о": 164,
      "п": 165,
      "р": 166,
      "с": 167,
      "т": 168,
      "у": 169,
      "х": 170,
      "ц": 171,
      "ш": 172,
      "ъ": 173,
      "ы": 174,
      "ь": 175,
      "ю": 176,
      "я": 177,
      "є": 178,
      "א": 179,
      "ב": 180,
      "ג": 181,
      "ה": 182,
      "ו": 183,
      "ז": 184,
      "ח": 185,
      "י": 186,
      "ל": 187,
      "ם": 188,
      "מ": 189,
      "ן": 190,
      "נ": 191,
      "ס": 192,
      "ף": 193,
      "פ": 194,
      "צ": 195,
      "ר": 196,
      "ש": 197,
      "ת": 198,
      "ء": 199,
      "ا": 200,
      "ب": 201,
      "ة": 202,
      "ت": 203,
      "ث": 204,
      "ج": 205,
      "ح": 206,
      "خ": 207,
      "د": 208,
      "ذ": 209,
      "ر": 210,
      "س": 211,
      "ش": 212,
      "ص": 213,
      "ع": 214,
      "ف": 215,
      "ق": 216,
      "ك": 217,
      "ل": 218,
      "م": 219,
      "ن": 220,
      "ه": 221,
      "و": 222,
      "ي": 223,
      "ܐ": 224,
      "ܕ": 225,
      "ܗ": 226,
      "ܝ": 227,
      "ܠ": 228,
      "ܢ": 229,
      "ܬ": 230,
      "अ": 231,
      "ई": 232,
      "क": 233,
      "ग": 234,
      "ण": 235,
      "त": 236,
      "द": 237,
      "न": 238,
      "प": 239,
      "ब": 240,
      "म": 241,
      "य": 242,
      "र": 243,
      "ल": 244,
      "व": 245,
      "स": 246,
      "ह": 247,
      "আ": 248,
      "ল": 249,
      "হ": 250,
      "ਅ": 251,
      "ਲ": 252,
      "ਹ": 253,
      "അ": 254,
      "ള": 255,
      "ഹ": 256,
      "ก": 257,
      "ค": 258,
      "ง": 259,
      "ช": 260,
      "ซ": 261,
      "ญ": 262,
      "ฐ": 263,
      "ณ": 264,
      "ด": 265,
      "ต": 266,
      "น": 267,
      "บ": 268,
      "ป": 269,
      "พ": 270,
      "ภ": 271,
      "ม": 272,
      "ย": 273,
      "ร": 274,
      "ล": 275,
      "ว": 276,
      "ศ": 277,
      "ษ": 278,
      "ส": 279,
      "ห": 280,
      "อ": 281,
      "ฮ": 282,
      "ะ": 283,
      "า": 284,
      "เ": 285,
      "แ": 286,
      "ไ": 287,
      "ა": 288,
      "ბ": 289,
      "გ": 290,
      "დ": 291,
      "ე": 292,
      "ვ": 293,
      "ზ": 294,
      "თ": 295,
      "ი": 296,
      "კ": 297,
      "ლ": 298,
      "მ": 299,
      "ნ": 300,
      "ო": 301,
      "პ": 302,
      "ჟ": 303,
      "რ": 304,
      "ს": 305,
      "ტ": 306,
      "უ": 307,
      "ფ": 308,
      "ქ": 309,
      "ღ": 310,
      "ყ": 311,
      "შ": 312,
      "ჩ": 313,
      "ც": 314,
      "ძ": 315,
      "წ": 316,
      "ჭ": 317,
      "ხ": 318,
      "ჯ": 319,
      "ჰ": 320,
      "ჱ": 321,
      "ჲ": 322,
      "ჳ": 323,
      "ჴ": 324,
      "ჵ": 325,
      "ჶ": 326,
      "ჷ": 327,
      "ჸ": 328,
      "ჹ": 329,
      "ჺ": 330,
      "჻": 331,
      "ᄃ": 332,
      "ᄅ": 333,
      "ᄇ": 334,
      "ᄋ": 335,
      "ᄌ": 336,
      "ᅡ": 337,
      "ᅢ": 338,
      "ᅦ": 339,
      "ᅧ": 340,
      "ᅩ": 341,
      "ᅮ": 342,
      "ᅵ": 343,
      "ᆨ": 344,
      "ᆫ": 345,
      "ᆯ": 346,
      "ᆸ": 347,
      "ᆼ": 348,
      "ᵻ": 349,
      "​": 350,
      "‐": 351,
      "‑": 352,
      "–": 353,
      "—": 354,
      "―": 355,
      "‘": 356,
      "’": 357,
      "“": 358,
      "”": 359,
      "„": 360,
      "†": 361,
      "‡": 362,
      "•": 363,
      "…": 364,
      "′": 365,
      "″": 366,
      "⁄": 367,
      "₣": 368,
      "₤": 369,
      "€": 370,
      "₹": 371,
      "⅓": 372,
      "⅔": 373,
      "→": 374,
      "−": 375,
      "≡": 376,
      "≤": 377,
      "①": 378,
      "☉": 379,
      "☫": 380,
      "♀": 381,
      "♭": 382,
      "♯": 383,
      "⚳": 384,
      "ⴀ": 385,
      "ⴂ": 386,
      "ⴃ": 387,
      "ⴈ": 388,
      "ⴌ": 389,
      "ⴕ": 390,
      "ⴟ": 391,
      "〈": 392,
      "〉": 393,
      "〜": 394,
      "あ": 395,
      "い": 396,
      "う": 397,
      "お": 398,
      "か": 399,
      "き": 400,
      "く": 401,
      "け": 402,
      "こ": 403,
      "さ": 404,
      "し": 405,
      "す": 406,
      "せ": 407,
      "た": 408,
      "ち": 409,
      "っ": 410,
      "つ": 411,
      "と": 412,
      "な": 413,
      "に": 414,
      "の": 415,
      "は": 416,
      "ひ": 417,
      "ふ": 418,
      "ほ": 419,
      "ま": 420,
      "み": 421,
      "め": 422,
      "も": 423,
      "ゃ": 424,
      "ゆ": 425,
      "ょ": 426,
      "ら": 427,
      "り": 428,
      "る": 429,
      "れ": 430,
      "わ": 431,
      "を": 432,
      "ん": 433,
      "ァ": 434,
      "ア": 435,
      "ィ": 436,
      "イ": 437,
      "ゥ": 438,
      "ウ": 439,
      "ェ": 440,
      "エ": 441,
      "ォ": 442,
      "オ": 443,
      "カ": 444,
      "キ": 445,
      "ク": 446,
      "ケ": 447,
      "コ": 448,
      "サ": 449,
      "シ": 450,
      "ス": 451,
      "セ": 452,
      "タ": 453,
      "チ": 454,
      "ッ": 455,
      "ツ": 456,
      "テ": 457,
      "ト": 458,
      "ナ": 459,
      "ニ": 460,
      "ネ": 461,
      "ノ": 462,
      "ハ": 463,
      "フ": 464,
      "ヘ": 465,
      "マ": 466,
      "ミ": 467,
      "ム": 468,
      "モ": 469,
      "ャ": 470,
      "ュ": 471,
      "ョ": 472,
      "ラ": 473,
      "リ": 474,
      "ル": 475,
      "レ": 476,
      "ロ": 477,
      "ン": 478,
      "・": 479,
      "ー": 480,
      "一": 481,
      "七": 482,
      "下": 483,
      "世": 484,
      "丙": 485,
      "中": 486,
      "主": 487,
      "乃": 488,
      "之": 489,
      "乙": 490,
      "九": 491,
      "二": 492,
      "云": 493,
      "人": 494,
      "今": 495,
      "付": 496,
      "作": 497,
      "侗": 498,
      "依": 499,
      "信": 500,
      "傳": 501,
      "儚": 502,
      "充": 503,
      "光": 504,
      "全": 505,
      "兵": 506,
      "其": 507,
      "具": 508,
      "円": 509,
      "再": 510,
      "出": 511,
      "判": 512,
      "前": 513,
      "剛": 514,
      "劇": 515,
      "劉": 516,
      "動": 517,
      "化": 518,
      "北": 519,
      "华": 520,
      "厂": 521,
      "去": 522,
      "古": 523,
      "可": 524,
      "台": 525,
      "史": 526,
      "同": 527,
      "名": 528,
      "君": 529,
      "吳": 530,
      "周": 531,
      "命": 532,
      "和": 533,
      "咲": 534,
      "善": 535,
      "四": 536,
      "國": 537,
      "園": 538,
      "圣": 539,
      "在": 540,
      "坂": 541,
      "堤": 542,
      "場": 543,
      "塘": 544,
      "夕": 545,
      "大": 546,
      "天": 547,
      "夫": 548,
      "女": 549,
      "妙": 550,
      "姚": 551,
      "子": 552,
      "孟": 553,
      "守": 554,
      "安": 555,
      "宋": 556,
      "完": 557,
      "宗": 558,
      "宝": 559,
      "宫": 560,
      "寝": 561,
      "寺": 562,
      "小": 563,
      "少": 564,
      "尾": 565,
      "山": 566,
      "岳": 567,
      "川": 568,
      "州": 569,
      "巳": 570,
      "市": 571,
      "師": 572,
      "平": 573,
      "广": 574,
      "庆": 575,
      "府": 576,
      "座": 577,
      "廬": 578,
      "建": 579,
      "式": 580,
      "張": 581,
      "彌": 582,
      "彩": 583,
      "彼": 584,
      "後": 585,
      "御": 586,
      "德": 587,
      "思": 588,
      "愛": 589,
      "憑": 590,
      "憶": 591,
      "應": 592,
      "懷": 593,
      "战": 594,
      "戦": 595,
      "扈": 596,
      "技": 597,
      "拉": 598,
      "拳": 599,
      "挑": 600,
      "揺": 601,
      "攻": 602,
      "放": 603,
      "政": 604,
      "散": 605,
      "斯": 606,
      "方": 607,
      "日": 608,
      "旦": 609,
      "旭": 610,
      "昌": 611,
      "明": 612,
      "星": 613,
      "春": 614,
      "晋": 615,
      "景": 616,
      "曦": 617,
      "月": 618,
      "望": 619,
      "未": 620,
      "本": 621,
      "李": 622,
      "村": 623,
      "杜": 624,
      "束": 625,
      "来": 626,
      "林": 627,
      "桜": 628,
      "梶": 629,
      "棘": 630,
      "椎": 631,
      "楊": 632,
      "楚": 633,
      "榮": 634,
      "橘": 635,
      "機": 636,
      "正": 637,
      "殻": 638,
      "殿": 639,
      "母": 640,
      "水": 641,
      "汉": 642,
      "沂": 643,
      "沙": 644,
      "河": 645,
      "泗": 646,
      "波": 647,
      "泣": 648,
      "洪": 649,
      "淹": 650,
      "清": 651,
      "湯": 652,
      "漢": 653,
      "澄": 654,
      "澤": 655,
      "火": 656,
      "灯": 657,
      "灵": 658,
      "灼": 659,
      "焼": 660,
      "熱": 661,
      "物": 662,
      "狐": 663,
      "狸": 664,
      "玄": 665,
      "王": 666,
      "玩": 667,
      "珂": 668,
      "珙": 669,
      "球": 670,
      "理": 671,
      "琦": 672,
      "琪": 673,
      "瓊": 674,
      "生": 675,
      "田": 676,
      "畢": 677,
      "番": 678,
      "瘡": 679,
      "白": 680,
      "皮": 681,
      "真": 682,
      "砲": 683,
      "礮": 684,
      "祈": 685,
      "神": 686,
      "祠": 687,
      "秋": 688,
      "空": 689,
      "立": 690,
      "精": 691,
      "約": 692,
      "絵": 693,
      "織": 694,
      "義": 695,
      "翠": 696,
      "者": 697,
      "耕": 698,
      "肖": 699,
      "胡": 700,
      "膀": 701,
      "臂": 702,
      "興": 703,
      "良": 704,
      "花": 705,
      "芳": 706,
      "芽": 707,
      "若": 708,
      "英": 709,
      "藕": 710,
      "藥": 711,
      "蘄": 712,
      "蘇": 713,
      "行": 714,
      "裁": 715,
      "規": 716,
      "覺": 717,
      "观": 718,
      "解": 719,
      "記": 720,
      "誓": 721,
      "誡": 722,
      "誰": 723,
      "謎": 724,
      "许": 725,
      "谭": 726,
      "豪": 727,
      "豫": 728,
      "費": 729,
      "贵": 730,
      "赤": 731,
      "趙": 732,
      "足": 733,
      "跡": 734,
      "転": 735,
      "辛": 736,
      "逆": 737,
      "遇": 738,
      "運": 739,
      "過": 740,
      "遠": 741,
      "選": 742,
      "邦": 743,
      "邱": 744,
      "部": 745,
      "郭": 746,
      "都": 747,
      "酈": 748,
      "里": 749,
      "野": 750,
      "金": 751,
      "銃": 752,
      "鋼": 753,
      "錄": 754,
      "錡": 755,
      "鍵": 756,
      "鐵": 757,
      "钱": 758,
      "铁": 759,
      "關": 760,
      "防": 761,
      "阿": 762,
      "陈": 763,
      "陳": 764,
      "陽": 765,
      "隊": 766,
      "階": 767,
      "集": 768,
      "雪": 769,
      "雲": 770,
      "霖": 771,
      "霹": 772,
      "靂": 773,
      "韓": 774,
      "願": 775,
      "顯": 776,
      "颜": 777,
      "马": 778,
      "高": 779,
      "龍": 780,
      "ﷲ": 781,
      "ﻋ": 782,
      "﻿": 783,
      "／": 784,
      "３": 785,
      "～": 786,
      "�": 787,
      "##a": 788,
      "##n": 789,
      "##d": 790,
      "##s": 791,
      "##l": 792,
      "##i": 793,
      "##e": 794,
      "##p": 795,
      "##h": 796,
      "##z": 797,
      "##r": 798,
      "##y": 799,
      "##m": 800,
      "##t": 801,
      "##c": 802,
      "##k": 803,
      "##f": 804,
      "##o": 805,
      "##u": 806,
      "##b": 807,
      "##w": 808,
      "##v": 809,
      "##g": 810,
      "##2": 811,
      "##0": 812,
      "##x": 813,
      "##5": 814,
      "##j": 815,
      "##8": 816,
      "##đ": 817,
      "##6": 818,
      "##1": 819,
      "##9": 820,
      "##3": 821,
      "##q": 822,
      "##生": 823,
      "##7": 824,
      "##о": 825,
      "##с": 826,
      "##и": 827,
      "##я": 828,
      "##4": 829,
      "##უ": 830,
      "##ს": 831,
      "##ხ": 832,
      "##ა": 833,
      "##ɪ": 834,
      "##ł": 835,
      "##æ": 836,
      "##ə": 837,
      "##ˈ": 838,
      "##ɑ": 839,
      "##ː": 840,
      "##რ": 841,
      "##ი": 842,
      "##ტ": 843,
      "##ე": 844,
      "##贵": 845,
      "##ل": 846,
      "##ا": 847,
      "##ه": 848,
      "##安": 849,
      "##व": 850,
      "##द": 851,
      "##ο": 852,
      "##ρ": 853,
      "##υ": 854,
      "##θ": 855,
      "##ς": 856,
      "##হ": 857,
      "##а": 858,
      "##н": 859,
      "##т": 860,
      "##к": 861,
      "##р": 862,
      "##し": 863,
      "##も": 864,
      "##君": 865,
      "##か": 866,
      "##願": 867,
      "##う": 868,
      "##の": 869,
      "##な": 870,
      "##ら": 871,
      "##フ": 872,
      "##л": 873,
      "##ы": 874,
      "##ي": 875,
      "##ف": 876,
      "##灵": 877,
      "##宫": 878,
      "##選": 879,
      "##ب": 880,
      "##ю": 881,
      "##з": 882,
      "##い": 883,
      "##ち": 884,
      "##ゃ": 885,
      "##ん": 886,
      "##د": 887,
      "##ø": 888,
      "##œ": 889,
      "##ნ": 890,
      "##建": 891,
      "##华": 892,
      "##ラ": 893,
      "##ー": 894,
      "##雪": 895,
      "##β": 896,
      "##た": 897,
      "##す": 898,
      "##き": 899,
      "##ひ": 900,
      "##と": 901,
      "##ن": 902,
      "##ל": 903,
      "##ה": 904,
      "##ı": 905,
      "##転": 906,
      "##裁": 907,
      "##判": 908,
      "##兵": 909,
      "##主": 910,
      "##義": 911,
      "##ল": 912,
      "##გ": 913,
      "##ვ": 914,
      "##ლ": 915,
      "##ッ": 916,
      "##ク": 917,
      "##マ": 918,
      "##ン": 919,
      "##去": 920,
      "##り": 921,
      "##思": 922,
      "##出": 923,
      "##光": 924,
      "##世": 925,
      "##散": 926,
      "##關": 927,
      "##ล": 928,
      "##ว": 929,
      "##ง": 930,
      "##พ": 931,
      "##ไ": 932,
      "##ช": 933,
      "##ย": 934,
      "##า": 935,
      "##ร": 936,
      "##師": 937,
      "##旦": 938,
      "##庆": 939,
      "##河": 940,
      "##เ": 941,
      "##ป": 942,
      "##来": 943,
      "##挑": 944,
      "##戦": 945,
      "##者": 946,
      "##ะ": 947,
      "##อ": 948,
      "##น": 949,
      "##в": 950,
      "##彩": 951,
      "##ɡ": 952,
      "##ɒ": 953,
      "##п": 954,
      "##г": 955,
      "##ك": 956,
      "##ر": 957,
      "##番": 958,
      "##宝": 959,
      "##物": 960,
      "##め": 961,
      "##ʊ": 962,
      "##ト": 963,
      "##懷": 964,
      "##曦": 965,
      "##さ": 966,
      "##祈": 967,
      "##χ": 968,
      "##珙": 969,
      "##く": 970,
      "##れ": 971,
      "##依": 972,
      "##子": 973,
      "##ω": 974,
      "##妙": 975,
      "##观": 976,
      "##ʔ": 977,
      "##ˌ": 978,
      "##α": 979,
      "##δ": 980,
      "##μ": 981,
      "##ε": 982,
      "##ι": 983,
      "##つ": 984,
      "##咲": 985,
      "##花": 986,
      "##ქ": 987,
      "##დ": 988,
      "##霖": 989,
      "##四": 990,
      "##式": 991,
      "##拳": 992,
      "##銃": 993,
      "##殻": 994,
      "##機": 995,
      "##動": 996,
      "##隊": 997,
      "##狸": 998,
      "##精": 999,
      "##י": 1000,
      "##ס": 1001,
      "##ß": 1002,
      "##е": 1003,
      "##м": 1004,
      "##は": 1005,
      "##同": 1006,
      "##天": 1007,
      "##府": 1008,
      "##夫": 1009,
      "##人": 1010,
      "##絵": 1011,
      "##作": 1012,
      "##ള": 1013,
      "##º": 1014,
      "##д": 1015,
      "##ش": 1016,
      "##م": 1017,
      "##و": 1018,
      "##云": 1019,
      "##清": 1020,
      "##ツ": 1021,
      "##ネ": 1022,
      "##技": 1023,
      "##イ": 1024,
      "##ル": 1025,
      "##ス": 1026,
      "##ɔ": 1027,
      "##ʃ": 1028,
      "##ო": 1029,
      "##მ": 1030,
      "##თ": 1031,
      "##ɐ": 1032,
      "##ш": 1033,
      "##ц": 1034,
      "##ь": 1035,
      "##付": 1036,
      "##顯": 1037,
      "##ʿ": 1038,
      "##פ": 1039,
      "##ɫ": 1040,
      "##ण": 1041,
      "##ई": 1042,
      "##ゆ": 1043,
      "##წ": 1044,
      "##ფ": 1045,
      "##レ": 1046,
      "##チ": 1047,
      "##ɽ": 1048,
      "##ซ": 1049,
      "##る": 1050,
      "##場": 1051,
      "##ウ": 1052,
      "##ァ": 1053,
      "##キ": 1054,
      "##ュ": 1055,
      "##リ": 1056,
      "##ア": 1057,
      "##ܕ": 1058,
      "##ܝ": 1059,
      "##ܢ": 1060,
      "##ܬ": 1061,
      "##誓": 1062,
      "##琦": 1063,
      "##州": 1064,
      "##ᵻ": 1065,
      "##充": 1066,
      "##彌": 1067,
      "##遠": 1068,
      "##明": 1069,
      "##沙": 1070,
      "##テ": 1071,
      "##ィ": 1072,
      "##ニ": 1073,
      "##ल": 1074,
      "##邦": 1075,
      "##昌": 1076,
      "##ャ": 1077,
      "##モ": 1078,
      "##א": 1079,
      "##ग": 1080,
      "##ც": 1081,
      "##大": 1082,
      "##礮": 1083,
      "##狐": 1084,
      "##全": 1085,
      "##束": 1086,
      "##お": 1087,
      "##守": 1088,
      "##シ": 1089,
      "##ء": 1090,
      "##न": 1091,
      "##क": 1092,
      "##足": 1093,
      "##跡": 1094,
      "##ჳ": 1095,
      "##ʻ": 1096,
      "##ν": 1097,
      "##ן": 1098,
      "##ก": 1099,
      "##ェ": 1100,
      "##ハ": 1101,
      "##星": 1102,
      "##汉": 1103,
      "##塘": 1104,
      "##ψ": 1105,
      "##方": 1106,
      "##ו": 1107,
      "##ף": 1108,
      "##セ": 1109,
      "##オ": 1110,
      "##鋼": 1111,
      "##宗": 1112,
      "##政": 1113,
      "##ᅡ": 1114,
      "##ᆯ": 1115,
      "##ᄅ": 1116,
      "##翠": 1117,
      "##英": 1118,
      "##є": 1119,
      "##λ": 1120,
      "##स": 1121,
      "##س": 1122,
      "##ォ": 1123,
      "##揺": 1124,
      "##こ": 1125,
      "##憶": 1126,
      "##棘": 1127,
      "##ʒ": 1128,
      "##ᅦ": 1129,
      "##ᄃ": 1130,
      "##ᅩ": 1131,
      "##ᆨ": 1132,
      "##ᅵ": 1133,
      "##ᆸ": 1134,
      "##ᄇ": 1135,
      "##ᅧ": 1136,
      "##ᆼ": 1137,
      "##ᄋ": 1138,
      "##ᆫ": 1139,
      "##ᅢ": 1140,
      "##淹": 1141,
      "##金": 1142,
      "##山": 1143,
      "##灼": 1144,
      "##熱": 1145,
      "##都": 1146,
      "##市": 1147,
      "##แ": 1148,
      "##母": 1149,
      "##殿": 1150,
      "##ภ": 1151,
      "##ด": 1152,
      "##ح": 1153,
      "##榮": 1154,
      "##ノ": 1155,
      "##わ": 1156,
      "##广": 1157,
      "##ق": 1158,
      "##堤": 1159,
      "##雲": 1160,
      "##ت": 1161,
      "##ɛ": 1162,
      "##名": 1163,
      "##タ": 1164,
      "##日": 1165,
      "##っ": 1166,
      "##ъ": 1167,
      "##再": 1168,
      "##遇": 1169,
      "##颜": 1170,
      "##望": 1171,
      "##運": 1172,
      "##命": 1173,
      "##乙": 1174,
      "##女": 1175,
      "##ค": 1176,
      "##ต": 1177,
      "##春": 1178,
      "##ב": 1179,
      "##ת": 1180,
      "##火": 1181,
      "##砲": 1182,
      "##里": 1183,
      "##х": 1184,
      "##π": 1185,
      "##τ": 1186,
      "##κ": 1187,
      "##ɜ": 1188,
      "##ذ": 1189,
      "##ة": 1190,
      "##ث": 1191,
      "##ฮ": 1192,
      "##興": 1193,
      "##藥": 1194,
      "##サ": 1195,
      "##ロ": 1196,
      "##ჲ": 1197,
      "##خ": 1198,
      "##玩": 1199,
      "##具": 1200,
      "##厂": 1201,
      "##ʁ": 1202,
      "##ð": 1203,
      "##珂": 1204,
      "##ɾ": 1205,
      "##國": 1206,
      "##秋": 1207,
      "##後": 1208,
      "##集": 1209,
      "##部": 1210,
      "##拉": 1211,
      "##ョ": 1212,
      "##カ": 1213,
      "##漢": 1214,
      "##ж": 1215,
      "##ם": 1216,
      "##ナ": 1217,
      "##ミ": 1218,
      "##侗": 1219,
      "##ณ": 1220,
      "##ม": 1221,
      "##ʲ": 1222,
      "##波": 1223,
      "##信": 1224,
      "##丙": 1225,
      "##र": 1226,
      "##正": 1227,
      "##芳": 1228,
      "##を": 1229,
      "##解": 1230,
      "##放": 1231,
      "##せ": 1232,
      "##γ": 1233,
      "##瓊": 1234,
      "##少": 1235,
      "##剛": 1236,
      "##和": 1237,
      "##川": 1238,
      "##η": 1239,
      "##愛": 1240,
      "##円": 1241,
      "##寺": 1242,
      "##二": 1243,
      "##ਲ": 1244,
      "##ਹ": 1245,
      "##村": 1246,
      "##神": 1247,
      "##空": 1248,
      "##３": 1249,
      "##ह": 1250,
      "##あ": 1251,
      "##鍵": 1252,
      "##ܠ": 1253,
      "##ܗ": 1254,
      "##ܐ": 1255,
      "##ש": 1256,
      "##מ": 1257,
      "##צ": 1258,
      "##其": 1259,
      "##琪": 1260,
      "##ص": 1261,
      "##規": 1262,
      "##覺": 1263,
      "##錡": 1264,
      "##祠": 1265,
      "##尾": 1266,
      "##良": 1267,
      "##防": 1268,
      "##御": 1269,
      "##战": 1270,
      "##ɳ": 1271,
      "##у": 1272,
      "##之": 1273,
      "##平": 1274,
      "##在": 1275,
      "##ゥ": 1276,
      "##ר": 1277,
      "##נ": 1278,
      "##ム": 1279,
      "##ع": 1280,
      "##靂": 1281,
      "##臂": 1282,
      "##膀": 1283,
      "##瘡": 1284,
      "##ჱ": 1285,
      "##球": 1286,
      "##ഹ": 1287,
      "##ᅮ": 1288,
      "##本": 1289,
      "##巳": 1290,
      "##泣": 1291,
      "##蘄": 1292,
      "##錄": 1293,
      "##σ": 1294,
      "##み": 1295,
      "##憑": 1296,
      "##誡": 1297,
      "##ま": 1298,
      "##劇": 1299,
      "##宋": 1300,
      "##中": 1301,
      "##岳": 1302,
      "##王": 1303,
      "##傳": 1304,
      "##台": 1305,
      "##月": 1306,
      "##ษ": 1307,
      "##ฐ": 1308,
      "##沂": 1309,
      "##豫": 1310,
      "##ょ": 1311,
      "##に": 1312,
      "##乃": 1313,
      "##夕": 1314,
      "##焼": 1315,
      "##け": 1316,
      "##園": 1317,
      "##景": 1318,
      "##エ": 1319,
      "##ξ": 1320,
      "##澤": 1321,
      "##化": 1322,
      "##田": 1323,
      "th": 1324,
      "the": 1325,
      "##er": 1326,
      "##in": 1327,
      "##ed": 1328,
      "##on": 1329,
      "##nd": 1330,
      "##es": 1331,
      "##at": 1332,
      "##or": 1333,
      "##en": 1334,
      "##ar": 1335,
      "in": 1336,
      "of": 1337,
      "##an": 1338,
      "##al": 1339,
      "##it": 1340,
      "##ing": 1341,
      "and": 1342,
      "##is": 1343,
      "##as": 1344,
      "to": 1345,
      "##ic": 1346,
      "##ou": 1347,
      "##ion": 1348,
      "##re": 1349,
      "##om": 1350,
      "##el": 1351,
      "##il": 1352,
      "##ec": 1353,
      "##ent": 1354,
      "##th": 1355,
      "##st": 1356,
      "##am": 1357,
      "##ur": 1358,
      "##ad": 1359,
      "##ac": 1360,
      "on": 1361,
      "##le": 1362,
      "##ro": 1363,
      "was": 1364,
      "st": 1365,
      "##et": 1366,
      "for": 1367,
      "##ly": 1368,
      "##ol": 1369,
      "##ir": 1370,
      "as": 1371,
      "wh": 1372,
      "##iv": 1373,
      "##ter": 1374,
      "##id": 1375,
      "##ig": 1376,
      "re": 1377,
      "##ith": 1378,
      "##ow": 1379,
      "##ay": 1380,
      "be": 1381,
      "al": 1382,
      "##im": 1383,
      "##ch": 1384,
      "with": 1385,
      "##ation": 1386,
      "that": 1387,
      "is": 1388,
      "it": 1389,
      "##ut": 1390,
      "##ers": 1391,
      "##em": 1392,
      "##ot": 1393,
      "con": 1394,
      "fr": 1395,
      "by": 1396,
      "an": 1397,
      "##us": 1398,
      "at": 1399,
      "ch": 1400,
      "##ul": 1401,
      "##ce": 1402,
      "he": 1403,
      "##ver": 1404,
      "##os": 1405,
      "##and": 1406,
      "##est": 1407,
      "sh": 1408,
      "##ag": 1409,
      "##ain": 1410,
      "19": 1411,
      "##um": 1412,
      "com": 1413,
      "##av": 1414,
      "his": 1415,
      "##ere": 1416,
      "##od": 1417,
      "from": 1418,
      "##ess": 1419,
      "pro": 1420,
      "su": 1421,
      "##op": 1422,
      "se": 1423,
      "##ct": 1424,
      "de": 1425,
      "##ri": 1426,
      "##ist": 1427,
      "##ap": 1428,
      "20": 1429,
      "##ies": 1430,
      "##un": 1431,
      "##ect": 1432,
      "ne": 1433,
      "##if": 1434,
      "##igh": 1435,
      "or": 1436,
      "##ill": 1437,
      "were": 1438,
      "pl": 1439,
      "##ab": 1440,
      "##ak": 1441,
      "ar": 1442,
      "##all": 1443,
      "##ld": 1444,
      "##ich": 1445,
      "##ard": 1446,
      "##ate": 1447,
      "##ong": 1448,
      "##ort": 1449,
      "##oc": 1450,
      "ex": 1451,
      "##art": 1452,
      "un": 1453,
      "##ish": 1454,
      "##ther": 1455,
      "##ant": 1456,
      "##pp": 1457,
      "le": 1458,
      "##ber": 1459,
      "##ud": 1460,
      "##gh": 1461,
      "pr": 1462,
      "tr": 1463,
      "sp": 1464,
      "##ity": 1465,
      "##ated": 1466,
      "##se": 1467,
      "##ame": 1468,
      "are": 1469,
      "##ive": 1470,
      "en": 1471,
      "##ie": 1472,
      "##ack": 1473,
      "##ore": 1474,
      "had": 1475,
      "##ear": 1476,
      "##ough": 1477,
      "##ov": 1478,
      "which": 1479,
      "##ge": 1480,
      "##ell": 1481,
      "##ast": 1482,
      "##pt": 1483,
      "not": 1484,
      "##ian": 1485,
      "##ound": 1486,
      "rec": 1487,
      "##our": 1488,
      "##ip": 1489,
      "##ment": 1490,
      "##ord": 1491,
      "##ine": 1492,
      "##ally": 1493,
      "af": 1494,
      "##rit": 1495,
      "##ia": 1496,
      "##ost": 1497,
      "comp": 1498,
      "##ight": 1499,
      "her": 1500,
      "##oun": 1501,
      "##ave": 1502,
      "##ue": 1503,
      "##ary": 1504,
      "cl": 1505,
      "fir": 1506,
      "##cc": 1507,
      "##ust": 1508,
      "this": 1509,
      "ad": 1510,
      "200": 1511,
      "##og": 1512,
      "but": 1513,
      "##ous": 1514,
      "wor": 1515,
      "##te": 1516,
      "tw": 1517,
      "their": 1518,
      "##ach": 1519,
      "inc": 1520,
      "first": 1521,
      "bo": 1522,
      "ab": 1523,
      "sc": 1524,
      "##ions": 1525,
      "cont": 1526,
      "its": 1527,
      "##so": 1528,
      "gr": 1529,
      "man": 1530,
      "##ure": 1531,
      "##ical": 1532,
      "##ath": 1533,
      "##ial": 1534,
      "##qu": 1535,
      "after": 1536,
      "##ould": 1537,
      "one": 1538,
      "##ome": 1539,
      "all": 1540,
      "##ra": 1541,
      "they": 1542,
      "am": 1543,
      "int": 1544,
      "per": 1545,
      "res": 1546,
      "also": 1547,
      "##ub": 1548,
      "##ok": 1549,
      "rel": 1550,
      "##per": 1551,
      "##ide": 1552,
      "##out": 1553,
      "##ater": 1554,
      "ro": 1555,
      "mar": 1556,
      "tim": 1557,
      "##ass": 1558,
      "##ign": 1559,
      "comm": 1560,
      "us": 1561,
      "##ire": 1562,
      "new": 1563,
      "fe": 1564,
      "##age": 1565,
      "two": 1566,
      "##00": 1567,
      "##oll": 1568,
      "##ru": 1569,
      "have": 1570,
      "##orm": 1571,
      "des": 1572,
      "##own": 1573,
      "##ence": 1574,
      "has": 1575,
      "ser": 1576,
      "##ree": 1577,
      "app": 1578,
      "##ond": 1579,
      "play": 1580,
      "ag": 1581,
      "dis": 1582,
      "bec": 1583,
      "part": 1584,
      "been": 1585,
      "who": 1586,
      "go": 1587,
      "##ans": 1588,
      "18": 1589,
      "##ry": 1590,
      "##land": 1591,
      "car": 1592,
      "im": 1593,
      "##uring": 1594,
      "year": 1595,
      "##pl": 1596,
      "##ile": 1597,
      "##ted": 1598,
      "##ely": 1599,
      "##ory": 1600,
      "##du": 1601,
      "##ition": 1602,
      "she": 1603,
      "##ance": 1604,
      "me": 1605,
      "##ations": 1606,
      "ev": 1607,
      "##ff": 1608,
      "##iz": 1609,
      "##ang": 1610,
      "##ade": 1611,
      "br": 1612,
      "##lud": 1613,
      "we": 1614,
      "##wn": 1615,
      "off": 1616,
      "fin": 1617,
      "over": 1618,
      "201": 1619,
      "##ib": 1620,
      "co": 1621,
      "##ens": 1622,
      "other": 1623,
      "##ult": 1624,
      "pre": 1625,
      "##pr": 1626,
      "out": 1627,
      "##ric": 1628,
      "##ite": 1629,
      "##act": 1630,
      "fl": 1631,
      "can": 1632,
      "inter": 1633,
      "up": 1634,
      "ind": 1635,
      "cent": 1636,
      "nor": 1637,
      "during": 1638,
      "dec": 1639,
      "##urn": 1640,
      "when": 1641,
      "##ke": 1642,
      "includ": 1643,
      "##ount": 1644,
      "time": 1645,
      "ear": 1646,
      "##ice": 1647,
      "##ace": 1648,
      "##nder": 1649,
      "##ember": 1650,
      "song": 1651,
      "po": 1652,
      "##ents": 1653,
      "##ks": 1654,
      "##one": 1655,
      "##we": 1656,
      "att": 1657,
      "sec": 1658,
      "##ail": 1659,
      "##ced": 1660,
      "into": 1661,
      "##ose": 1662,
      "bl": 1663,
      "more": 1664,
      "te": 1665,
      "##ward": 1666,
      "form": 1667,
      "##ied": 1668,
      "act": 1669,
      "##amp": 1670,
      "sou": 1671,
      "would": 1672,
      "##ason": 1673,
      "##port": 1674,
      "par": 1675,
      "##man": 1676,
      "char": 1677,
      "##able": 1678,
      "##ings": 1679,
      "##ces": 1680,
      "##ited": 1681,
      "him": 1682,
      "jo": 1683,
      "##ase": 1684,
      "most": 1685,
      "##rib": 1686,
      "##ased": 1687,
      "mus": 1688,
      "bet": 1689,
      "##ix": 1690,
      "no": 1691,
      "kn": 1692,
      "##ild": 1693,
      "game": 1694,
      "##ates": 1695,
      "acc": 1696,
      "high": 1697,
      "##ious": 1698,
      "##old": 1699,
      "some": 1700,
      "##les": 1701,
      "##als": 1702,
      "cons": 1703,
      "rem": 1704,
      "ass": 1705,
      "##way": 1706,
      "while": 1707,
      "##gr": 1708,
      "them": 1709,
      "##ors": 1710,
      "war": 1711,
      "may": 1712,
      "##iss": 1713,
      "##ake": 1714,
      "thr": 1715,
      "##ph": 1716,
      "reg": 1717,
      "fil": 1718,
      "##ts": 1719,
      "only": 1720,
      "##lish": 1721,
      "##vel": 1722,
      "there": 1723,
      "##form": 1724,
      "gen": 1725,
      "how": 1726,
      "##fer": 1727,
      "record": 1728,
      "eng": 1729,
      "##gan": 1730,
      "under": 1731,
      "pe": 1732,
      "##aw": 1733,
      "##aus": 1734,
      "##ood": 1735,
      "three": 1736,
      "later": 1737,
      "##ved": 1738,
      "min": 1739,
      "##eld": 1740,
      "##ick": 1741,
      "about": 1742,
      "north": 1743,
      "film": 1744,
      "el": 1745,
      "so": 1746,
      "em": 1747,
      "##reat": 1748,
      "through": 1749,
      "##ollow": 1750,
      "season": 1751,
      "work": 1752,
      "##ction": 1753,
      "##ween": 1754,
      "between": 1755,
      "199": 1756,
      "li": 1757,
      "again": 1758,
      "##att": 1759,
      "bu": 1760,
      "mon": 1761,
      "follow": 1762,
      "ac": 1763,
      "qu": 1764,
      "##ey": 1765,
      "than": 1766,
      "ma": 1767,
      "sy": 1768,
      "end": 1769,
      "produ": 1770,
      "##ug": 1771,
      "writ": 1772,
      "##ered": 1773,
      "##ular": 1774,
      "##ational": 1775,
      "##ock": 1776,
      "day": 1777,
      "rev": 1778,
      "win": 1779,
      "##ral": 1780,
      "##ict": 1781,
      "##ters": 1782,
      "num": 1783,
      "##hn": 1784,
      "spec": 1785,
      "##ons": 1786,
      "col": 1787,
      "##ft": 1788,
      "pos": 1789,
      "sub": 1790,
      "rele": 1791,
      "lar": 1792,
      "##iew": 1793,
      "ret": 1794,
      "south": 1795,
      "##ision": 1796,
      "def": 1797,
      "second": 1798,
      "##fore": 1799,
      "##ames": 1800,
      "do": 1801,
      "##hip": 1802,
      "mov": 1803,
      "##eric": 1804,
      "##olog": 1805,
      "bro": 1806,
      "alb": 1807,
      "gu": 1808,
      "##orn": 1809,
      "sch": 1810,
      "four": 1811,
      "where": 1812,
      "ph": 1813,
      "pres": 1814,
      "pub": 1815,
      "made": 1816,
      "##ury": 1817,
      "sa": 1818,
      "cap": 1819,
      "city": 1820,
      "##end": 1821,
      "world": 1822,
      "americ": 1823,
      "dr": 1824,
      "##ating": 1825,
      "such": 1826,
      "##ery": 1827,
      "album": 1828,
      "air": 1829,
      "before": 1830,
      "sur": 1831,
      "##lic": 1832,
      "##ived": 1833,
      "##ific": 1834,
      "str": 1835,
      "##ual": 1836,
      "ep": 1837,
      "call": 1838,
      "used": 1839,
      "##ss": 1840,
      "##tern": 1841,
      "series": 1842,
      "##ever": 1843,
      "##ily": 1844,
      "sever": 1845,
      "000": 1846,
      "pol": 1847,
      "##ics": 1848,
      "supp": 1849,
      "gener": 1850,
      "sing": 1851,
      "##ane": 1852,
      "pop": 1853,
      "being": 1854,
      "years": 1855,
      "both": 1856,
      "many": 1857,
      "found": 1858,
      "sm": 1859,
      "these": 1860,
      "op": 1861,
      "loc": 1862,
      "##ning": 1863,
      "set": 1864,
      "##urch": 1865,
      "hist": 1866,
      "##red": 1867,
      "10": 1868,
      "sim": 1869,
      "stud": 1870,
      "back": 1871,
      "##ected": 1872,
      "trans": 1873,
      "##io": 1874,
      "count": 1875,
      "however": 1876,
      "##ife": 1877,
      "add": 1878,
      "##ird": 1879,
      "##int": 1880,
      "dire": 1881,
      "will": 1882,
      "div": 1883,
      "long": 1884,
      "well": 1885,
      "star": 1886,
      "rece": 1887,
      "##ained": 1888,
      "12": 1889,
      "##ten": 1890,
      "number": 1891,
      "##ised": 1892,
      "##air": 1893,
      "##ale": 1894,
      "##ities": 1895,
      "##velop": 1896,
      "bel": 1897,
      "##igin": 1898,
      "then": 1899,
      "ter": 1900,
      "##ause": 1901,
      "cro": 1902,
      "##ron": 1903,
      "##led": 1904,
      "##ode": 1905,
      "arm": 1906,
      "batt": 1907,
      "##other": 1908,
      "##ier": 1909,
      "art": 1910,
      "origin": 1911,
      "desc": 1912,
      "##ines": 1913,
      "inv": 1914,
      "appear": 1915,
      "early": 1916,
      "music": 1917,
      "##oy": 1918,
      "##its": 1919,
      "##ement": 1920,
      "mill": 1921,
      "##ise": 1922,
      "state": 1923,
      "epis": 1924,
      "##ince": 1925,
      "brit": 1926,
      "charac": 1927,
      "##atch": 1928,
      "several": 1929,
      "##ep": 1930,
      "##ank": 1931,
      "##ton": 1932,
      "perform": 1933,
      "main": 1934,
      "16": 1935,
      "including": 1936,
      "against": 1937,
      "inst": 1938,
      "##iver": 1939,
      "##ve": 1940,
      "##ection": 1941,
      "develop": 1942,
      "ob": 1943,
      "known": 1944,
      "##oup": 1945,
      "port": 1946,
      "##ann": 1947,
      "became": 1948,
      "team": 1949,
      "inf": 1950,
      "##son": 1951,
      "met": 1952,
      "sl": 1953,
      "cre": 1954,
      "##ield": 1955,
      "nov": 1956,
      "crit": 1957,
      "##ures": 1958,
      "direct": 1959,
      "oper": 1960,
      "##iet": 1961,
      "198": 1962,
      "mil": 1963,
      "est": 1964,
      "##ert": 1965,
      "show": 1966,
      "united": 1967,
      "conc": 1968,
      "##ful": 1969,
      "##rop": 1970,
      "##ower": 1971,
      "##are": 1972,
      "const": 1973,
      "##uc": 1974,
      "##ern": 1975,
      "##though": 1976,
      "although": 1977,
      "15": 1978,
      "cr": 1979,
      "century": 1980,
      "john": 1981,
      "old": 1982,
      "11": 1983,
      "##yl": 1984,
      "dist": 1985,
      "dep": 1986,
      "lead": 1987,
      "land": 1988,
      "##ool": 1989,
      "17": 1990,
      "##ins": 1991,
      "##any": 1992,
      "##els": 1993,
      "##ork": 1994,
      "following": 1995,
      "bar": 1996,
      "near": 1997,
      "##up": 1998,
      "##0s": 1999,
      "sign": 2000,
      "##vern": 2001,
      "##ative": 2002,
      "##til": 2003,
      "down": 2004,
      "though": 2005,
      "contin": 2006,
      "##uch": 2007,
      "run": 2008,
      "##sp": 2009,
      "##ley": 2010,
      "##elf": 2011,
      "194": 2012,
      "like": 2013,
      "##ather": 2014,
      "comple": 2015,
      "##ah": 2016,
      "##aph": 2017,
      "church": 2018,
      "dif": 2019,
      "##der": 2020,
      "var": 2021,
      "ste": 2022,
      "##ject": 2023,
      "##iam": 2024,
      "disc": 2025,
      "open": 2026,
      "##az": 2027,
      "##ually": 2028,
      "ed": 2029,
      "began": 2030,
      "196": 2031,
      "along": 2032,
      "lo": 2033,
      "govern": 2034,
      "##ized": 2035,
      "fam": 2036,
      "197": 2037,
      "because": 2038,
      "##emb": 2039,
      "##ains": 2040,
      "prov": 2041,
      "##row": 2042,
      "could": 2043,
      "describ": 2044,
      "did": 2045,
      "##ession": 2046,
      "six": 2047,
      "red": 2048,
      "ever": 2049,
      "##une": 2050,
      "called": 2051,
      "peop": 2052,
      "episode": 2053,
      "ann": 2054,
      "pers": 2055,
      "##yp": 2056,
      "king": 2057,
      "##ued": 2058,
      "##au": 2059,
      "##ope": 2060,
      "dam": 2061,
      "ship": 2062,
      "hel": 2063,
      "##aking": 2064,
      "##enn": 2065,
      "until": 2066,
      "said": 2067,
      "##ined": 2068,
      "feat": 2069,
      "area": 2070,
      "##ivers": 2071,
      "ger": 2072,
      "##ments": 2073,
      "american": 2074,
      "states": 2075,
      "resp": 2076,
      "prev": 2077,
      "design": 2078,
      "adv": 2079,
      "west": 2080,
      "##eer": 2081,
      "##itt": 2082,
      "exp": 2083,
      "group": 2084,
      "people": 2085,
      "##lished": 2086,
      "aust": 2087,
      "start": 2088,
      "##ium": 2089,
      "##ove": 2090,
      "##gest": 2091,
      "##rol": 2092,
      "##ull": 2093,
      "you": 2094,
      "return": 2095,
      "maj": 2096,
      "##ured": 2097,
      "##ruct": 2098,
      "since": 2099,
      "chr": 2100,
      "head": 2101,
      "##amed": 2102,
      "mod": 2103,
      "any": 2104,
      "british": 2105,
      "pass": 2106,
      "##ccess": 2107,
      "##ind": 2108,
      "each": 2109,
      "national": 2110,
      "##eng": 2111,
      "##ange": 2112,
      "same": 2113,
      "##cept": 2114,
      "released": 2115,
      "offic": 2116,
      "##ty": 2117,
      "##ont": 2118,
      "##ided": 2119,
      "##oman": 2120,
      "own": 2121,
      "##ists": 2122,
      "##ially": 2123,
      "##oot": 2124,
      "##thern": 2125,
      "occ": 2126,
      "##ism": 2127,
      "around": 2128,
      "book": 2129,
      "##tend": 2130,
      "##ele": 2131,
      "ju": 2132,
      "aug": 2133,
      "med": 2134,
      "wee": 2135,
      "km": 2136,
      "million": 2137,
      "life": 2138,
      "use": 2139,
      "major": 2140,
      "##ible": 2141,
      "##osed": 2142,
      "13": 2143,
      "##ouse": 2144,
      "five": 2145,
      "id": 2146,
      "mag": 2147,
      "eff": 2148,
      "camp": 2149,
      "road": 2150,
      "august": 2151,
      "##res": 2152,
      "best": 2153,
      "miss": 2154,
      "##ently": 2155,
      "gre": 2156,
      "##ys": 2157,
      "small": 2158,
      "support": 2159,
      "##ash": 2160,
      "command": 2161,
      "serv": 2162,
      "town": 2163,
      "school": 2164,
      "##stem": 2165,
      "##ony": 2166,
      "##oss": 2167,
      "imp": 2168,
      "##ues": 2169,
      "##ets": 2170,
      "##uth": 2171,
      "company": 2172,
      "character": 2173,
      "bre": 2174,
      "rep": 2175,
      "final": 2176,
      "##xt": 2177,
      "another": 2178,
      "##anc": 2179,
      "195": 2180,
      "success": 2181,
      "award": 2182,
      "river": 2183,
      "##ident": 2184,
      "sept": 2185,
      "public": 2186,
      "##omin": 2187,
      "if": 2188,
      "prot": 2189,
      "eur": 2190,
      "just": 2191,
      "attack": 2192,
      "consid": 2193,
      "coll": 2194,
      "ra": 2195,
      "##ales": 2196,
      "fur": 2197,
      "great": 2198,
      "system": 2199,
      "september": 2200,
      "mid": 2201,
      "storm": 2202,
      "conf": 2203,
      "class": 2204,
      "##ina": 2205,
      "##ution": 2206,
      "ge": 2207,
      "hum": 2208,
      "line": 2209,
      "report": 2210,
      "##aining": 2211,
      "##app": 2212,
      "tit": 2213,
      "ext": 2214,
      "large": 2215,
      "austral": 2216,
      "games": 2217,
      "what": 2218,
      "my": 2219,
      "cor": 2220,
      "arr": 2221,
      "arch": 2222,
      "gl": 2223,
      "##ob": 2224,
      "##ural": 2225,
      "av": 2226,
      "tri": 2227,
      "det": 2228,
      "193": 2229,
      "black": 2230,
      "child": 2231,
      "##ms": 2232,
      "water": 2233,
      "short": 2234,
      "##ked": 2235,
      "191": 2236,
      "rest": 2237,
      "##ble": 2238,
      "due": 2239,
      "la": 2240,
      "##ient": 2241,
      "##ague": 2242,
      "##und": 2243,
      "ii": 2244,
      "##ute": 2245,
      "last": 2246,
      "##ired": 2247,
      "##aving": 2248,
      "now": 2249,
      "##aced": 2250,
      "ent": 2251,
      "june": 2252,
      "east": 2253,
      "history": 2254,
      "vide": 2255,
      "##ats": 2256,
      "14": 2257,
      "oct": 2258,
      "##dom": 2259,
      "late": 2260,
      "##ored": 2261,
      "##ives": 2262,
      "even": 2263,
      "jan": 2264,
      "name": 2265,
      "way": 2266,
      "review": 2267,
      "vers": 2268,
      "##ately": 2269,
      "government": 2270,
      "german": 2271,
      "##ilt": 2272,
      "build": 2273,
      "##ene": 2274,
      "turn": 2275,
      "##cl": 2276,
      "partic": 2277,
      "home": 2278,
      "island": 2279,
      "dem": 2280,
      "reach": 2281,
      "##over": 2282,
      "received": 2283,
      "ant": 2284,
      "##ology": 2285,
      "christ": 2286,
      "##ogr": 2287,
      "har": 2288,
      "ins": 2289,
      "univers": 2290,
      "accord": 2291,
      "vis": 2292,
      "gun": 2293,
      "##ages": 2294,
      "described": 2295,
      "much": 2296,
      "hur": 2297,
      "##ech": 2298,
      "##ption": 2299,
      "cour": 2300,
      "ele": 2301,
      "within": 2302,
      "track": 2303,
      "club": 2304,
      "species": 2305,
      "incre": 2306,
      "hal": 2307,
      "##ober": 2308,
      "march": 2309,
      "god": 2310,
      "death": 2311,
      "men": 2312,
      "del": 2313,
      "top": 2314,
      "##uary": 2315,
      "ke": 2316,
      "intern": 2317,
      "general": 2318,
      "##erv": 2319,
      "##ling": 2320,
      "##by": 2321,
      "family": 2322,
      "##ility": 2323,
      "october": 2324,
      "##ting": 2325,
      "##aged": 2326,
      "played": 2327,
      "sk": 2328,
      "##ead": 2329,
      "##gin": 2330,
      "sw": 2331,
      "typ": 2332,
      "according": 2333,
      "##ae": 2334,
      "league": 2335,
      "times": 2336,
      "took": 2337,
      "capt": 2338,
      "##ropical": 2339,
      "##aim": 2340,
      "##ified": 2341,
      "third": 2342,
      "##ody": 2343,
      "leg": 2344,
      "##rote": 2345,
      "ref": 2346,
      "##ants": 2347,
      "power": 2348,
      "##ively": 2349,
      "25": 2350,
      "list": 2351,
      "single": 2352,
      "##eal": 2353,
      "july": 2354,
      "soc": 2355,
      "wrote": 2356,
      "##ograph": 2357,
      "won": 2358,
      "##ball": 2359,
      "##empt": 2360,
      "##iving": 2361,
      "organ": 2362,
      "video": 2363,
      "apr": 2364,
      "##ians": 2365,
      "control": 2366,
      "differ": 2367,
      "##ren": 2368,
      "##ides": 2369,
      "event": 2370,
      "##ink": 2371,
      "stre": 2372,
      "white": 2373,
      "sol": 2374,
      "progr": 2375,
      "allow": 2376,
      "appro": 2377,
      "##eder": 2378,
      "based": 2379,
      "dest": 2380,
      "##ner": 2381,
      "conv": 2382,
      "poss": 2383,
      "april": 2384,
      "tem": 2385,
      "story": 2386,
      "##iod": 2387,
      "included": 2388,
      "val": 2389,
      "common": 2390,
      "person": 2391,
      "bas": 2392,
      "##ital": 2393,
      "##ai": 2394,
      "left": 2395,
      "belie": 2396,
      "york": 2397,
      "estab": 2398,
      "january": 2399,
      "those": 2400,
      "division": 2401,
      "result": 2402,
      "named": 2403,
      "very": 2404,
      "##ically": 2405,
      "##akes": 2406,
      "expl": 2407,
      "addition": 2408,
      "30": 2409,
      "prom": 2410,
      "attempt": 2411,
      "england": 2412,
      "##aur": 2413,
      "##ances": 2414,
      "period": 2415,
      "foot": 2416,
      "##ew": 2417,
      "auth": 2418,
      "house": 2419,
      "##atter": 2420,
      "##ll": 2421,
      "##itions": 2422,
      "hand": 2423,
      "vill": 2424,
      "previous": 2425,
      "eas": 2426,
      "##ven": 2427,
      "##ops": 2428,
      "bus": 2429,
      "##ention": 2430,
      "##par": 2431,
      "##itch": 2432,
      "##ilar": 2433,
      "enter": 2434,
      "##ature": 2435,
      "far": 2436,
      "original": 2437,
      "vict": 2438,
      "##ps": 2439,
      "heav": 2440,
      "##ought": 2441,
      "mo": 2442,
      "som": 2443,
      "##ham": 2444,
      "##ulation": 2445,
      "november": 2446,
      "##que": 2447,
      "##ark": 2448,
      "##ik": 2449,
      "commun": 2450,
      "month": 2451,
      "cal": 2452,
      "place": 2453,
      "kill": 2454,
      "europe": 2455,
      "light": 2456,
      "##med": 2457,
      "champ": 2458,
      "field": 2459,
      "tropical": 2460,
      "##raft": 2461,
      "stand": 2462,
      "##ards": 2463,
      "##ished": 2464,
      "##ience": 2465,
      "##bo": 2466,
      "192": 2467,
      "december": 2468,
      "##ench": 2469,
      "built": 2470,
      "similar": 2471,
      "opp": 2472,
      "sug": 2473,
      "sent": 2474,
      "real": 2475,
      "##let": 2476,
      "##mer": 2477,
      "among": 2478,
      "milit": 2479,
      "match": 2480,
      "songs": 2481,
      "repr": 2482,
      "hurric": 2483,
      "led": 2484,
      "make": 2485,
      "##ime": 2486,
      "present": 2487,
      "##ler": 2488,
      "further": 2489,
      "init": 2490,
      "pat": 2491,
      "##ense": 2492,
      "mark": 2493,
      "cur": 2494,
      "player": 2495,
      "local": 2496,
      "##ences": 2497,
      "100": 2498,
      "law": 2499,
      "##iven": 2500,
      "wind": 2501,
      "requ": 2502,
      "still": 2503,
      "tour": 2504,
      "##sc": 2505,
      "##iation": 2506,
      "##inc": 2507,
      "next": 2508,
      "squ": 2509,
      "##sh": 2510,
      "##br": 2511,
      "2009": 2512,
      "##por": 2513,
      "view": 2514,
      "youn": 2515,
      "##ness": 2516,
      "##gy": 2517,
      "bill": 2518,
      "trad": 2519,
      "2008": 2520,
      "##ger": 2521,
      "tot": 2522,
      "super": 2523,
      "2010": 2524,
      "##ison": 2525,
      "##uss": 2526,
      "##ruction": 2527,
      "pri": 2528,
      "cle": 2529,
      "##ars": 2530,
      "##aster": 2531,
      "exper": 2532,
      "rock": 2533,
      "iss": 2534,
      "tele": 2535,
      "##bs": 2536,
      "import": 2537,
      "brig": 2538,
      "repl": 2539,
      "role": 2540,
      "post": 2541,
      "histor": 2542,
      "came": 2543,
      "plan": 2544,
      "##line": 2545,
      "fre": 2546,
      "low": 2547,
      "every": 2548,
      "right": 2549,
      "band": 2550,
      "say": 2551,
      "side": 2552,
      "##min": 2553,
      "love": 2554,
      "career": 2555,
      "moved": 2556,
      "cast": 2557,
      "##aff": 2558,
      "university": 2559,
      "##ival": 2560,
      "without": 2561,
      "##ott": 2562,
      "beh": 2563,
      "##aken": 2564,
      "polit": 2565,
      "coun": 2566,
      "often": 2567,
      "mor": 2568,
      "##ged": 2569,
      "recorded": 2570,
      "few": 2571,
      "effect": 2572,
      "rad": 2573,
      "##ush": 2574,
      "hurricane": 2575,
      "##ories": 2576,
      "contr": 2577,
      "chart": 2578,
      "military": 2579,
      "caus": 2580,
      "tre": 2581,
      "##yle": 2582,
      "##bert": 2583,
      "park": 2584,
      "##ength": 2585,
      "suggest": 2586,
      "memb": 2587,
      "order": 2588,
      "considered": 2589,
      "battal": 2590,
      "less": 2591,
      "prof": 2592,
      "rou": 2593,
      "deb": 2594,
      "production": 2595,
      "army": 2596,
      "release": 2597,
      "##ister": 2598,
      "##ady": 2599,
      "see": 2600,
      "2007": 2601,
      "former": 2602,
      "assoc": 2603,
      "##elt": 2604,
      "level": 2605,
      "##ior": 2606,
      "cy": 2607,
      "sold": 2608,
      "##lu": 2609,
      "english": 2610,
      "week": 2611,
      "french": 2612,
      "fire": 2613,
      "wal": 2614,
      "claim": 2615,
      "fun": 2616,
      "##thing": 2617,
      "point": 2618,
      "take": 2619,
      "refer": 2620,
      "##ross": 2621,
      "published": 2622,
      "repres": 2623,
      "##uted": 2624,
      "ang": 2625,
      "project": 2626,
      "##wards": 2627,
      "written": 2628,
      "##ico": 2629,
      "half": 2630,
      "different": 2631,
      "feder": 2632,
      "spe": 2633,
      "continued": 2634,
      "##wh": 2635,
      "roy": 2636,
      "surv": 2637,
      "##ensive": 2638,
      "##side": 2639,
      "##thers": 2640,
      "##ves": 2641,
      "days": 2642,
      "##na": 2643,
      "ha": 2644,
      "##ada": 2645,
      "frie": 2646,
      "held": 2647,
      "forces": 2648,
      "manag": 2649,
      "international": 2650,
      "author": 2651,
      "cult": 2652,
      "night": 2653,
      "obs": 2654,
      "21": 2655,
      "strong": 2656,
      "route": 2657,
      "##ared": 2658,
      "never": 2659,
      "desp": 2660,
      "nav": 2661,
      "pet": 2662,
      "help": 2663,
      "prop": 2664,
      "force": 2665,
      "press": 2666,
      "good": 2667,
      "##ission": 2668,
      "friend": 2669,
      "defe": 2670,
      "cross": 2671,
      "sound": 2672,
      "##iter": 2673,
      "##iment": 2674,
      "stat": 2675,
      "##ices": 2676,
      "find": 2677,
      "jack": 2678,
      "gold": 2679,
      "##erc": 2680,
      "##idge": 2681,
      "county": 2682,
      "having": 2683,
      "chang": 2684,
      "compet": 2685,
      "##estern": 2686,
      "##enc": 2687,
      "23": 2688,
      "##tended": 2689,
      "mount": 2690,
      "##vision": 2691,
      "##ret": 2692,
      "throughout": 2693,
      "##itar": 2694,
      "champions": 2695,
      "members": 2696,
      "whe": 2697,
      "##ots": 2698,
      "2011": 2699,
      "sum": 2700,
      "become": 2701,
      "##arn": 2702,
      "2006": 2703,
      "##raw": 2704,
      "popular": 2705,
      "children": 2706,
      "particular": 2707,
      "##rodu": 2708,
      "comb": 2709,
      "grand": 2710,
      "##augh": 2711,
      "version": 2712,
      "total": 2713,
      "development": 2714,
      "ir": 2715,
      "earl": 2716,
      "title": 2717,
      "##bru": 2718,
      "##ising": 2719,
      "lost": 2720,
      "roman": 2721,
      "position": 2722,
      "pal": 2723,
      "rich": 2724,
      "##amb": 2725,
      "##ize": 2726,
      "country": 2727,
      "24": 2728,
      "##ple": 2729,
      "##ford": 2730,
      "highway": 2731,
      "26": 2732,
      "cover": 2733,
      "don": 2734,
      "litt": 2735,
      "pur": 2736,
      "program": 2737,
      "despite": 2738,
      "22": 2739,
      "fem": 2740,
      "live": 2741,
      "pa": 2742,
      "##roy": 2743,
      "battle": 2744,
      "eight": 2745,
      "fle": 2746,
      "##ipp": 2747,
      "fort": 2748,
      "southern": 2749,
      "little": 2750,
      "sit": 2751,
      "##aces": 2752,
      "want": 2753,
      "febru": 2754,
      "critic": 2755,
      "february": 2756,
      "##press": 2757,
      "central": 2758,
      "represent": 2759,
      "reported": 2760,
      "activ": 2761,
      "gave": 2762,
      "##ring": 2763,
      "produced": 2764,
      "##ylan": 2765,
      "geor": 2766,
      "ham": 2767,
      "dylan": 2768,
      "human": 2769,
      "##day": 2770,
      "free": 2771,
      "mich": 2772,
      "site": 2773,
      "influ": 2774,
      "ord": 2775,
      "##ailed": 2776,
      "cath": 2777,
      "##ara": 2778,
      "television": 2779,
      "once": 2780,
      "2012": 2781,
      "writing": 2782,
      "given": 2783,
      "##ened": 2784,
      "##ests": 2785,
      "##ours": 2786,
      "##iety": 2787,
      "lab": 2788,
      "##ried": 2789,
      "##apan": 2790,
      "modern": 2791,
      "28": 2792,
      "coast": 2793,
      "president": 2794,
      "service": 2795,
      "northern": 2796,
      "hor": 2797,
      "##ama": 2798,
      "ground": 2799,
      "young": 2800,
      "age": 2801,
      "sun": 2802,
      "afric": 2803,
      "equ": 2804,
      "##yn": 2805,
      "arg": 2806,
      "signific": 2807,
      "japan": 2808,
      "mass": 2809,
      "vi": 2810,
      "elect": 2811,
      "include": 2812,
      "region": 2813,
      "invol": 2814,
      "##echn": 2815,
      "hero": 2816,
      "western": 2817,
      "##omen": 2818,
      "##ably": 2819,
      "lim": 2820,
      "##xim": 2821,
      "conn": 2822,
      "ball": 2823,
      "fact": 2824,
      "ill": 2825,
      "royal": 2826,
      "burn": 2827,
      "mi": 2828,
      "ve": 2829,
      "battalion": 2830,
      "seven": 2831,
      "making": 2832,
      "should": 2833,
      "away": 2834,
      "body": 2835,
      "##con": 2836,
      "##atic": 2837,
      "too": 2838,
      "eastern": 2839,
      "dou": 2840,
      "dav": 2841,
      "wood": 2842,
      "struct": 2843,
      "##ches": 2844,
      "trav": 2845,
      "aff": 2846,
      "##ploy": 2847,
      "occur": 2848,
      "tor": 2849,
      "techn": 2850,
      "2013": 2851,
      "##ones": 2852,
      "seen": 2853,
      "exc": 2854,
      "look": 2855,
      "##ades": 2856,
      "fif": 2857,
      "##ress": 2858,
      "stated": 2859,
      "##play": 2860,
      "ft": 2861,
      "ten": 2862,
      "dev": 2863,
      "across": 2864,
      "returned": 2865,
      "##ax": 2866,
      "##sequ": 2867,
      "instead": 2868,
      "##ese": 2869,
      "prim": 2870,
      "ships": 2871,
      "tro": 2872,
      "##ator": 2873,
      "guitar": 2874,
      "destroy": 2875,
      "established": 2876,
      "bur": 2877,
      "##ological": 2878,
      "using": 2879,
      "cas": 2880,
      "##fic": 2881,
      "##ape": 2882,
      "50": 2883,
      "son": 2884,
      "##inted": 2885,
      "##otion": 2886,
      "190": 2887,
      "population": 2888,
      "construction": 2889,
      "full": 2890,
      "##be": 2891,
      "america": 2892,
      "noted": 2893,
      "##iction": 2894,
      "announ": 2895,
      "ire": 2896,
      "championship": 2897,
      "27": 2898,
      "##ying": 2899,
      "##ki": 2900,
      "##ither": 2901,
      "broad": 2902,
      "introdu": 2903,
      "reached": 2904,
      "net": 2905,
      "##ground": 2906,
      "developed": 2907,
      "building": 2908,
      "football": 2909,
      "civ": 2910,
      "mix": 2911,
      "##iec": 2912,
      "##aint": 2913,
      "thought": 2914,
      "players": 2915,
      "ireland": 2916,
      "##ument": 2917,
      "brigade": 2918,
      "mean": 2919,
      "bi": 2920,
      "various": 2921,
      "lond": 2922,
      "works": 2923,
      "significant": 2924,
      "vir": 2925,
      "engine": 2926,
      "important": 2927,
      "read": 2928,
      "performance": 2929,
      "##self": 2930,
      "##ef": 2931,
      "##rew": 2932,
      "william": 2933,
      "miles": 2934,
      "london": 2935,
      "father": 2936,
      "indust": 2937,
      "himself": 2938,
      "kingdom": 2939,
      "##used": 2940,
      "cert": 2941,
      "##ket": 2942,
      "style": 2943,
      "need": 2944,
      "##ne": 2945,
      "##iness": 2946,
      "pra": 2947,
      "bird": 2948,
      "fig": 2949,
      "##work": 2950,
      "##co": 2951,
      "front": 2952,
      "performed": 2953,
      "felt": 2954,
      "hy": 2955,
      "##ald": 2956,
      "##omb": 2957,
      "##idence": 2958,
      "australia": 2959,
      "fall": 2960,
      "od": 2961,
      "tur": 2962,
      "cir": 2963,
      "brown": 2964,
      "official": 2965,
      "put": 2966,
      "areas": 2967,
      "feet": 2968,
      "earth": 2969,
      "mer": 2970,
      "ver": 2971,
      "went": 2972,
      "suff": 2973,
      "events": 2974,
      "fac": 2975,
      "ol": 2976,
      "##most": 2977,
      "##vers": 2978,
      "##get": 2979,
      "##itive": 2980,
      "decl": 2981,
      "does": 2982,
      "phil": 2983,
      "civil": 2984,
      "cup": 2985,
      "rh": 2986,
      "bri": 2987,
      "mm": 2988,
      "vol": 2989,
      "begin": 2990,
      "bow": 2991,
      "##mp": 2992,
      "relations": 2993,
      "poem": 2994,
      "died": 2995,
      "##osaur": 2996,
      "relig": 2997,
      "sett": 2998,
      "##ucle": 2999,
      "court": 3000,
      "cer": 3001,
      "let": 3002,
      "range": 3003,
      "##ief": 3004,
      "hom": 3005,
      "vo": 3006,
      "##oph": 3007,
      "successful": 3008,
      "lang": 3009,
      "others": 3010,
      "##ges": 3011,
      "##ino": 3012,
      "##ogn": 3013,
      "wall": 3014,
      "##aign": 3015,
      "##ster": 3016,
      "##antic": 3017,
      "originally": 3018,
      "sn": 3019,
      "##unch": 3020,
      "##reek": 3021,
      "##pression": 3022,
      "campaign": 3023,
      "gal": 3024,
      "get": 3025,
      "##ael": 3026,
      "upon": 3027,
      "##me": 3028,
      "##field": 3029,
      "##ana": 3030,
      "##ements": 3031,
      "base": 3032,
      "##craft": 3033,
      "hot": 3034,
      "##ering": 3035,
      "##ization": 3036,
      "novel": 3037,
      "started": 3038,
      "ap": 3039,
      "james": 3040,
      "##ung": 3041,
      "formed": 3042,
      "know": 3043,
      "##gether": 3044,
      "characters": 3045,
      "political": 3046,
      "sal": 3047,
      "##lo": 3048,
      "##ript": 3049,
      "women": 3050,
      "##ints": 3051,
      "##iting": 3052,
      "circ": 3053,
      "##ration": 3054,
      "##ination": 3055,
      "proc": 3056,
      "pred": 3057,
      "special": 3058,
      "stars": 3059,
      "discover": 3060,
      "born": 3061,
      "scient": 3062,
      "ly": 3063,
      "sel": 3064,
      "tradition": 3065,
      "caused": 3066,
      "hold": 3067,
      "prote": 3068,
      "located": 3069,
      "eventually": 3070,
      "word": 3071,
      "street": 3072,
      "hill": 3073,
      "##iers": 3074,
      "##aves": 3075,
      "director": 3076,
      "resear": 3077,
      "##af": 3078,
      "##alth": 3079,
      "center": 3080,
      "created": 3081,
      "nar": 3082,
      "pen": 3083,
      "able": 3084,
      "189": 3085,
      "critics": 3086,
      "research": 3087,
      "##ney": 3088,
      "entire": 3089,
      "ber": 3090,
      "##fall": 3091,
      "##ox": 3092,
      "enc": 3093,
      "2004": 3094,
      "atl": 3095,
      "##isted": 3096,
      "2005": 3097,
      "produc": 3098,
      "aud": 3099,
      "##ament": 3100,
      "##epend": 3101,
      "wr": 3102,
      "magaz": 3103,
      "fight": 3104,
      "tom": 3105,
      "anim": 3106,
      "##ested": 3107,
      "independ": 3108,
      "##ality": 3109,
      "##acy": 3110,
      "cop": 3111,
      "fav": 3112,
      "mc": 3113,
      "nucle": 3114,
      "colon": 3115,
      "##arch": 3116,
      "together": 3117,
      "bir": 3118,
      "grow": 3119,
      "##oming": 3120,
      "meet": 3121,
      "bay": 3122,
      "inn": 3123,
      "##asing": 3124,
      "stri": 3125,
      "cond": 3126,
      "ide": 3127,
      "heavy": 3128,
      "san": 3129,
      "colle": 3130,
      "guns": 3131,
      "hon": 3132,
      "chap": 3133,
      "##ries": 3134,
      "##ample": 3135,
      "##ille": 3136,
      "sex": 3137,
      "diffic": 3138,
      "difficult": 3139,
      "mother": 3140,
      "##itted": 3141,
      "##ects": 3142,
      "remained": 3143,
      "##enth": 3144,
      "depart": 3145,
      "##ship": 3146,
      "agre": 3147,
      "goal": 3148,
      "completed": 3149,
      "31": 3150,
      "nat": 3151,
      "scored": 3152,
      "non": 3153,
      "voc": 3154,
      "##orts": 3155,
      "loss": 3156,
      "##iated": 3157,
      "##ivid": 3158,
      "australian": 3159,
      "announced": 3160,
      "##king": 3161,
      "fourth": 3162,
      "ho": 3163,
      "mad": 3164,
      "mem": 3165,
      "sil": 3166,
      "##li": 3167,
      "almost": 3168,
      "den": 3169,
      "##ota": 3170,
      "comment": 3171,
      "peak": 3172,
      "damage": 3173,
      "behind": 3174,
      "jour": 3175,
      "##ee": 3176,
      "##anch": 3177,
      "reb": 3178,
      "least": 3179,
      "cell": 3180,
      "##enced": 3181,
      "##aly": 3182,
      "sea": 3183,
      "party": 3184,
      "rail": 3185,
      "##omp": 3186,
      "##elling": 3187,
      "added": 3188,
      "29": 3189,
      "hol": 3190,
      "##ids": 3191,
      "flor": 3192,
      "territ": 3193,
      "du": 3194,
      "ru": 3195,
      "##ray": 3196,
      "##ream": 3197,
      "process": 3198,
      "aver": 3199,
      "key": 3200,
      "##less": 3201,
      "condom": 3202,
      "followed": 3203,
      "months": 3204,
      "killed": 3205,
      "mach": 3206,
      "pitch": 3207,
      "wife": 3208,
      "insp": 3209,
      "appeared": 3210,
      "quar": 3211,
      "ident": 3212,
      "squad": 3213,
      "relationship": 3214,
      "##mar": 3215,
      "inform": 3216,
      "##aper": 3217,
      "playing": 3218,
      "individ": 3219,
      "hall": 3220,
      "round": 3221,
      "##ique": 3222,
      "##cil": 3223,
      "fa": 3224,
      "sour": 3225,
      "awards": 3226,
      "david": 3227,
      "ach": 3228,
      "mac": 3229,
      "sat": 3230,
      "##omm": 3231,
      "station": 3232,
      "recogn": 3233,
      "curr": 3234,
      "jew": 3235,
      "kh": 3236,
      "features": 3237,
      "trib": 3238,
      "40": 3239,
      "hard": 3240,
      "##den": 3241,
      "##tim": 3242,
      "##ky": 3243,
      "##osp": 3244,
      "##antry": 3245,
      "flight": 3246,
      "aircraft": 3247,
      "##dle": 3248,
      "##ius": 3249,
      "##gn": 3250,
      "##ston": 3251,
      "estim": 3252,
      "bra": 3253,
      "card": 3254,
      "2003": 3255,
      "appo": 3256,
      "185": 3257,
      "parl": 3258,
      "der": 3259,
      "treat": 3260,
      "taken": 3261,
      "ul": 3262,
      "##emy": 3263,
      "##ways": 3264,
      "fleet": 3265,
      "lack": 3266,
      "saw": 3267,
      "##olution": 3268,
      "2015": 3269,
      "creat": 3270,
      "fund": 3271,
      "rank": 3272,
      "##ming": 3273,
      "##uit": 3274,
      "france": 3275,
      "##ully": 3276,
      "interv": 3277,
      "action": 3278,
      "subsequ": 3279,
      "leading": 3280,
      "langu": 3281,
      "##esh": 3282,
      "tal": 3283,
      "ur": 3284,
      "##ani": 3285,
      "impro": 3286,
      "either": 3287,
      "mater": 3288,
      "##etic": 3289,
      "proble": 3290,
      "separ": 3291,
      "served": 3292,
      "recording": 3293,
      "case": 3294,
      "hen": 3295,
      "towards": 3296,
      "##istic": 3297,
      "parliam": 3298,
      "edu": 3299,
      "##ata": 3300,
      "operations": 3301,
      "archae": 3302,
      "##ography": 3303,
      "los": 3304,
      "decided": 3305,
      "transport": 3306,
      "##utes": 3307,
      "clos": 3308,
      "rul": 3309,
      "wid": 3310,
      "##ida": 3311,
      "elements": 3312,
      "ath": 3313,
      "cru": 3314,
      "draw": 3315,
      "host": 3316,
      "past": 3317,
      "close": 3318,
      "soon": 3319,
      "##ency": 3320,
      "er": 3321,
      "##ze": 3322,
      "##to": 3323,
      "robert": 3324,
      "prem": 3325,
      "records": 3326,
      "di": 3327,
      "##ecut": 3328,
      "##cted": 3329,
      "commerc": 3330,
      "accept": 3331,
      "generally": 3332,
      "believed": 3333,
      "magazine": 3334,
      "##igned": 3335,
      "flood": 3336,
      "move": 3337,
      "parliament": 3338,
      "cost": 3339,
      "rose": 3340,
      "tow": 3341,
      "compos": 3342,
      "council": 3343,
      "carey": 3344,
      "meas": 3345,
      "saf": 3346,
      "female": 3347,
      "##my": 3348,
      "##cent": 3349,
      "##ica": 3350,
      "example": 3351,
      "mex": 3352,
      "gir": 3353,
      "que": 3354,
      "##go": 3355,
      "commission": 3356,
      "regular": 3357,
      "infantry": 3358,
      "manager": 3359,
      "domin": 3360,
      "points": 3361,
      "business": 3362,
      "fly": 3363,
      "##ped": 3364,
      "188": 3365,
      "weeks": 3366,
      "bal": 3367,
      "rather": 3368,
      "##ned": 3369,
      "study": 3370,
      "stop": 3371,
      "european": 3372,
      "##erm": 3373,
      "outside": 3374,
      "federer": 3375,
      "foc": 3376,
      "##ators": 3377,
      "##ential": 3378,
      "##spec": 3379,
      "opened": 3380,
      "educ": 3381,
      "35": 3382,
      "cut": 3383,
      "##lin": 3384,
      "beg": 3385,
      "##odes": 3386,
      "adm": 3387,
      "brought": 3388,
      "finished": 3389,
      "regard": 3390,
      "directed": 3391,
      "approach": 3392,
      "viet": 3393,
      "##oring": 3394,
      "wales": 3395,
      "##uter": 3396,
      "##ceed": 3397,
      "##umb": 3398,
      "##rict": 3399,
      "blue": 3400,
      "esc": 3401,
      "mal": 3402,
      "ven": 3403,
      "yard": 3404,
      "earlier": 3405,
      "##nes": 3406,
      "bey": 3407,
      "featured": 3408,
      "achie": 3409,
      "mcc": 3410,
      "inh": 3411,
      "##imes": 3412,
      "##aps": 3413,
      "union": 3414,
      "secret": 3415,
      "teach": 3416,
      "sym": 3417,
      "redu": 3418,
      "respect": 3419,
      "launch": 3420,
      "victory": 3421,
      "mos": 3422,
      "member": 3423,
      "rain": 3424,
      "##read": 3425,
      "stru": 3426,
      "##oted": 3427,
      "sequ": 3428,
      "big": 3429,
      "##wood": 3430,
      "express": 3431,
      "priv": 3432,
      "##ordan": 3433,
      "##board": 3434,
      "ey": 3435,
      "##ole": 3436,
      "condu": 3437,
      "prob": 3438,
      "##action": 3439,
      "anti": 3440,
      "radio": 3441,
      "##tain": 3442,
      "stage": 3443,
      "wil": 3444,
      "##asion": 3445,
      "muse": 3446,
      "provided": 3447,
      "association": 3448,
      "stay": 3449,
      "186": 3450,
      "indic": 3451,
      "working": 3452,
      "appearance": 3453,
      "opening": 3454,
      "village": 3455,
      "troops": 3456,
      "jordan": 3457,
      "tech": 3458,
      "##eler": 3459,
      "deal": 3460,
      "syn": 3461,
      "wanted": 3462,
      "mot": 3463,
      "mult": 3464,
      "##sel": 3465,
      "gar": 3466,
      "##ores": 3467,
      "reason": 3468,
      "pract": 3469,
      "##ellow": 3470,
      "employ": 3471,
      "winds": 3472,
      "particularly": 3473,
      "pot": 3474,
      "##oid": 3475,
      "neg": 3476,
      "atlantic": 3477,
      "girl": 3478,
      "cam": 3479,
      "jud": 3480,
      "norm": 3481,
      "sem": 3482,
      "##ania": 3483,
      "depression": 3484,
      "2014": 3485,
      "minor": 3486,
      "crew": 3487,
      "initially": 3488,
      "rap": 3489,
      "race": 3490,
      "##ouri": 3491,
      "evidence": 3492,
      "instit": 3493,
      "middle": 3494,
      "christian": 3495,
      "social": 3496,
      "##medi": 3497,
      "clear": 3498,
      "observ": 3499,
      "summer": 3500,
      "museum": 3501,
      "mur": 3502,
      "mary": 3503,
      "come": 3504,
      "office": 3505,
      "largest": 3506,
      "500": 3507,
      "kil": 3508,
      "nec": 3509,
      "pan": 3510,
      "george": 3511,
      "sus": 3512,
      "##erous": 3513,
      "anc": 3514,
      "19th": 3515,
      "exist": 3516,
      "invest": 3517,
      "possible": 3518,
      "length": 3519,
      "##west": 3520,
      "##atin": 3521,
      "##ago": 3522,
      "above": 3523,
      "room": 3524,
      "type": 3525,
      "commercial": 3526,
      "ban": 3527,
      "sam": 3528,
      "##thod": 3529,
      "##eter": 3530,
      "yards": 3531,
      "##oth": 3532,
      "cho": 3533,
      "##iff": 3534,
      "construct": 3535,
      "material": 3536,
      "hit": 3537,
      "must": 3538,
      "##ounted": 3539,
      "feel": 3540,
      "florida": 3541,
      "wild": 3542,
      "##ker": 3543,
      "##val": 3544,
      "##ita": 3545,
      "##ington": 3546,
      "diss": 3547,
      "regiment": 3548,
      "acad": 3549,
      "allowed": 3550,
      "prior": 3551,
      "saying": 3552,
      "nine": 3553,
      "##ude": 3554,
      "respons": 3555,
      "hours": 3556,
      "##gg": 3557,
      "poor": 3558,
      "critical": 3559,
      "somet": 3560,
      "paul": 3561,
      "viol": 3562,
      "oliv": 3563,
      "quarter": 3564,
      "creek": 3565,
      "fut": 3566,
      "nomin": 3567,
      "operation": 3568,
      "repub": 3569,
      "econ": 3570,
      "##east": 3571,
      "##cast": 3572,
      "whom": 3573,
      "strength": 3574,
      "econom": 3575,
      "lower": 3576,
      "liter": 3577,
      "pain": 3578,
      "lik": 3579,
      "quick": 3580,
      "specific": 3581,
      "reception": 3582,
      "missouri": 3583,
      "horse": 3584,
      "food": 3585,
      "##ck": 3586,
      "##for": 3587,
      "##off": 3588,
      "seem": 3589,
      "princ": 3590,
      "2001": 3591,
      "worked": 3592,
      "police": 3593,
      "society": 3594,
      "test": 3595,
      "##oon": 3596,
      "##ville": 3597,
      "##gar": 3598,
      "##aries": 3599,
      "designed": 3600,
      "community": 3601,
      "pac": 3602,
      "previously": 3603,
      "doc": 3604,
      "##uel": 3605,
      "break": 3606,
      "##ih": 3607,
      "##bor": 3608,
      "##onst": 3609,
      "forced": 3610,
      "goals": 3611,
      "era": 3612,
      "fish": 3613,
      "##bar": 3614,
      "##erson": 3615,
      "heart": 3616,
      "##vert": 3617,
      "##oney": 3618,
      "remains": 3619,
      "praised": 3620,
      "fiction": 3621,
      "watch": 3622,
      "phys": 3623,
      "capital": 3624,
      "contract": 3625,
      "republic": 3626,
      "mart": 3627,
      "threat": 3628,
      "##ett": 3629,
      "shot": 3630,
      "scre": 3631,
      "prepar": 3632,
      "indian": 3633,
      "mont": 3634,
      "increased": 3635,
      "profession": 3636,
      "michael": 3637,
      "lin": 3638,
      "ny": 3639,
      "uk": 3640,
      "##gu": 3641,
      "##iding": 3642,
      "coach": 3643,
      "account": 3644,
      "avail": 3645,
      "##rated": 3646,
      "##itz": 3647,
      "unc": 3648,
      "187": 3649,
      "media": 3650,
      "interview": 3651,
      "aut": 3652,
      "hu": 3653,
      "hous": 3654,
      "hosp": 3655,
      "##uation": 3656,
      "theat": 3657,
      "stone": 3658,
      "interest": 3659,
      "surf": 3660,
      "background": 3661,
      "##gypt": 3662,
      "##ving": 3663,
      "units": 3664,
      "##ended": 3665,
      "studio": 3666,
      "commander": 3667,
      "egypt": 3668,
      "taking": 3669,
      "proper": 3670,
      "writer": 3671,
      "##ronic": 3672,
      "object": 3673,
      "replaced": 3674,
      "face": 3675,
      "##nal": 3676,
      "thom": 3677,
      "##ula": 3678,
      "##elled": 3679,
      "parts": 3680,
      "richard": 3681,
      "##xas": 3682,
      "inj": 3683,
      "##usion": 3684,
      "##ributed": 3685,
      "navy": 3686,
      "industry": 3687,
      "dom": 3688,
      "ot": 3689,
      "##ma": 3690,
      "##erved": 3691,
      "##ites": 3692,
      "##lement": 3693,
      "##abit": 3694,
      "assist": 3695,
      "subst": 3696,
      "discuss": 3697,
      "approxim": 3698,
      "section": 3699,
      "##band": 3700,
      "##ste": 3701,
      "dead": 3702,
      "##ription": 3703,
      "commit": 3704,
      "##anned": 3705,
      "cycl": 3706,
      "religious": 3707,
      "college": 3708,
      "bod": 3709,
      "##head": 3710,
      "##reg": 3711,
      "highest": 3712,
      "reviews": 3713,
      "henry": 3714,
      "happ": 3715,
      "##olic": 3716,
      "##eston": 3717,
      "canada": 3718,
      "claimed": 3719,
      "beginning": 3720,
      "estimated": 3721,
      "mph": 3722,
      "pay": 3723,
      "rang": 3724,
      "##eth": 3725,
      "##round": 3726,
      "##atory": 3727,
      "except": 3728,
      "carol": 3729,
      "imm": 3730,
      "certain": 3731,
      "ox": 3732,
      "touch": 3733,
      "##omet": 3734,
      "forest": 3735,
      "##ulf": 3736,
      "##ibility": 3737,
      "canad": 3738,
      "joined": 3739,
      "oldham": 3740,
      "establish": 3741,
      "travel": 3742,
      "36": 3743,
      "lines": 3744,
      "placed": 3745,
      "grad": 3746,
      "assemb": 3747,
      "green": 3748,
      "japanese": 3749,
      "average": 3750,
      "dig": 3751,
      "##men": 3752,
      "##stand": 3753,
      "stories": 3754,
      "change": 3755,
      "##ulated": 3756,
      "##ump": 3757,
      "training": 3758,
      "signed": 3759,
      "suggested": 3760,
      "involved": 3761,
      "##ecutive": 3762,
      "bab": 3763,
      "wat": 3764,
      "##ows": 3765,
      "intens": 3766,
      "increasing": 3767,
      "introduced": 3768,
      "45": 3769,
      "pu": 3770,
      "##ties": 3771,
      "scen": 3772,
      "itself": 3773,
      "183": 3774,
      "immedi": 3775,
      "transfer": 3776,
      "vietn": 3777,
      "sometimes": 3778,
      "our": 3779,
      "##uk": 3780,
      "today": 3781,
      "arab": 3782,
      "term": 3783,
      "occup": 3784,
      "structure": 3785,
      "athlet": 3786,
      "olivier": 3787,
      "cat": 3788,
      "##imin": 3789,
      "##aker": 3790,
      "scene": 3791,
      "going": 3792,
      "complete": 3793,
      "mexico": 3794,
      "00": 3795,
      "give": 3796,
      "male": 3797,
      "names": 3798,
      "piec": 3799,
      "zeal": 3800,
      "##back": 3801,
      "##gen": 3802,
      "##ari": 3803,
      "##anna": 3804,
      "irish": 3805,
      "##yer": 3806,
      "##of": 3807,
      "thus": 3808,
      "##ready": 3809,
      "abs": 3810,
      "amb": 3811,
      "india": 3812,
      "airport": 3813,
      "additional": 3814,
      "available": 3815,
      "date": 3816,
      "ran": 3817,
      "sen": 3818,
      "##ask": 3819,
      "staff": 3820,
      "language": 3821,
      "hun": 3822,
      "##down": 3823,
      "whose": 3824,
      "##ector": 3825,
      "plot": 3826,
      "remov": 3827,
      "nearly": 3828,
      "fifth": 3829,
      "je": 3830,
      "ren": 3831,
      "##ases": 3832,
      "told": 3833,
      "##ume": 3834,
      "##porary": 3835,
      "thomas": 3836,
      "woman": 3837,
      "think": 3838,
      "##arily": 3839,
      "chic": 3840,
      "contem": 3841,
      "shows": 3842,
      "friends": 3843,
      "approximately": 3844,
      "dut": 3845,
      "dark": 3846,
      "already": 3847,
      "anth": 3848,
      "##achel": 3849,
      "rob": 3850,
      "surround": 3851,
      "damaged": 3852,
      "appointed": 3853,
      "native": 3854,
      "penn": 3855,
      "size": 3856,
      "deep": 3857,
      "##ections": 3858,
      "compan": 3859,
      "britain": 3860,
      "ca": 3861,
      "##gl": 3862,
      "disp": 3863,
      "winning": 3864,
      "turned": 3865,
      "particip": 3866,
      "issue": 3867,
      "debut": 3868,
      "cathed": 3869,
      "probably": 3870,
      "cou": 3871,
      "hop": 3872,
      "jin": 3873,
      "lay": 3874,
      "might": 3875,
      "##apt": 3876,
      "boy": 3877,
      "students": 3878,
      "lyric": 3879,
      "cad": 3880,
      "espec": 3881,
      "##ote": 3882,
      "##ective": 3883,
      "##quar": 3884,
      "news": 3885,
      "184": 3886,
      "passed": 3887,
      "angel": 3888,
      "pacific": 3889,
      "lord": 3890,
      "##acing": 3891,
      "admin": 3892,
      "twent": 3893,
      "board": 3894,
      "better": 3895,
      "quest": 3896,
      "complet": 3897,
      "captain": 3898,
      "zealand": 3899,
      "cred": 3900,
      "upp": 3901,
      "##zz": 3902,
      "withd": 3903,
      "##ateg": 3904,
      "display": 3905,
      "network": 3906,
      "doll": 3907,
      "daugh": 3908,
      "tar": 3909,
      "##ises": 3910,
      "forward": 3911,
      "notes": 3912,
      "overall": 3913,
      "##inese": 3914,
      "visit": 3915,
      "##osaurus": 3916,
      "especially": 3917,
      "mat": 3918,
      "##oration": 3919,
      "##ability": 3920,
      "exh": 3921,
      "enough": 3922,
      "60": 3923,
      "dro": 3924,
      "failed": 3925,
      "roll": 3926,
      "##bc": 3927,
      "chinese": 3928,
      "space": 3929,
      "bridge": 3930,
      "running": 3931,
      "mixed": 3932,
      "lou": 3933,
      "##bers": 3934,
      "exam": 3935,
      "##ails": 3936,
      "musical": 3937,
      "dub": 3938,
      "mel": 3939,
      "##ocks": 3940,
      "2002": 3941,
      "emp": 3942,
      "wheeler": 3943,
      "limited": 3944,
      "natural": 3945,
      "lake": 3946,
      "##nel": 3947,
      "iii": 3948,
      "ordered": 3949,
      "future": 3950,
      "nin": 3951,
      "##lor": 3952,
      "##fect": 3953,
      "plat": 3954,
      "spent": 3955,
      "includes": 3956,
      "remaining": 3957,
      "moving": 3958,
      "arrived": 3959,
      "changes": 3960,
      "virgin": 3961,
      "department": 3962,
      "education": 3963,
      "ast": 3964,
      "##rd": 3965,
      "ali": 3966,
      "##ells": 3967,
      "usually": 3968,
      "larger": 3969,
      "breed": 3970,
      "peter": 3971,
      "##stein": 3972,
      "canadian": 3973,
      "cathedral": 3974,
      "##onse": 3975,
      "concept": 3976,
      "grant": 3977,
      "slow": 3978,
      "broadcast": 3979,
      "birds": 3980,
      "birth": 3981,
      "latter": 3982,
      "saint": 3983,
      "##ios": 3984,
      "##tr": 3985,
      "##ening": 3986,
      "span": 3987,
      "required": 3988,
      "mountain": 3989,
      "upper": 3990,
      "jer": 3991,
      "##ilities": 3992,
      "decision": 3993,
      "voice": 3994,
      "mr": 3995,
      "nature": 3996,
      "oly": 3997,
      "wide": 3998,
      "comed": 3999,
      "##riage": 4000,
      "traff": 4001,
      "remain": 4002,
      "##ference": 4003,
      "response": 4004,
      "africa": 4005,
      "olymp": 4006,
      "##inct": 4007,
      "##orial": 4008,
      "##agon": 4009,
      "2000": 4010,
      "centre": 4011,
      "reveal": 4012,
      "schol": 4013,
      "prevent": 4014,
      "38": 4015,
      "corn": 4016,
      "iron": 4017,
      "jun": 4018,
      "mention": 4019,
      "##ners": 4020,
      "##oke": 4021,
      "related": 4022,
      "poet": 4023,
      "##ification": 4024,
      "feature": 4025,
      "cm": 4026,
      "mounted": 4027,
      "self": 4028,
      "groups": 4029,
      "professional": 4030,
      "rachel": 4031,
      "tv": 4032,
      "##kn": 4033,
      "##ecting": 4034,
      "score": 4035,
      "blood": 4036,
      "films": 4037,
      "supported": 4038,
      "territory": 4039,
      "bad": 4040,
      "fer": 4041,
      "living": 4042,
      "oce": 4043,
      "##ca": 4044,
      "##ken": 4045,
      "##ga": 4046,
      "##omes": 4047,
      "box": 4048,
      "science": 4049,
      "scott": 4050,
      "ended": 4051,
      "positive": 4052,
      "larg": 4053,
      "billboard": 4054,
      "frequ": 4055,
      "pressure": 4056,
      "mort": 4057,
      "money": 4058,
      "pun": 4059,
      "xen": 4060,
      "health": 4061,
      "finally": 4062,
      "books": 4063,
      "culture": 4064,
      "squadron": 4065,
      "##under": 4066,
      "##uals": 4067,
      "##ifa": 4068,
      "becoming": 4069,
      "charles": 4070,
      "temper": 4071,
      "ga": 4072,
      "haw": 4073,
      "hair": 4074,
      "mom": 4075,
      "##su": 4076,
      "##isc": 4077,
      "always": 4078,
      "shown": 4079,
      "provide": 4080,
      "headquar": 4081,
      "smaller": 4082,
      "ben": 4083,
      "fox": 4084,
      "got": 4085,
      "log": 4086,
      "##wor": 4087,
      "##oles": 4088,
      "trade": 4089,
      "1995": 4090,
      "temple": 4091,
      "discovered": 4092,
      "private": 4093,
      "75": 4094,
      "batter": 4095,
      "##hou": 4096,
      "##ining": 4097,
      "##uments": 4098,
      "minutes": 4099,
      "subject": 4100,
      "shortly": 4101,
      "gods": 4102,
      "bord": 4103,
      "jam": 4104,
      "nations": 4105,
      "##ii": 4106,
      "frank": 4107,
      "experience": 4108,
      "defeated": 4109,
      "dj": 4110,
      "pian": 4111,
      "tax": 4112,
      "##iest": 4113,
      "##key": 4114,
      "bowl": 4115,
      "subsequently": 4116,
      "##selves": 4117,
      "surface": 4118,
      "morn": 4119,
      "van": 4120,
      "##aded": 4121,
      "##ulted": 4122,
      "effects": 4123,
      "cele": 4124,
      "##aring": 4125,
      "##ishop": 4126,
      "##rael": 4127,
      "concert": 4128,
      "personal": 4129,
      "makes": 4130,
      "##eign": 4131,
      "unit": 4132,
      "greater": 4133,
      "calif": 4134,
      "counter": 4135,
      "scientology": 4136,
      "dyn": 4137,
      "pair": 4138,
      "##ault": 4139,
      "##zy": 4140,
      "intended": 4141,
      "##eless": 4142,
      "franc": 4143,
      "intell": 4144,
      "percent": 4145,
      "mostly": 4146,
      "teams": 4147,
      "favor": 4148,
      "idea": 4149,
      "problems": 4150,
      "hus": 4151,
      "master": 4152,
      "pil": 4153,
      "und": 4154,
      "##kan": 4155,
      "##idents": 4156,
      "learn": 4157,
      "numbers": 4158,
      "conclud": 4159,
      "collection": 4160,
      "keep": 4161,
      "captured": 4162,
      "galv": 4163,
      "largely": 4164,
      "coup": 4165,
      "fest": 4166,
      "wing": 4167,
      "##acted": 4168,
      "sev": 4169,
      "##pped": 4170,
      "themselves": 4171,
      "metres": 4172,
      "constant": 4173,
      "arrang": 4174,
      "valley": 4175,
      "market": 4176,
      "referred": 4177,
      "haifa": 4178,
      "primary": 4179,
      "machine": 4180,
      "queen": 4181,
      "likely": 4182,
      "californ": 4183,
      "russ": 4184,
      "sov": 4185,
      "tenn": 4186,
      "##ban": 4187,
      "##well": 4188,
      "##ams": 4189,
      "whole": 4190,
      "##ples": 4191,
      "method": 4192,
      "2016": 4193,
      "product": 4194,
      "croat": 4195,
      "cric": 4196,
      "ded": 4197,
      "gall": 4198,
      "yet": 4199,
      "##iva": 4200,
      "consist": 4201,
      "guard": 4202,
      "oppos": 4203,
      "traffic": 4204,
      "xenon": 4205,
      "cause": 4206,
      "ll": 4207,
      "om": 4208,
      "pow": 4209,
      "##lim": 4210,
      "##ror": 4211,
      "##iser": 4212,
      "israel": 4213,
      "location": 4214,
      "portug": 4215,
      "##uck": 4216,
      "entered": 4217,
      "tower": 4218,
      "aer": 4219,
      "bomb": 4220,
      "gi": 4221,
      "sand": 4222,
      "contains": 4223,
      "amount": 4224,
      "emer": 4225,
      "magn": 4226,
      "square": 4227,
      "ultim": 4228,
      "constructed": 4229,
      "fail": 4230,
      "jose": 4231,
      "##oor": 4232,
      "##ging": 4233,
      "##urs": 4234,
      "che": 4235,
      "adop": 4236,
      "script": 4237,
      "majority": 4238,
      "greatest": 4239,
      "listed": 4240,
      "ranked": 4241,
      "lyrics": 4242,
      "ocean": 4243,
      "headquarters": 4244,
      "morning": 4245,
      "ray": 4246,
      "anal": 4247,
      "chief": 4248,
      "leaving": 4249,
      "cann": 4250,
      "1999": 4251,
      "##ending": 4252,
      "starting": 4253,
      "dum": 4254,
      "kr": 4255,
      "ross": 4256,
      "##ds": 4257,
      "##gian": 4258,
      "##atively": 4259,
      "asp": 4260,
      "##ander": 4261,
      "##ria": 4262,
      "election": 4263,
      "studies": 4264,
      "officers": 4265,
      "whether": 4266,
      "information": 4267,
      "galveston": 4268,
      "fans": 4269,
      "gro": 4270,
      "os": 4271,
      "##mon": 4272,
      "##ergy": 4273,
      "tourn": 4274,
      "competition": 4275,
      "brief": 4276,
      "jewish": 4277,
      "companies": 4278,
      "##aut": 4279,
      "##essed": 4280,
      "##ously": 4281,
      "newsp": 4282,
      "color": 4283,
      "create": 4284,
      "fighting": 4285,
      "journal": 4286,
      "graph": 4287,
      "brad": 4288,
      "poly": 4289,
      "##gress": 4290,
      "##onym": 4291,
      "changed": 4292,
      "celebr": 4293,
      "33": 4294,
      "80": 4295,
      "##fact": 4296,
      "##atops": 4297,
      "beach": 4298,
      "forms": 4299,
      "theme": 4300,
      "publish": 4301,
      "episodes": 4302,
      "concern": 4303,
      "runs": 4304,
      "standard": 4305,
      "soldiers": 4306,
      "proposed": 4307,
      "administ": 4308,
      "lived": 4309,
      "liver": 4310,
      "ple": 4311,
      "takes": 4312,
      "##pool": 4313,
      "##tar": 4314,
      "##jected": 4315,
      "plans": 4316,
      "spir": 4317,
      "attr": 4318,
      "artist": 4319,
      "influence": 4320,
      "independent": 4321,
      "agreed": 4322,
      "launched": 4323,
      "committe": 4324,
      "2nd": 4325,
      "aw": 4326,
      "ale": 4327,
      "bud": 4328,
      "bound": 4329,
      "ce": 4330,
      "lif": 4331,
      "lady": 4332,
      "path": 4333,
      "rom": 4334,
      "##light": 4335,
      "##yr": 4336,
      "##urity": 4337,
      "##change": 4338,
      "ital": 4339,
      "##teen": 4340,
      "bring": 4341,
      "movement": 4342,
      "singles": 4343,
      "constit": 4344,
      "increase": 4345,
      "meaning": 4346,
      "current": 4347,
      "california": 4348,
      "cra": 4349,
      "##rison": 4350,
      "##isions": 4351,
      "##outh": 4352,
      "shoot": 4353,
      "##illery": 4354,
      "compared": 4355,
      "##lands": 4356,
      "care": 4357,
      "assigned": 4358,
      "minute": 4359,
      "catholic": 4360,
      "traditional": 4361,
      "quickly": 4362,
      "here": 4363,
      "rat": 4364,
      "##mas": 4365,
      "##bed": 4366,
      "rein": 4367,
      "##andon": 4368,
      "true": 4369,
      "meant": 4370,
      "revolution": 4371,
      "artillery": 4372,
      "sixth": 4373,
      "determ": 4374,
      "villa": 4375,
      "trees": 4376,
      "double": 4377,
      "occurred": 4378,
      "chicago": 4379,
      "400": 4380,
      "ut": 4381,
      "##yc": 4382,
      "things": 4383,
      "##icated": 4384,
      "leave": 4385,
      "ens": 4386,
      "env": 4387,
      "corps": 4388,
      "inside": 4389,
      "refl": 4390,
      "focus": 4391,
      "hospital": 4392,
      "32": 4393,
      "fol": 4394,
      "latin": 4395,
      "nix": 4396,
      "##umn": 4397,
      "adult": 4398,
      "serious": 4399,
      "phot": 4400,
      "appears": 4401,
      "services": 4402,
      "archit": 4403,
      "victor": 4404,
      "speed": 4405,
      "defeat": 4406,
      "destroyed": 4407,
      "condoms": 4408,
      "investig": 4409,
      "done": 4410,
      "horn": 4411,
      "kick": 4412,
      "tons": 4413,
      "##ba": 4414,
      "sched": 4415,
      "longer": 4416,
      "schools": 4417,
      "consider": 4418,
      "contemporary": 4419,
      "bul": 4420,
      "hund": 4421,
      "mas": 4422,
      "##tained": 4423,
      "##iny": 4424,
      "##anced": 4425,
      "##oms": 4426,
      "asked": 4427,
      "alice": 4428,
      "##ortun": 4429,
      "scot": 4430,
      "finish": 4431,
      "acqu": 4432,
      "complex": 4433,
      "awarded": 4434,
      "source": 4435,
      "hundred": 4436,
      "cand": 4437,
      "fow": 4438,
      "gh": 4439,
      "pit": 4440,
      "purch": 4441,
      "beat": 4442,
      "carried": 4443,
      "access": 4444,
      "something": 4445,
      "polish": 4446,
      "sky": 4447,
      "initial": 4448,
      "proteins": 4449,
      "rapid": 4450,
      "cyclone": 4451,
      "daughter": 4452,
      "300": 4453,
      "cold": 4454,
      "ign": 4455,
      "marriage": 4456,
      "dism": 4457,
      "flow": 4458,
      "1998": 4459,
      "ending": 4460,
      "writers": 4461,
      "brother": 4462,
      "buildings": 4463,
      "conducted": 4464,
      "princip": 4465,
      "ott": 4466,
      "70": 4467,
      "thick": 4468,
      "alkan": 4469,
      "simp": 4470,
      "district": 4471,
      "annual": 4472,
      "associated": 4473,
      "status": 4474,
      "burns": 4475,
      "ancient": 4476,
      "twenty": 4477,
      "fant": 4478,
      "ram": 4479,
      "sav": 4480,
      "##ev": 4481,
      "##eas": 4482,
      "throw": 4483,
      "chall": 4484,
      "##osph": 4485,
      "image": 4486,
      "minister": 4487,
      "african": 4488,
      "empire": 4489,
      "ess": 4490,
      "##oo": 4491,
      "##itation": 4492,
      "##itude": 4493,
      "conference": 4494,
      "chem": 4495,
      "unable": 4496,
      "married": 4497,
      "conserv": 4498,
      "1993": 4499,
      "albums": 4500,
      "commented": 4501,
      "husband": 4502,
      "bank": 4503,
      "dail": 4504,
      "tay": 4505,
      "##ex": 4506,
      "##anas": 4507,
      "spring": 4508,
      "imag": 4509,
      "numerous": 4510,
      "castle": 4511,
      "individual": 4512,
      "scenes": 4513,
      "liverpool": 4514,
      "nixon": 4515,
      "1st": 4516,
      "dra": 4517,
      "habit": 4518,
      "ow": 4519,
      "##kel": 4520,
      "##itor": 4521,
      "chann": 4522,
      "accomp": 4523,
      "positions": 4524,
      "crown": 4525,
      "somers": 4526,
      "producer": 4527,
      "inspired": 4528,
      "47": 4529,
      "##istics": 4530,
      "texas": 4531,
      "##ologist": 4532,
      "polic": 4533,
      "##itting": 4534,
      "tracks": 4535,
      "management": 4536,
      "##aught": 4537,
      "39": 4538,
      "pul": 4539,
      "##pre": 4540,
      "terms": 4541,
      "attacks": 4542,
      "issued": 4543,
      "mosley": 4544,
      "somerset": 4545,
      "bed": 4546,
      "##anta": 4547,
      "earned": 4548,
      "defense": 4549,
      "slight": 4550,
      "safe": 4551,
      "begins": 4552,
      "waters": 4553,
      "piano": 4554,
      "bon": 4555,
      "bol": 4556,
      "bid": 4557,
      "fear": 4558,
      "giving": 4559,
      "##her": 4560,
      "##urg": 4561,
      "20th": 4562,
      "planned": 4563,
      "scr": 4564,
      "marked": 4565,
      "actor": 4566,
      "1996": 4567,
      "portray": 4568,
      "directly": 4569,
      "variety": 4570,
      "edge": 4571,
      "busch": 4572,
      "figure": 4573,
      "document": 4574,
      "baby": 4575,
      "daily": 4576,
      "pick": 4577,
      "pict": 4578,
      "via": 4579,
      "your": 4580,
      "yellow": 4581,
      "##ding": 4582,
      "thunder": 4583,
      "##ands": 4584,
      "search": 4585,
      "##alled": 4586,
      "recover": 4587,
      "performances": 4588,
      "##ylv": 4589,
      "advent": 4590,
      "occasion": 4591,
      "christmas": 4592,
      "experi": 4593,
      "historical": 4594,
      "nuclear": 4595,
      "immediately": 4596,
      "committee": 4597,
      "swe": 4598,
      "##umed": 4599,
      "perfect": 4600,
      "drum": 4601,
      "metal": 4602,
      "organization": 4603,
      "spanish": 4604,
      "soviet": 4605,
      "taylor": 4606,
      "fell": 4607,
      "kind": 4608,
      "##house": 4609,
      "##bery": 4610,
      "abandon": 4611,
      "disapp": 4612,
      "##ension": 4613,
      "transl": 4614,
      "helped": 4615,
      "combat": 4616,
      "fowler": 4617,
      "90": 4618,
      "wound": 4619,
      "##rical": 4620,
      "thir": 4621,
      "##rovers": 4622,
      "rear": 4623,
      "closed": 4624,
      "financ": 4625,
      "leaders": 4626,
      "casual": 4627,
      "suffered": 4628,
      "rhy": 4629,
      "multip": 4630,
      "screen": 4631,
      "42": 4632,
      "gard": 4633,
      "mic": 4634,
      "nation": 4635,
      "##bury": 4636,
      "##cend": 4637,
      "suc": 4638,
      "##ocr": 4639,
      "controvers": 4640,
      "uses": 4641,
      "presence": 4642,
      "crow": 4643,
      "nearby": 4644,
      "impact": 4645,
      "##like": 4646,
      "bass": 4647,
      "bond": 4648,
      "jane": 4649,
      "mol": 4650,
      "row": 4651,
      "##joy": 4652,
      "##once": 4653,
      "stad": 4654,
      "really": 4655,
      "##ify": 4656,
      "##athan": 4657,
      "##ibly": 4658,
      "peace": 4659,
      "mission": 4660,
      "raised": 4661,
      "presented": 4662,
      "federal": 4663,
      "cultural": 4664,
      "susp": 4665,
      "paper": 4666,
      "rif": 4667,
      "sir": 4668,
      "##anded": 4669,
      "##essa": 4670,
      "weap": 4671,
      "prec": 4672,
      "paris": 4673,
      "maxim": 4674,
      "continue": 4675,
      "covered": 4676,
      "vocals": 4677,
      "rule": 4678,
      "diam": 4679,
      "mun": 4680,
      "##sylv": 4681,
      "##erve": 4682,
      "##olf": 4683,
      "fruit": 4684,
      "sport": 4685,
      "composed": 4686,
      "##aha": 4687,
      "attempts": 4688,
      "hands": 4689,
      "figures": 4690,
      "symb": 4691,
      "carolina": 4692,
      "pennsylv": 4693,
      "virginia": 4694,
      "link": 4695,
      "mis": 4696,
      "extended": 4697,
      "incor": 4698,
      "below": 4699,
      "##iami": 4700,
      "course": 4701,
      "##chester": 4702,
      "beyonce": 4703,
      "rough": 4704,
      "sac": 4705,
      "##imony": 4706,
      "attend": 4707,
      "plant": 4708,
      "relief": 4709,
      "##rupt": 4710,
      "dise": 4711,
      "meyer": 4712,
      "canc": 4713,
      "block": 4714,
      "officer": 4715,
      "purp": 4716,
      "selected": 4717,
      "vocal": 4718,
      "bodies": 4719,
      "assembly": 4720,
      "##standing": 4721,
      "architect": 4722,
      "fill": 4723,
      "mile": 4724,
      "ton": 4725,
      "##icted": 4726,
      "wash": 4727,
      "ash": 4728,
      "shar": 4729,
      "deg": 4730,
      "##apo": 4731,
      "promin": 4732,
      "sports": 4733,
      "enjoy": 4734,
      "higher": 4735,
      "1997": 4736,
      "appearances": 4737,
      "hyd": 4738,
      "cricket": 4739,
      "hour": 4740,
      "miami": 4741,
      "ris": 4742,
      "##uing": 4743,
      "##ental": 4744,
      "##uries": 4745,
      "offensive": 4746,
      "text": 4747,
      "countries": 4748,
      "advance": 4749,
      "extre": 4750,
      "germany": 4751,
      "promotion": 4752,
      "##ipped": 4753,
      "needed": 4754,
      "protein": 4755,
      "sexual": 4756,
      "necess": 4757,
      "44": 4758,
      "nico": 4759,
      "rush": 4760,
      "##ires": 4761,
      "altern": 4762,
      "shr": 4763,
      "places": 4764,
      "arts": 4765,
      "compl": 4766,
      "highly": 4767,
      "powerful": 4768,
      "situation": 4769,
      "veh": 4770,
      "cadm": 4771,
      "analys": 4772,
      "cab": 4773,
      "fair": 4774,
      "kak": 4775,
      "lock": 4776,
      "##ils": 4777,
      "##aging": 4778,
      "##overs": 4779,
      "recent": 4780,
      "clim": 4781,
      "bob": 4782,
      "emper": 4783,
      "distance": 4784,
      "edition": 4785,
      "attacked": 4786,
      "allowing": 4787,
      "entertain": 4788,
      "somal": 4789,
      "silver": 4790,
      "comedy": 4791,
      "festival": 4792,
      "da": 4793,
      "ka": 4794,
      "rate": 4795,
      "tel": 4796,
      "##ny": 4797,
      "##iate": 4798,
      "##pa": 4799,
      "##pole": 4800,
      "##he": 4801,
      "##vement": 4802,
      "##gal": 4803,
      "inters": 4804,
      "##ribution": 4805,
      "singer": 4806,
      "opera": 4807,
      "governor": 4808,
      "confir": 4809,
      "labor": 4810,
      "theatre": 4811,
      "pennsylvania": 4812,
      "cadmium": 4813,
      "##isation": 4814,
      "foreign": 4815,
      "##aped": 4816,
      "energy": 4817,
      "resc": 4818,
      "northwest": 4819,
      "movie": 4820,
      "advant": 4821,
      "model": 4822,
      "jackson": 4823,
      "widely": 4824,
      "academy": 4825,
      "removed": 4826,
      "##track": 4827,
      "51": 4828,
      "bor": 4829,
      "bene": 4830,
      "jim": 4831,
      "lot": 4832,
      "##rate": 4833,
      "##ication": 4834,
      "prince": 4835,
      "##ovic": 4836,
      "compr": 4837,
      "means": 4838,
      "offered": 4839,
      "active": 4840,
      "remix": 4841,
      "genus": 4842,
      "protest": 4843,
      "levels": 4844,
      "soundtrack": 4845,
      "copies": 4846,
      "peaked": 4847,
      "scotland": 4848,
      "rout": 4849,
      "wa": 4850,
      "thous": 4851,
      "sha": 4852,
      "scoring": 4853,
      "182": 4854,
      "##izing": 4855,
      "1991": 4856,
      "doct": 4857,
      "chris": 4858,
      "typically": 4859,
      "attempted": 4860,
      "opportun": 4861,
      "combined": 4862,
      "meeting": 4863,
      "respectively": 4864,
      "question": 4865,
      "mess": 4866,
      "sister": 4867,
      "wear": 4868,
      "##hood": 4869,
      "##ros": 4870,
      "reform": 4871,
      "china": 4872,
      "peron": 4873,
      "branch": 4874,
      "musc": 4875,
      "themes": 4876,
      "responsible": 4877,
      "touchdown": 4878,
      "alex": 4879,
      "envir": 4880,
      "stadium": 4881,
      "fast": 4882,
      "lu": 4883,
      "##anz": 4884,
      "anderson": 4885,
      "##ado": 4886,
      "##aven": 4887,
      "##rie": 4888,
      "##abor": 4889,
      "##send": 4890,
      "emb": 4891,
      "dress": 4892,
      "sets": 4893,
      "famil": 4894,
      "describes": 4895,
      "islands": 4896,
      "observed": 4897,
      "activities": 4898,
      "candid": 4899,
      "dun": 4900,
      "sales": 4901,
      "##gs": 4902,
      "##tered": 4903,
      "reign": 4904,
      "appar": 4905,
      "formation": 4906,
      "1992": 4907,
      "winter": 4908,
      "smith": 4909,
      "instr": 4910,
      "heavily": 4911,
      "matches": 4912,
      "audience": 4913,
      "braath": 4914,
      "houses": 4915,
      "vehic": 4916,
      "kakapo": 4917,
      "dream": 4918,
      "lie": 4919,
      "##lict": 4920,
      "##anes": 4921,
      "stra": 4922,
      "parents": 4923,
      "1994": 4924,
      "entr": 4925,
      "rights": 4926,
      "activity": 4927,
      "looking": 4928,
      "reduced": 4929,
      "37": 4930,
      "48": 4931,
      "76": 4932,
      "wave": 4933,
      "##ha": 4934,
      "##isa": 4935,
      "chronic": 4936,
      "##ulations": 4937,
      "resulted": 4938,
      "carry": 4939,
      "minnes": 4940,
      "northeast": 4941,
      "quality": 4942,
      "defence": 4943,
      "armed": 4944,
      "respond": 4945,
      "glob": 4946,
      "domest": 4947,
      "concluded": 4948,
      "minnesota": 4949,
      "mech": 4950,
      "##uated": 4951,
      "##ican": 4952,
      "stating": 4953,
      "##ems": 4954,
      "residents": 4955,
      "calling": 4956,
      "townsend": 4957,
      "reports": 4958,
      "extr": 4959,
      "contrast": 4960,
      "conditions": 4961,
      "completely": 4962,
      "hawai": 4963,
      "spirit": 4964,
      "italian": 4965,
      "channel": 4966,
      "environ": 4967,
      "3rd": 4968,
      "et": 4969,
      "jul": 4970,
      "##bre": 4971,
      "##inal": 4972,
      "##isl": 4973,
      "##ura": 4974,
      "##utions": 4975,
      "##rial": 4976,
      "managed": 4977,
      "##athus": 4978,
      "featuring": 4979,
      "efforts": 4980,
      "europ": 4981,
      "separate": 4982,
      "rosebery": 4983,
      "kilomet": 4984,
      "revealed": 4985,
      "intellig": 4986,
      "folk": 4987,
      "bh": 4988,
      "overs": 4989,
      "tun": 4990,
      "##hold": 4991,
      "##beer": 4992,
      "##ented": 4993,
      "shiva": 4994,
      "##ift": 4995,
      "##ella": 4996,
      "clar": 4997,
      "##ogue": 4998,
      "plays": 4999,
      "finals": 5000,
      "liber": 5001,
      "specim": 5002,
      "artists": 5003,
      "description": 5004,
      "refused": 5005,
      "progress": 5006,
      "declared": 5007,
      "honor": 5008,
      "eye": 5009,
      "meyerbeer": 5010,
      "hors": 5011,
      "lib": 5012,
      "sle": 5013,
      "##bird": 5014,
      "##esb": 5015,
      "##ays": 5016,
      "webs": 5017,
      "finkel": 5018,
      "therefore": 5019,
      "1970": 5020,
      "issues": 5021,
      "walpole": 5022,
      "survey": 5023,
      "independence": 5024,
      "strugg": 5025,
      "finkelstein": 5026,
      "52": 5027,
      "categ": 5028,
      "fat": 5029,
      "tessa": 5030,
      "yue": 5031,
      "##atives": 5032,
      "##ingu": 5033,
      "alle": 5034,
      "##emic": 5035,
      "coming": 5036,
      "##essions": 5037,
      "sust": 5038,
      "offer": 5039,
      "security": 5040,
      "seasons": 5041,
      "150": 5042,
      "expected": 5043,
      "titles": 5044,
      "elev": 5045,
      "legisl": 5046,
      "naval": 5047,
      "casualties": 5048,
      "emperor": 5049,
      "sr": 5050,
      "sense": 5051,
      "##iro": 5052,
      "##stone": 5053,
      "##road": 5054,
      "grass": 5055,
      "weaken": 5056,
      "actions": 5057,
      "charl": 5058,
      "mainly": 5059,
      "##apped": 5060,
      "types": 5061,
      "hait": 5062,
      "illino": 5063,
      "words": 5064,
      "border": 5065,
      "ottoman": 5066,
      "nicole": 5067,
      "ec": 5068,
      "nest": 5069,
      "push": 5070,
      "##hl": 5071,
      "scale": 5072,
      "manu": 5073,
      "becomes": 5074,
      "weather": 5075,
      "attention": 5076,
      "actually": 5077,
      "job": 5078,
      "assault": 5079,
      "demonst": 5080,
      "behav": 5081,
      "illust": 5082,
      "excav": 5083,
      "practice": 5084,
      "34": 5085,
      "core": 5086,
      "ros": 5087,
      "sor": 5088,
      "##icip": 5089,
      "##use": 5090,
      "##ulpt": 5091,
      "neigh": 5092,
      "spect": 5093,
      "recomm": 5094,
      "sculpt": 5095,
      "struck": 5096,
      "tournament": 5097,
      "reinfor": 5098,
      "braathens": 5099,
      "dog": 5100,
      "dang": 5101,
      "lb": 5102,
      "luc": 5103,
      "ps": 5104,
      "roles": 5105,
      "##lers": 5106,
      "##iber": 5107,
      "advert": 5108,
      "actress": 5109,
      "write": 5110,
      "columb": 5111,
      "legal": 5112,
      "viewers": 5113,
      "primarily": 5114,
      "letters": 5115,
      "hotel": 5116,
      "vietnam": 5117,
      "ultimately": 5118,
      "entertainment": 5119,
      "manufact": 5120,
      "bishop": 5121,
      "mog": 5122,
      "rug": 5123,
      "##ek": 5124,
      "##met": 5125,
      "##era": 5126,
      "##onents": 5127,
      "##room": 5128,
      "alone": 5129,
      "cong": 5130,
      "1990": 5131,
      "termin": 5132,
      "johnson": 5133,
      "planet": 5134,
      "accepted": 5135,
      "achieved": 5136,
      "sequence": 5137,
      "portugues": 5138,
      "cannot": 5139,
      "bott": 5140,
      "fully": 5141,
      "tree": 5142,
      "##rid": 5143,
      "##enue": 5144,
      "##alty": 5145,
      "react": 5146,
      "##essor": 5147,
      "elected": 5148,
      "qual": 5149,
      "colony": 5150,
      "foundation": 5151,
      "distinct": 5152,
      "farm": 5153,
      "authority": 5154,
      "rainfall": 5155,
      "newspaper": 5156,
      "portuguese": 5157,
      "dur": 5158,
      "mob": 5159,
      "nick": 5160,
      "tint": 5161,
      "##sen": 5162,
      "##rain": 5163,
      "##jo": 5164,
      "##ano": 5165,
      "##asy": 5166,
      "step": 5167,
      "chair": 5168,
      "##berg": 5169,
      "prison": 5170,
      "spain": 5171,
      "spread": 5172,
      "apple": 5173,
      "181": 5174,
      "workers": 5175,
      "##ledge": 5176,
      "##elsh": 5177,
      "alongside": 5178,
      "exped": 5179,
      "antimony": 5180,
      "authorities": 5181,
      "khan": 5182,
      "flooding": 5183,
      "measure": 5184,
      "moment": 5185,
      "slightly": 5186,
      "incorpor": 5187,
      "es": 5188,
      "hers": 5189,
      "mu": 5190,
      "pound": 5191,
      "ridge": 5192,
      "##mond": 5193,
      "tru": 5194,
      "##eller": 5195,
      "broken": 5196,
      "1986": 5197,
      "owned": 5198,
      "battery": 5199,
      "data": 5200,
      "males": 5201,
      "sarn": 5202,
      "welsh": 5203,
      "##aen": 5204,
      "##lies": 5205,
      "##bon": 5206,
      "inches": 5207,
      "##oper": 5208,
      "orb": 5209,
      "computer": 5210,
      "twice": 5211,
      "perman": 5212,
      "fey": 5213,
      "defensive": 5214,
      "surre": 5215,
      "artic": 5216,
      "concent": 5217,
      "campus": 5218,
      "conflict": 5219,
      "skin": 5220,
      "standing": 5221,
      "affected": 5222,
      "journey": 5223,
      "##ceeded": 5224,
      "expressed": 5225,
      "murder": 5226,
      "##onymous": 5227,
      "domestic": 5228,
      "mechan": 5229,
      "tintin": 5230,
      "aid": 5231,
      "bull": 5232,
      "nesb": 5233,
      "zhou": 5234,
      "##cript": 5235,
      "##uff": 5236,
      "##ims": 5237,
      "height": 5238,
      "compar": 5239,
      "180": 5240,
      "battles": 5241,
      "showed": 5242,
      "titled": 5243,
      "convers": 5244,
      "historic": 5245,
      "doub": 5246,
      "officials": 5247,
      "ceres": 5248,
      "apart": 5249,
      "flying": 5250,
      "physical": 5251,
      "louis": 5252,
      "disease": 5253,
      "rid": 5254,
      "ta": 5255,
      "wed": 5256,
      "##ych": 5257,
      "##kh": 5258,
      "##ena": 5259,
      "andrew": 5260,
      "toward": 5261,
      "##uled": 5262,
      "neut": 5263,
      "spot": 5264,
      "##astic": 5265,
      "ability": 5266,
      "direction": 5267,
      "barrow": 5268,
      "varanas": 5269,
      "avoid": 5270,
      "deliv": 5271,
      "cerem": 5272,
      "environment": 5273,
      "varanasi": 5274,
      "dv": 5275,
      "kar": 5276,
      "##ka": 5277,
      "##kin": 5278,
      "##bl": 5279,
      "##enant": 5280,
      "##igan": 5281,
      "##rian": 5282,
      "cook": 5283,
      "tend": 5284,
      "says": 5285,
      "influenced": 5286,
      "odaen": 5287,
      "snow": 5288,
      "angeles": 5289,
      "mentioned": 5290,
      "nesbitt": 5291,
      "49": 5292,
      "lives": 5293,
      "sides": 5294,
      "##hel": 5295,
      "##cing": 5296,
      "##ols": 5297,
      "eva": 5298,
      "acting": 5299,
      "produce": 5300,
      "continues": 5301,
      "##while": 5302,
      "propos": 5303,
      "earliest": 5304,
      "sites": 5305,
      "narrow": 5306,
      "encour": 5307,
      "individuals": 5308,
      "composition": 5309,
      "dumont": 5310,
      "financial": 5311,
      "advantage": 5312,
      "illinois": 5313,
      "odaenathus": 5314,
      "cities": 5315,
      "din": 5316,
      "jump": 5317,
      "oil": 5318,
      "##ya": 5319,
      "##onna": 5320,
      "alab": 5321,
      "##illa": 5322,
      "else": 5323,
      "singing": 5324,
      "founded": 5325,
      "lands": 5326,
      "##ancy": 5327,
      "resulting": 5328,
      "torped": 5329,
      "engineer": 5330,
      "admir": 5331,
      "digital": 5332,
      "exhib": 5333,
      "olympic": 5334,
      "adopted": 5335,
      "mogad": 5336,
      "sarnia": 5337,
      "torpedo": 5338,
      "65": 5339,
      "cin": 5340,
      "hope": 5341,
      "executive": 5342,
      "appeal": 5343,
      "studios": 5344,
      "officially": 5345,
      "basis": 5346,
      "represented": 5347,
      "equip": 5348,
      "sources": 5349,
      "potential": 5350,
      "withdraw": 5351,
      "dedicated": 5352,
      "analysis": 5353,
      "cit": 5354,
      "##oud": 5355,
      "contain": 5356,
      "manchester": 5357,
      "agric": 5358,
      "doing": 5359,
      "capture": 5360,
      "pattern": 5361,
      "chapel": 5362,
      "losing": 5363,
      "wilhel": 5364,
      "surrounding": 5365,
      "scholars": 5366,
      "thunderbird": 5367,
      "dance": 5368,
      "faced": 5369,
      "vic": 5370,
      "vess": 5371,
      "##lings": 5372,
      "##rane": 5373,
      "##writ": 5374,
      "##aming": 5375,
      "spl": 5376,
      "note": 5377,
      "boat": 5378,
      "relatively": 5379,
      "18th": 5380,
      "emph": 5381,
      "drive": 5382,
      "student": 5383,
      "medical": 5384,
      "effort": 5385,
      "extra": 5386,
      "require": 5387,
      "letter": 5388,
      "transferred": 5389,
      "maximum": 5390,
      "washington": 5391,
      "gang": 5392,
      "kg": 5393,
      "##een": 5394,
      "##tv": 5395,
      "##bour": 5396,
      "frag": 5397,
      "attended": 5398,
      "chor": 5399,
      "##ulate": 5400,
      "##odon": 5401,
      "##ills": 5402,
      "unlike": 5403,
      "##iana": 5404,
      "compound": 5405,
      "feed": 5406,
      "1988": 5407,
      "older": 5408,
      "tried": 5409,
      "organized": 5410,
      "clean": 5411,
      "function": 5412,
      "females": 5413,
      "freeway": 5414,
      "piece": 5415,
      "agricult": 5416,
      "eat": 5417,
      "rod": 5418,
      "##kare": 5419,
      "##rect": 5420,
      "##eck": 5421,
      "##adel": 5422,
      "conver": 5423,
      "proved": 5424,
      "##ishu": 5425,
      "##gend": 5426,
      "notable": 5427,
      "imper": 5428,
      "charge": 5429,
      "opin": 5430,
      "helms": 5431,
      "element": 5432,
      "golden": 5433,
      "meanwhile": 5434,
      "beyond": 5435,
      "target": 5436,
      "omaha": 5437,
      "joseph": 5438,
      "alabama": 5439,
      "46": 5440,
      "64": 5441,
      "die": 5442,
      "eth": 5443,
      "kent": 5444,
      "##uous": 5445,
      "shape": 5446,
      "##umber": 5447,
      "##ogen": 5448,
      "images": 5449,
      "flag": 5450,
      "divided": 5451,
      "edward": 5452,
      "designated": 5453,
      "possibly": 5454,
      "believe": 5455,
      "baseball": 5456,
      "animal": 5457,
      "archaeological": 5458,
      "literature": 5459,
      "intensity": 5460,
      "determined": 5461,
      "cust": 5462,
      "cub": 5463,
      "dar": 5464,
      "draft": 5465,
      "rar": 5466,
      "##iations": 5467,
      "##ta": 5468,
      "##wide": 5469,
      "##itness": 5470,
      "plum": 5471,
      "prime": 5472,
      "##izes": 5473,
      "weight": 5474,
      "follows": 5475,
      "1960s": 5476,
      "repe": 5477,
      "trip": 5478,
      "results": 5479,
      "charts": 5480,
      "paid": 5481,
      "argent": 5482,
      "innis": 5483,
      "institute": 5484,
      "dissip": 5485,
      "mogadishu": 5486,
      "fix": 5487,
      "md": 5488,
      "mouth": 5489,
      "sens": 5490,
      "ingr": 5491,
      "##station": 5492,
      "unkn": 5493,
      "content": 5494,
      "arms": 5495,
      "creation": 5496,
      "1980s": 5497,
      "1940": 5498,
      "1964": 5499,
      "returning": 5500,
      "supporting": 5501,
      "restaur": 5502,
      "visual": 5503,
      "solo": 5504,
      "historian": 5505,
      "structures": 5506,
      "homes": 5507,
      "treaty": 5508,
      "mccall": 5509,
      "simply": 5510,
      "wilhelm": 5511,
      "emphas": 5512,
      "iv": 5513,
      "jup": 5514,
      "kore": 5515,
      "pine": 5516,
      "paint": 5517,
      "rit": 5518,
      "sis": 5519,
      "##lied": 5520,
      "##ero": 5521,
      "onto": 5522,
      "reaction": 5523,
      "##otes": 5524,
      "##osh": 5525,
      "##agan": 5526,
      "underground": 5527,
      "mind": 5528,
      "portion": 5529,
      "kept": 5530,
      "importance": 5531,
      "projects": 5532,
      "purs": 5533,
      "technology": 5534,
      "knowledge": 5535,
      "growing": 5536,
      "secretary": 5537,
      "economic": 5538,
      "couple": 5539,
      "entrance": 5540,
      "rugby": 5541,
      "equipment": 5542,
      "lane": 5543,
      "rare": 5544,
      "##wise": 5545,
      "##urb": 5546,
      "##ety": 5547,
      "##ette": 5548,
      "chos": 5549,
      "deploy": 5550,
      "legend": 5551,
      "perm": 5552,
      "playstation": 5553,
      "filming": 5554,
      "depth": 5555,
      "leader": 5556,
      "grew": 5557,
      "weekly": 5558,
      "##where": 5559,
      "argued": 5560,
      "railway": 5561,
      "55": 5562,
      "53": 5563,
      "au": 5564,
      "eag": 5565,
      "rise": 5566,
      "rih": 5567,
      "##oe": 5568,
      "share": 5569,
      "##istry": 5570,
      "##asty": 5571,
      "weak": 5572,
      "flu": 5573,
      "miner": 5574,
      "guest": 5575,
      "landing": 5576,
      "publication": 5577,
      "suggests": 5578,
      "criticism": 5579,
      "hamels": 5580,
      "buried": 5581,
      "currently": 5582,
      "##timore": 5583,
      "baltimore": 5584,
      "website": 5585,
      "rihanna": 5586,
      "gained": 5587,
      "les": 5588,
      "tact": 5589,
      "##mes": 5590,
      "##esis": 5591,
      "##acement": 5592,
      "lew": 5593,
      "coal": 5594,
      "belong": 5595,
      "advanced": 5596,
      "causing": 5597,
      "reference": 5598,
      "palest": 5599,
      "criticized": 5600,
      "orders": 5601,
      "label": 5602,
      "volume": 5603,
      "religion": 5604,
      "escape": 5605,
      "synth": 5606,
      "breeding": 5607,
      "djed": 5608,
      "jupiter": 5609,
      "56": 5610,
      "5th": 5611,
      "ba": 5612,
      "ib": 5613,
      "math": 5614,
      "oh": 5615,
      "##ez": 5616,
      "##rative": 5617,
      "##fl": 5618,
      "##eratops": 5619,
      "##edar": 5620,
      "inch": 5621,
      "stock": 5622,
      "##irt": 5623,
      "adj": 5624,
      "containing": 5625,
      "newly": 5626,
      "##prise": 5627,
      "democr": 5628,
      "reaching": 5629,
      "debuted": 5630,
      "claims": 5631,
      "property": 5632,
      "dismiss": 5633,
      "abandoned": 5634,
      "multiple": 5635,
      "micro": 5636,
      "prominent": 5637,
      "horses": 5638,
      "djedkare": 5639,
      "bru": 5640,
      "hib": 5641,
      "outer": 5642,
      "##po": 5643,
      "##och": 5644,
      "##vin": 5645,
      "theory": 5646,
      "##orter": 5647,
      "beaut": 5648,
      "shel": 5649,
      "excl": 5650,
      "enemy": 5651,
      "column": 5652,
      "defin": 5653,
      "defend": 5654,
      "1947": 5655,
      "glass": 5656,
      "personnel": 5657,
      "torres": 5658,
      "volun": 5659,
      "encoun": 5660,
      "faith": 5661,
      "administration": 5662,
      "chosen": 5663,
      "43": 5664,
      "ahead": 5665,
      "bell": 5666,
      "jon": 5667,
      "kings": 5668,
      "mut": 5669,
      "##ati": 5670,
      "##enge": 5671,
      "rejected": 5672,
      "##osoph": 5673,
      "try": 5674,
      "trou": 5675,
      "##ached": 5676,
      "consecutive": 5677,
      "120": 5678,
      "youth": 5679,
      "cases": 5680,
      "favour": 5681,
      "strike": 5682,
      "cells": 5683,
      "seems": 5684,
      "granted": 5685,
      "molec": 5686,
      "unknown": 5687,
      "cart": 5688,
      "igu": 5689,
      "ry": 5690,
      "atm": 5691,
      "deities": 5692,
      "secondary": 5693,
      "dram": 5694,
      "1941": 5695,
      "visited": 5696,
      "commonly": 5697,
      "##white": 5698,
      "settlement": 5699,
      "condition": 5700,
      "chapter": 5701,
      "increasingly": 5702,
      "scottish": 5703,
      "francis": 5704,
      "crazy": 5705,
      "straight": 5706,
      "applewhite": 5707,
      "bc": 5708,
      "bbc": 5709,
      "haven": 5710,
      "##la": 5711,
      "##lam": 5712,
      "##more": 5713,
      "anonymous": 5714,
      "unf": 5715,
      "train": 5716,
      "truth": 5717,
      "##phia": 5718,
      "regions": 5719,
      "max": 5720,
      "seconds": 5721,
      "broke": 5722,
      "address": 5723,
      "1987": 5724,
      "barb": 5725,
      "##azz": 5726,
      "passing": 5727,
      "towns": 5728,
      "systems": 5729,
      "versions": 5730,
      "request": 5731,
      "growth": 5732,
      "identified": 5733,
      "problem": 5734,
      "nominated": 5735,
      "senior": 5736,
      "temperature": 5737,
      "wounded": 5738,
      "risk": 5739,
      "dvd": 5740,
      "##adelphia": 5741,
      "atmosph": 5742,
      "41": 5743,
      "bat": 5744,
      "greek": 5745,
      "hart": 5746,
      "kir": 5747,
      "ring": 5748,
      "rac": 5749,
      "save": 5750,
      "##dh": 5751,
      "thing": 5752,
      "##ala": 5753,
      "congress": 5754,
      "sud": 5755,
      "unique": 5756,
      "trust": 5757,
      "operated": 5758,
      "1970s": 5759,
      "promoted": 5760,
      "killing": 5761,
      "philosoph": 5762,
      "egyptian": 5763,
      "fantasy": 5764,
      "9th": 5765,
      "cry": 5766,
      "dw": 5767,
      "fame": 5768,
      "fash": 5769,
      "opt": 5770,
      "rub": 5771,
      "selling": 5772,
      "##lines": 5773,
      "##iant": 5774,
      "##ike": 5775,
      "##mun": 5776,
      "##iced": 5777,
      "##ads": 5778,
      "stations": 5779,
      "fired": 5780,
      "applic": 5781,
      "nothing": 5782,
      "colour": 5783,
      "aired": 5784,
      "slam": 5785,
      "1989": 5786,
      "1984": 5787,
      "famous": 5788,
      "1972": 5789,
      "roads": 5790,
      "opposed": 5791,
      "mike": 5792,
      "ode": 5793,
      "agreement": 5794,
      "memorial": 5795,
      "urban": 5796,
      "premier": 5797,
      "motor": 5798,
      "croatia": 5799,
      "accompan": 5800,
      "4th": 5801,
      "54": 5802,
      "bern": 5803,
      "camb": 5804,
      "hyp": 5805,
      "mig": 5806,
      "tell": 5807,
      "##nest": 5808,
      "##aine": 5809,
      "##ighth": 5810,
      "##abb": 5811,
      "arc": 5812,
      "##ordin": 5813,
      "serve": 5814,
      "cool": 5815,
      "##rick": 5816,
      "1985": 5817,
      "repair": 5818,
      "raid": 5819,
      "swed": 5820,
      "controlled": 5821,
      "biograph": 5822,
      "virt": 5823,
      "animals": 5824,
      "choice": 5825,
      "ai": 5826,
      "ari": 5827,
      "hms": 5828,
      "mand": 5829,
      "none": 5830,
      "sin": 5831,
      "tan": 5832,
      "tail": 5833,
      "vert": 5834,
      "##asc": 5835,
      "##rey": 5836,
      "##stream": 5837,
      "stan": 5838,
      "sund": 5839,
      "##ips": 5840,
      "boats": 5841,
      "contact": 5842,
      "gram": 5843,
      "reserv": 5844,
      "interchange": 5845,
      "indu": 5846,
      "filmed": 5847,
      "writes": 5848,
      "drama": 5849,
      "1960": 5850,
      "myth": 5851,
      "explained": 5852,
      "speak": 5853,
      "ideas": 5854,
      "cardiff": 5855,
      "subsequent": 5856,
      "semi": 5857,
      "pieces": 5858,
      "cougar": 5859,
      "poetry": 5860,
      "crowd": 5861,
      "confirmed": 5862,
      "bit": 5863,
      "gord": 5864,
      "gives": 5865,
      "lov": 5866,
      "rog": 5867,
      "vul": 5868,
      "##icient": 5869,
      "reun": 5870,
      "chains": 5871,
      "leon": 5872,
      "impress": 5873,
      "bright": 5874,
      "joint": 5875,
      "consisted": 5876,
      "register": 5877,
      "invasion": 5878,
      "landfall": 5879,
      "1944": 5880,
      "130": 5881,
      "trial": 5882,
      "keats": 5883,
      "calc": 5884,
      "michigan": 5885,
      "philadelphia": 5886,
      "pitched": 5887,
      "regarded": 5888,
      "rapidly": 5889,
      "weapons": 5890,
      "families": 5891,
      "herself": 5892,
      "bats": 5893,
      "dry": 5894,
      "fal": 5895,
      "mir": 5896,
      "matter": 5897,
      "##aust": 5898,
      "##don": 5899,
      "##iqu": 5900,
      "##icks": 5901,
      "shell": 5902,
      "##umes": 5903,
      "send": 5904,
      "##illo": 5905,
      "extend": 5906,
      "resemb": 5907,
      "maria": 5908,
      "actors": 5909,
      "mush": 5910,
      "highlight": 5911,
      "##awa": 5912,
      "minim": 5913,
      "1990s": 5914,
      "transit": 5915,
      "maintained": 5916,
      "##resp": 5917,
      "humans": 5918,
      "value": 5919,
      "battalions": 5920,
      "williams": 5921,
      "premi": 5922,
      "injury": 5923,
      "dropped": 5924,
      "seventh": 5925,
      "failure": 5926,
      "aspects": 5927,
      "57": 5928,
      "dani": 5929,
      "gulf": 5930,
      "##ls": 5931,
      "##inity": 5932,
      "why": 5933,
      "##otyp": 5934,
      "fresh": 5935,
      "carl": 5936,
      "retired": 5937,
      "southeast": 5938,
      "phase": 5939,
      "##fully": 5940,
      "steam": 5941,
      "province": 5942,
      "extensive": 5943,
      "belief": 5944,
      "fung": 5945,
      "penins": 5946,
      "prepared": 5947,
      "dutch": 5948,
      "600": 5949,
      "bost": 5950,
      "catch": 5951,
      "dial": 5952,
      "drop": 5953,
      "gain": 5954,
      "ice": 5955,
      "mist": 5956,
      "rot": 5957,
      "##ja": 5958,
      "andy": 5959,
      "##iring": 5960,
      "italy": 5961,
      "chel": 5962,
      "##uli": 5963,
      "orch": 5964,
      "##ieval": 5965,
      "abu": 5966,
      "flank": 5967,
      "mah": 5968,
      "southwest": 5969,
      "concer": 5970,
      "steve": 5971,
      "medieval": 5972,
      "km2": 5973,
      "protection": 5974,
      "laid": 5975,
      "connected": 5976,
      "significantly": 5977,
      "creating": 5978,
      "jeff": 5979,
      "sustained": 5980,
      "bes": 5981,
      "gas": 5982,
      "kur": 5983,
      "rival": 5984,
      "wolf": 5985,
      "##onom": 5986,
      "##itable": 5987,
      "trail": 5988,
      "adapt": 5989,
      "perh": 5990,
      "emotion": 5991,
      "americans": 5992,
      "supply": 5993,
      "passes": 5994,
      "basket": 5995,
      "champion": 5996,
      "finding": 5997,
      "facilities": 5998,
      "walls": 5999,
      "producers": 6000,
      "recognized": 6001,
      "budget": 6002,
      "scheduled": 6003,
      "lieut": 6004,
      "96": 6005,
      "gab": 6006,
      "hem": 6007,
      "hell": 6008,
      "sought": 6009,
      "wish": 6010,
      "##ees": 6011,
      "thin": 6012,
      "##aria": 6013,
      "##rete": 6014,
      "stones": 6015,
      "chose": 6016,
      "reconst": 6017,
      "cooper": 6018,
      "parall": 6019,
      "monument": 6020,
      "##amese": 6021,
      "crus": 6022,
      "distingu": 6023,
      "starts": 6024,
      "delay": 6025,
      "surviv": 6026,
      "popularity": 6027,
      "nucleus": 6028,
      "powers": 6029,
      "conservation": 6030,
      "necessary": 6031,
      "intelligence": 6032,
      "surrender": 6033,
      "perhaps": 6034,
      "cited": 6035,
      "fought": 6036,
      "il": 6037,
      "rating": 6038,
      "##mark": 6039,
      "##can": 6040,
      "##ato": 6041,
      "##isy": 6042,
      "##theless": 6043,
      "##olved": 6044,
      "altar": 6045,
      "consequ": 6046,
      "comic": 6047,
      "exec": 6048,
      "unus": 6049,
      "recently": 6050,
      "soft": 6051,
      "generation": 6052,
      "1981": 6053,
      "##apping": 6054,
      "household": 6055,
      "losses": 6056,
      "treatment": 6057,
      "martin": 6058,
      "vietnamese": 6059,
      "frequently": 6060,
      "policy": 6061,
      "libr": 6062,
      "iguan": 6063,
      "dated": 6064,
      "motion": 6065,
      "naz": 6066,
      "nathan": 6067,
      "##cription": 6068,
      "##fort": 6069,
      "##eda": 6070,
      "seg": 6071,
      "##ifying": 6072,
      "cole": 6073,
      "ends": 6074,
      "crash": 6075,
      "depend": 6076,
      "prompt": 6077,
      "priest": 6078,
      "regarding": 6079,
      "employed": 6080,
      "gradually": 6081,
      "constitution": 6082,
      "degree": 6083,
      "bottom": 6084,
      "thunderbirds": 6085,
      "cambod": 6086,
      "700": 6087,
      "bin": 6088,
      "fellow": 6089,
      "ron": 6090,
      "sap": 6091,
      "wis": 6092,
      "##oen": 6093,
      "##onent": 6094,
      "##elle": 6095,
      "shaped": 6096,
      "comes": 6097,
      "##sey": 6098,
      "contained": 6099,
      "gray": 6100,
      "prefer": 6101,
      "attorn": 6102,
      "wars": 6103,
      "##ologists": 6104,
      "##oys": 6105,
      "distribution": 6106,
      "179": 6107,
      "steph": 6108,
      "collected": 6109,
      "1939": 6110,
      "convention": 6111,
      "finds": 6112,
      "industrial": 6113,
      "wrest": 6114,
      "safety": 6115,
      "conduct": 6116,
      "oxford": 6117,
      "pilot": 6118,
      "##eastern": 6119,
      "psych": 6120,
      "peninsula": 6121,
      "attorney": 6122,
      "73": 6123,
      "eld": 6124,
      "kang": 6125,
      "nc": 6126,
      "vice": 6127,
      "##lusion": 6128,
      "##thur": 6129,
      "##iments": 6130,
      "cham": 6131,
      "lev": 6132,
      "##sea": 6133,
      "contributed": 6134,
      "join": 6135,
      "gameplay": 6136,
      "wins": 6137,
      "worldwide": 6138,
      "severe": 6139,
      "simple": 6140,
      "17th": 6141,
      "1942": 6142,
      "serving": 6143,
      "allows": 6144,
      "macle": 6145,
      "improved": 6146,
      "negative": 6147,
      "##borough": 6148,
      "athletes": 6149,
      "astron": 6150,
      "habitat": 6151,
      "cinem": 6152,
      "fashion": 6153,
      "gordon": 6154,
      "62": 6155,
      "61": 6156,
      "95": 6157,
      "aston": 6158,
      "cd": 6159,
      "egg": 6160,
      "fan": 6161,
      "lisa": 6162,
      "nba": 6163,
      "sie": 6164,
      "ty": 6165,
      "witness": 6166,
      "##ias": 6167,
      "##ua": 6168,
      "store": 6169,
      "##ivity": 6170,
      "alf": 6171,
      "frame": 6172,
      "##opes": 6173,
      "neither": 6174,
      "##acks": 6175,
      "incident": 6176,
      "##ansas": 6177,
      "portra": 6178,
      "concrete": 6179,
      "##ancing": 6180,
      "1950s": 6181,
      "1918": 6182,
      "turner": 6183,
      "solid": 6184,
      "effective": 6185,
      "programs": 6186,
      "electric": 6187,
      "championships": 6188,
      "entirely": 6189,
      "commissioned": 6190,
      "economy": 6191,
      "fictional": 6192,
      "dynasty": 6193,
      "challeng": 6194,
      "volunte": 6195,
      "lieutenant": 6196,
      "800": 6197,
      "97": 6198,
      "cav": 6199,
      "dates": 6200,
      "hind": 6201,
      "jain": 6202,
      "pap": 6203,
      "ts": 6204,
      "##iot": 6205,
      "##ris": 6206,
      "##rig": 6207,
      "##iled": 6208,
      "stages": 6209,
      "##eton": 6210,
      "items": 6211,
      "pros": 6212,
      "##apes": 6213,
      "boise": 6214,
      "##outs": 6215,
      "mario": 6216,
      "floor": 6217,
      "canal": 6218,
      "centuries": 6219,
      "muslim": 6220,
      "setting": 6221,
      "transm": 6222,
      "1968": 6223,
      "1969": 6224,
      "expanded": 6225,
      "sentence": 6226,
      "turk": 6227,
      "earthqu": 6228,
      "reasons": 6229,
      "negot": 6230,
      "normal": 6231,
      "slowly": 6232,
      "drawn": 6233,
      "sweet": 6234,
      "europium": 6235,
      "kilometres": 6236,
      "imperial": 6237,
      "lewis": 6238,
      "exclus": 6239,
      "boston": 6240,
      "dota": 6241,
      "gully": 6242,
      "han": 6243,
      "jac": 6244,
      "poll": 6245,
      "tall": 6246,
      "##rum": 6247,
      "##rang": 6248,
      "##win": 6249,
      "##ingly": 6250,
      "##rec": 6251,
      "##lywood": 6252,
      "##ched": 6253,
      "##erse": 6254,
      "plate": 6255,
      "upd": 6256,
      "decade": 6257,
      "decades": 6258,
      "12th": 6259,
      "1975": 6260,
      "juan": 6261,
      "deaths": 6262,
      "planning": 6263,
      "russian": 6264,
      "attract": 6265,
      "chemical": 6266,
      "experienced": 6267,
      "municip": 6268,
      "roughly": 6269,
      "expedition": 6270,
      "chorus": 6271,
      "72": 6272,
      "85": 6273,
      "bart": 6274,
      "gil": 6275,
      "gross": 6276,
      "kits": 6277,
      "nich": 6278,
      "##de": 6279,
      "##iences": 6280,
      "##mans": 6281,
      "##asure": 6282,
      "##amin": 6283,
      "stal": 6284,
      "##ola": 6285,
      "##ayer": 6286,
      "##ava": 6287,
      "firm": 6288,
      "worth": 6289,
      "allied": 6290,
      "##oked": 6291,
      "evita": 6292,
      "interact": 6293,
      "engaged": 6294,
      "pope": 6295,
      "terror": 6296,
      "1965": 6297,
      "1974": 6298,
      "didn": 6299,
      "greg": 6300,
      "avenue": 6301,
      "evening": 6302,
      "##ographic": 6303,
      "organiz": 6304,
      "authors": 6305,
      "patrol": 6306,
      "##bridge": 6307,
      "summ": 6308,
      "massive": 6309,
      "transportation": 6310,
      "eyes": 6311,
      "girls": 6312,
      "occupied": 6313,
      "occasionally": 6314,
      "81": 6315,
      "94": 6316,
      "hin": 6317,
      "loy": 6318,
      "merc": 6319,
      "sector": 6320,
      "ye": 6321,
      "##set": 6322,
      "##pass": 6323,
      "##oir": 6324,
      "##uan": 6325,
      "##uate": 6326,
      "##erted": 6327,
      "##ini": 6328,
      "##ompl": 6329,
      "##adh": 6330,
      "##ading": 6331,
      "##ider": 6332,
      "isol": 6333,
      "isab": 6334,
      "##utz": 6335,
      "##ersey": 6336,
      "##istan": 6337,
      "recre": 6338,
      "adap": 6339,
      "bron": 6340,
      "quite": 6341,
      "##anny": 6342,
      "churches": 6343,
      "editor": 6344,
      "passeng": 6345,
      "additionally": 6346,
      "laws": 6347,
      "##shire": 6348,
      "speaking": 6349,
      "successfully": 6350,
      "holy": 6351,
      "violence": 6352,
      "dollar": 6353,
      "platform": 6354,
      "purchased": 6355,
      "disappear": 6356,
      "khanh": 6357,
      "71": 6358,
      "jurch": 6359,
      "rome": 6360,
      "rivers": 6361,
      "wick": 6362,
      "wides": 6363,
      "##sw": 6364,
      "##ule": 6365,
      "##inn": 6366,
      "##ela": 6367,
      "##thm": 6368,
      "##anda": 6369,
      "abb": 6370,
      "marsh": 6371,
      "brid": 6372,
      "formula": 6373,
      "liu": 6374,
      "brook": 6375,
      "simon": 6376,
      "164": 6377,
      "declined": 6378,
      "jamal": 6379,
      "wedding": 6380,
      "bath": 6381,
      "drew": 6382,
      "hang": 6383,
      "map": 6384,
      "rene": 6385,
      "sail": 6386,
      "##hire": 6387,
      "##yson": 6388,
      "##itan": 6389,
      "##lyss": 6390,
      "arsen": 6391,
      "spons": 6392,
      "marl": 6393,
      "accompl": 6394,
      "remn": 6395,
      "assass": 6396,
      "elimin": 6397,
      "subm": 6398,
      "longest": 6399,
      "160": 6400,
      "1946": 6401,
      "owners": 6402,
      "protagon": 6403,
      "corpor": 6404,
      "arrival": 6405,
      "details": 6406,
      "stret": 6407,
      "experiment": 6408,
      "politics": 6409,
      "brian": 6410,
      "begun": 6411,
      "pupp": 6412,
      "dublin": 6413,
      "learned": 6414,
      "tennyson": 6415,
      "briefly": 6416,
      "purpose": 6417,
      "category": 6418,
      "permanent": 6419,
      "paintings": 6420,
      "macleod": 6421,
      "cul": 6422,
      "cos": 6423,
      "jes": 6424,
      "sar": 6425,
      "sid": 6426,
      "tu": 6427,
      "zone": 6428,
      "##eed": 6429,
      "##eals": 6430,
      "##han": 6431,
      "##town": 6432,
      "##arian": 6433,
      "##ules": 6434,
      "##ocated": 6435,
      "grav": 6436,
      "marine": 6437,
      "applied": 6438,
      "impr": 6439,
      "interior": 6440,
      "accident": 6441,
      "moves": 6442,
      "guide": 6443,
      "simone": 6444,
      "adding": 6445,
      "performing": 6446,
      "crime": 6447,
      "1950": 6448,
      "possibility": 6449,
      "basin": 6450,
      "billion": 6451,
      "technical": 6452,
      "settlers": 6453,
      "braz": 6454,
      "literary": 6455,
      "exception": 6456,
      "thirty": 6457,
      "hydro": 6458,
      "instrument": 6459,
      "ble": 6460,
      "hired": 6461,
      "kat": 6462,
      "lit": 6463,
      "lic": 6464,
      "##rence": 6465,
      "##atus": 6466,
      "##amy": 6467,
      "albert": 6468,
      "##utation": 6469,
      "seat": 6470,
      "##unk": 6471,
      "unsu": 6472,
      "##iance": 6473,
      "contrib": 6474,
      "roof": 6475,
      "##ffman": 6476,
      "acres": 6477,
      "door": 6478,
      "guy": 6479,
      "phill": 6480,
      "calls": 6481,
      "developing": 6482,
      "1966": 6483,
      "1952": 6484,
      "justice": 6485,
      "corresp": 6486,
      "deter": 6487,
      "1936": 6488,
      "1919": 6489,
      "fields": 6490,
      "freed": 6491,
      "discovery": 6492,
      "happy": 6493,
      "participated": 6494,
      "##worth": 6495,
      "symbol": 6496,
      "enjoyed": 6497,
      "routes": 6498,
      "responded": 6499,
      "accompanied": 6500,
      "earthquake": 6501,
      "correspond": 6502,
      "fuel": 6503,
      "hip": 6504,
      "hung": 6505,
      "ulyss": 6506,
      "##rons": 6507,
      "##bled": 6508,
      "ther": 6509,
      "##eds": 6510,
      "##isers": 6511,
      "ones": 6512,
      "heard": 6513,
      "##oses": 6514,
      "uns": 6515,
      "##okes": 6516,
      "decre": 6517,
      "charter": 6518,
      "brothers": 6519,
      "populations": 6520,
      "belt": 6521,
      "oldest": 6522,
      "110": 6523,
      "177": 6524,
      "stew": 6525,
      "heads": 6526,
      "characteristics": 6527,
      "clubs": 6528,
      "moon": 6529,
      "initi": 6530,
      "speech": 6531,
      "competitions": 6532,
      "combination": 6533,
      "engineering": 6534,
      "existing": 6535,
      "existence": 6536,
      "painting": 6537,
      "anthony": 6538,
      "ulysses": 6539,
      "77": 6540,
      "dru": 6541,
      "dock": 6542,
      "fount": 6543,
      "ni": 6544,
      "vision": 6545,
      "##pread": 6546,
      "##ym": 6547,
      "##ications": 6548,
      "##aked": 6549,
      "lear": 6550,
      "##pty": 6551,
      "##ipl": 6552,
      "reserve": 6553,
      "marc": 6554,
      "goes": 6555,
      "carib": 6556,
      "joy": 6557,
      "consists": 6558,
      "##phy": 6559,
      "subt": 6560,
      "submar": 6561,
      "1973": 6562,
      "magic": 6563,
      "grey": 6564,
      "1930": 6565,
      "lasted": 6566,
      "reviewers": 6567,
      "typical": 6568,
      "younger": 6569,
      "coastal": 6570,
      "dougl": 6571,
      "biography": 6572,
      "cardinal": 6573,
      "funding": 6574,
      "dominated": 6575,
      "neck": 6576,
      "benef": 6577,
      "thousands": 6578,
      "opportunity": 6579,
      "turkish": 6580,
      "widespread": 6581,
      "59": 6582,
      "aim": 6583,
      "caught": 6584,
      "fit": 6585,
      "gri": 6586,
      "jazz": 6587,
      "kenn": 6588,
      "mine": 6589,
      "pav": 6590,
      "rum": 6591,
      "task": 6592,
      "##ni": 6593,
      "##zer": 6594,
      "##com": 6595,
      "##come": 6596,
      "##uct": 6597,
      "##water": 6598,
      "##aser": 6599,
      "##iday": 6600,
      "##usal": 6601,
      "chance": 6602,
      "supre": 6603,
      "##iston": 6604,
      "tra": 6605,
      "resident": 6606,
      "usa": 6607,
      "capable": 6608,
      "receiving": 6609,
      "depict": 6610,
      "1967": 6611,
      "expans": 6612,
      "anything": 6613,
      "missing": 6614,
      "greatly": 6615,
      "classic": 6616,
      "turning": 6617,
      "reality": 6618,
      "everything": 6619,
      "mountains": 6620,
      "georg": 6621,
      "affair": 6622,
      "technique": 6623,
      "holding": 6624,
      "closely": 6625,
      "cruiser": 6626,
      "stopped": 6627,
      "substant": 6628,
      "##works": 6629,
      "hornung": 6630,
      "vehicles": 6631,
      "weakened": 6632,
      "ceremony": 6633,
      "unsuccess": 6634,
      "66": 6635,
      "98": 6636,
      "cens": 6637,
      "jersey": 6638,
      "ori": 6639,
      "tas": 6640,
      "tells": 6641,
      "witch": 6642,
      "##aire": 6643,
      "##born": 6644,
      "##itors": 6645,
      "##ici": 6646,
      "##iles": 6647,
      "##agre": 6648,
      "allah": 6649,
      "aml": 6650,
      "descend": 6651,
      "evac": 6652,
      "flash": 6653,
      "decline": 6654,
      "noisy": 6655,
      "monarch": 6656,
      "acid": 6657,
      "175": 6658,
      "provides": 6659,
      "headed": 6660,
      "serves": 6661,
      "myc": 6662,
      "1930s": 6663,
      "1914": 6664,
      "courts": 6665,
      "legacy": 6666,
      "storyline": 6667,
      "similarly": 6668,
      "colonial": 6669,
      "railroad": 6670,
      "inspir": 6671,
      "derived": 6672,
      "creator": 6673,
      "rules": 6674,
      "banks": 6675,
      "assistant": 6676,
      "restaurant": 6677,
      "iguanodon": 6678,
      "astronom": 6679,
      "caribbe": 6680,
      "6th": 6681,
      "bought": 6682,
      "kel": 6683,
      "pup": 6684,
      "rio": 6685,
      "sed": 6686,
      "sort": 6687,
      "##laim": 6688,
      "##cle": 6689,
      "##body": 6690,
      "inner": 6691,
      "##entially": 6692,
      "##pton": 6693,
      "grade": 6694,
      "##athers": 6695,
      "resour": 6696,
      "##ifications": 6697,
      "supposed": 6698,
      "locations": 6699,
      "invited": 6700,
      "downlo": 6701,
      "classified": 6702,
      "viewed": 6703,
      "survived": 6704,
      "palace": 6705,
      "##araj": 6706,
      "reading": 6707,
      "falls": 6708,
      "hills": 6709,
      "innings": 6710,
      "flights": 6711,
      "rolling": 6712,
      "filled": 6713,
      "haiti": 6714,
      "battleship": 6715,
      "dissipated": 6716,
      "chelsea": 6717,
      "orchest": 6718,
      "douglas": 6719,
      "caribbean": 6720,
      "cot": 6721,
      "dim": 6722,
      "jay": 6723,
      "rural": 6724,
      "sang": 6725,
      "table": 6726,
      "##har": 6727,
      "##zac": 6728,
      "##ram": 6729,
      "##rest": 6730,
      "##vens": 6731,
      "asia": 6732,
      "##cher": 6733,
      "##estone": 6734,
      "shared": 6735,
      "##agn": 6736,
      "##abil": 6737,
      "exact": 6738,
      "trying": 6739,
      "worship": 6740,
      "perry": 6741,
      "resist": 6742,
      "evil": 6743,
      "maeda": 6744,
      "receive": 6745,
      "novels": 6746,
      "1945": 6747,
      "1971": 6748,
      "describing": 6749,
      "ways": 6750,
      "destiny": 6751,
      "georgian": 6752,
      "electronic": 6753,
      "regional": 6754,
      "colonel": 6755,
      "rebu": 6756,
      "watched": 6757,
      "establishment": 6758,
      "puzz": 6759,
      "alien": 6760,
      "constantine": 6761,
      "ratings": 6762,
      "acquired": 6763,
      "opinion": 6764,
      "custom": 6765,
      "repeated": 6766,
      "eagle": 6767,
      "hibari": 6768,
      "atmosphere": 6769,
      "dan": 6770,
      "eighth": 6771,
      "fine": 6772,
      "gate": 6773,
      "jones": 6774,
      "lad": 6775,
      "mtv": 6776,
      "pack": 6777,
      "qedar": 6778,
      "von": 6779,
      "##ruli": 6780,
      "##ji": 6781,
      "##acity": 6782,
      "##eme": 6783,
      "anton": 6784,
      "##ighter": 6785,
      "##aka": 6786,
      "exerc": 6787,
      "spacing": 6788,
      "boys": 6789,
      "amate": 6790,
      "intention": 6791,
      "whereas": 6792,
      "phoen": 6793,
      "1982": 6794,
      "crimin": 6795,
      "176": 6796,
      "steel": 6797,
      "evergl": 6798,
      "moder": 6799,
      "entry": 6800,
      "demand": 6801,
      "romani": 6802,
      "penalty": 6803,
      "focused": 6804,
      "venus": 6805,
      "teaching": 6806,
      "mortal": 6807,
      "opposition": 6808,
      "boliv": 6809,
      "converted": 6810,
      "library": 6811,
      "everglades": 6812,
      "dod": 6813,
      "dating": 6814,
      "ech": 6815,
      "lamb": 6816,
      "mul": 6817,
      "wy": 6818,
      "##bur": 6819,
      "##ona": 6820,
      "##ador": 6821,
      "franch": 6822,
      "##iful": 6823,
      "plun": 6824,
      "enl": 6825,
      "recru": 6826,
      "pregn": 6827,
      "knew": 6828,
      "##issance": 6829,
      "regime": 6830,
      "infr": 6831,
      "1980": 6832,
      "depicted": 6833,
      "lover": 6834,
      "1976": 6835,
      "providing": 6836,
      "1956": 6837,
      "protect": 6838,
      "1916": 6839,
      "1913": 6840,
      "250": 6841,
      "explos": 6842,
      "entering": 6843,
      "moz": 6844,
      "engineers": 6845,
      "poems": 6846,
      "uncle": 6847,
      "assistance": 6848,
      "renamed": 6849,
      "arranged": 6850,
      "oslo": 6851,
      "succeeded": 6852,
      "rescue": 6853,
      "mushroom": 6854,
      "brazil": 6855,
      "69": 6856,
      "87": 6857,
      "8th": 6858,
      "lenn": 6859,
      "tied": 6860,
      "##rant": 6861,
      "##ilton": 6862,
      "conqu": 6863,
      "orn": 6864,
      "##ardo": 6865,
      "lee": 6866,
      "##elli": 6867,
      "##ights": 6868,
      "agent": 6869,
      "partners": 6870,
      "attached": 6871,
      "defined": 6872,
      "strateg": 6873,
      "supplies": 6874,
      "10th": 6875,
      "112": 6876,
      "1943": 6877,
      "expos": 6878,
      "camps": 6879,
      "township": 6880,
      "communist": 6881,
      "##book": 6882,
      "prize": 6883,
      "##ipping": 6884,
      "certified": 6885,
      "holds": 6886,
      "tomb": 6887,
      "separated": 6888,
      "immig": 6889,
      "credited": 6890,
      "credits": 6891,
      "methods": 6892,
      "consisting": 6893,
      "romantic": 6894,
      "ghost": 6895,
      "article": 6896,
      "delivered": 6897,
      "citiz": 6898,
      "basketball": 6899,
      "siege": 6900,
      "fel": 6901,
      "hits": 6902,
      "patt": 6903,
      "sad": 6904,
      "##ns": 6905,
      "##bles": 6906,
      "##eman": 6907,
      "##uls": 6908,
      "hear": 6909,
      "##uma": 6910,
      "##rier": 6911,
      "print": 6912,
      "spin": 6913,
      "##ube": 6914,
      "desire": 6915,
      "outstanding": 6916,
      "pole": 6917,
      "secure": 6918,
      "##ropri": 6919,
      "depos": 6920,
      "stevens": 6921,
      "1963": 6922,
      "commanded": 6923,
      "morrison": 6924,
      "professor": 6925,
      "##iece": 6926,
      "civilian": 6927,
      "colonies": 6928,
      "rangers": 6929,
      "athletic": 6930,
      "examples": 6931,
      "controversy": 6932,
      "dinosaur": 6933,
      "rarely": 6934,
      "sudden": 6935,
      "hindu": 6936,
      "adapted": 6937,
      "nas": 6938,
      "util": 6939,
      "voy": 6940,
      "##kins": 6941,
      "##burg": 6942,
      "##xe": 6943,
      "##je": 6944,
      "##aling": 6945,
      "##rot": 6946,
      "##emia": 6947,
      "chess": 6948,
      "plain": 6949,
      "arthur": 6950,
      "unn": 6951,
      "unl": 6952,
      "leaves": 6953,
      "prey": 6954,
      "##mann": 6955,
      "remar": 6956,
      "##issipp": 6957,
      "eliz": 6958,
      "soil": 6959,
      "##attle": 6960,
      "transform": 6961,
      "mississipp": 6962,
      "reputation": 6963,
      "protected": 6964,
      "classes": 6965,
      "australians": 6966,
      "correct": 6967,
      "##oba": 6968,
      "window": 6969,
      "walter": 6970,
      "references": 6971,
      "labour": 6972,
      "circum": 6973,
      "hollywood": 6974,
      "archaeology": 6975,
      "indicate": 6976,
      "montana": 6977,
      "accounts": 6978,
      "##aska": 6979,
      "remainder": 6980,
      "bradford": 6981,
      "shooting": 6982,
      "utc": 6983,
      "finishing": 6984,
      "portrayed": 6985,
      "alexander": 6986,
      "columbia": 6987,
      "truj": 6988,
      "ritual": 6989,
      "sunday": 6990,
      "daniel": 6991,
      "fountain": 6992,
      "ecc": 6993,
      "lat": 6994,
      "tests": 6995,
      "vent": 6996,
      "##ture": 6997,
      "online": 6998,
      "conte": 6999,
      "freder": 7000,
      "anzac": 7001,
      "worst": 7002,
      "soul": 7003,
      "warm": 7004,
      "undert": 7005,
      "divine": 7006,
      "16th": 7007,
      "11th": 7008,
      "1978": 7009,
      "missions": 7010,
      "1953": 7011,
      "turns": 7012,
      "occurs": 7013,
      "introduction": 7014,
      "facing": 7015,
      "producing": 7016,
      "memory": 7017,
      "denied": 7018,
      "appoint": 7019,
      "maryland": 7020,
      "feelings": 7021,
      "specifically": 7022,
      "hearts": 7023,
      "threatened": 7024,
      "croatian": 7025,
      "chairman": 7026,
      "agricultural": 7027,
      "trujillo": 7028,
      "bos": 7029,
      "rand": 7030,
      "##no": 7031,
      "##ti": 7032,
      "##ora": 7033,
      "##enz": 7034,
      "##entions": 7035,
      "##uri": 7036,
      "alan": 7037,
      "##agues": 7038,
      "proh": 7039,
      "exit": 7040,
      "noting": 7041,
      "roxas": 7042,
      "offense": 7043,
      "interested": 7044,
      "indig": 7045,
      "acts": 7046,
      "##ocked": 7047,
      "strand": 7048,
      "studied": 7049,
      "divisions": 7050,
      "appearing": 7051,
      "leads": 7052,
      "stef": 7053,
      "passage": 7054,
      "successor": 7055,
      "sword": 7056,
      "bush": 7057,
      "communities": 7058,
      "views": 7059,
      "replace": 7060,
      "statement": 7061,
      "connection": 7062,
      "wooden": 7063,
      "homer": 7064,
      "getting": 7065,
      "scientific": 7066,
      "recognition": 7067,
      "samuel": 7068,
      "feeling": 7069,
      "substit": 7070,
      "favorite": 7071,
      "masters": 7072,
      "alternative": 7073,
      "charlie": 7074,
      "mississippi": 7075,
      "7th": 7076,
      "91": 7077,
      "eu": 7078,
      "nbc": 7079,
      "##ients": 7080,
      "##hed": 7081,
      "##rations": 7082,
      "##mel": 7083,
      "##cy": 7084,
      "##oz": 7085,
      "##gie": 7086,
      "nether": 7087,
      "##pping": 7088,
      "brand": 7089,
      "warri": 7090,
      "howard": 7091,
      "maintain": 7092,
      "##ructure": 7093,
      "1915": 7094,
      "reviewer": 7095,
      "basic": 7096,
      "seeing": 7097,
      "activision": 7098,
      "predec": 7099,
      "wrong": 7100,
      "duke": 7101,
      "lords": 7102,
      "dollars": 7103,
      "dynam": 7104,
      "gallery": 7105,
      "principal": 7106,
      "picture": 7107,
      "rifles": 7108,
      "message": 7109,
      "global": 7110,
      "##break": 7111,
      "dismissed": 7112,
      "arsenal": 7113,
      "supreme": 7114,
      "plunket": 7115,
      "79": 7116,
      "gam": 7117,
      "##sch": 7118,
      "##taining": 7119,
      "##30": 7120,
      "##orters": 7121,
      "##oul": 7122,
      "##elve": 7123,
      "##str": 7124,
      "##acent": 7125,
      "##ersed": 7126,
      "plants": 7127,
      "twelve": 7128,
      "##onder": 7129,
      "attributed": 7130,
      "charges": 7131,
      "knots": 7132,
      "##aws": 7133,
      "retire": 7134,
      "capacity": 7135,
      "122": 7136,
      "##ront": 7137,
      "instruct": 7138,
      "continuing": 7139,
      "enterprise": 7140,
      "calvert": 7141,
      "opponents": 7142,
      "changing": 7143,
      "involvement": 7144,
      "veget": 7145,
      "tribes": 7146,
      "drawing": 7147,
      "academic": 7148,
      "hugh": 7149,
      "discussed": 7150,
      "ninth": 7151,
      "considerable": 7152,
      "extrem": 7153,
      "specimens": 7154,
      "isabella": 7155,
      "74": 7156,
      "cu": 7157,
      "dna": 7158,
      "danny": 7159,
      "fab": 7160,
      "hud": 7161,
      "session": 7162,
      "saraj": 7163,
      "tie": 7164,
      "taught": 7165,
      "vary": 7166,
      "yank": 7167,
      "##iar": 7168,
      "##eenth": 7169,
      "theater": 7170,
      "##orer": 7171,
      "inland": 7172,
      "##itage": 7173,
      "##rel": 7174,
      "sty": 7175,
      "forests": 7176,
      "##oting": 7177,
      "##osis": 7178,
      "shut": 7179,
      "##aga": 7180,
      "##ctions": 7181,
      "exchange": 7182,
      "##arts": 7183,
      "leuk": 7184,
      "marks": 7185,
      "carbon": 7186,
      "wealth": 7187,
      "offers": 7188,
      "##kson": 7189,
      "someone": 7190,
      "releg": 7191,
      "1948": 7192,
      "collect": 7193,
      "1917": 7194,
      "##ews": 7195,
      "standards": 7196,
      "settle": 7197,
      "difficulty": 7198,
      "ruled": 7199,
      "towers": 7200,
      "scholar": 7201,
      "sevent": 7202,
      "photograph": 7203,
      "##evo": 7204,
      "challenge": 7205,
      "adventure": 7206,
      "dangerous": 7207,
      "stephen": 7208,
      "kitsune": 7209,
      "sarajevo": 7210,
      "88": 7211,
      "99": 7212,
      "cory": 7213,
      "faces": 7214,
      "jif": 7215,
      "##eu": 7216,
      "##fri": 7217,
      "##6th": 7218,
      "##elin": 7219,
      "##idden": 7220,
      "alg": 7221,
      "shore": 7222,
      "spr": 7223,
      "##tegr": 7224,
      "manner": 7225,
      "decor": 7226,
      "subs": 7227,
      "signing": 7228,
      "discip": 7229,
      "1979": 7230,
      "campb": 7231,
      "1951": 7232,
      "demol": 7233,
      "superior": 7234,
      "rocky": 7235,
      "talk": 7236,
      "teacher": 7237,
      "autom": 7238,
      "absor": 7239,
      "guardian": 7240,
      "victoria": 7241,
      "split": 7242,
      "emotional": 7243,
      "bolivar": 7244,
      "frederick": 7245,
      "yankovic": 7246,
      "ah": 7247,
      "dag": 7248,
      "mam": 7249,
      "mode": 7250,
      "nap": 7251,
      "page": 7252,
      "races": 7253,
      "si": 7254,
      "sell": 7255,
      "tig": 7256,
      "wim": 7257,
      "yan": 7258,
      "##eper": 7259,
      "##err": 7260,
      "##esc": 7261,
      "##itled": 7262,
      "##aments": 7263,
      "alph": 7264,
      "##imet": 7265,
      "shop": 7266,
      "##avia": 7267,
      "proceed": 7268,
      "##abeth": 7269,
      "##berts": 7270,
      "heritage": 7271,
      "cloud": 7272,
      "##anger": 7273,
      "##ultane": 7274,
      "joe": 7275,
      "##iously": 7276,
      "consum": 7277,
      "##graded": 7278,
      "##ugu": 7279,
      "simultane": 7280,
      "121": 7281,
      "landed": 7282,
      "1961": 7283,
      "breaking": 7284,
      "1954": 7285,
      "archb": 7286,
      "brigades": 7287,
      "replacement": 7288,
      "historians": 7289,
      "nighting": 7290,
      "crossing": 7291,
      "relationships": 7292,
      "observations": 7293,
      "ancest": 7294,
      "nomination": 7295,
      "##know": 7296,
      "leadership": 7297,
      "somali": 7298,
      "candidate": 7299,
      "clarkson": 7300,
      "parallel": 7301,
      "chamber": 7302,
      "mozamb": 7303,
      "jifna": 7304,
      "fro": 7305,
      "gle": 7306,
      "lap": 7307,
      "santa": 7308,
      "tank": 7309,
      "##nell": 7310,
      "##dal": 7311,
      "##wich": 7312,
      "##orous": 7313,
      "##isf": 7314,
      "##eline": 7315,
      "##ivals": 7316,
      "##aya": 7317,
      "##ceived": 7318,
      "##osa": 7319,
      "sher": 7320,
      "##istol": 7321,
      "##illing": 7322,
      "cloth": 7323,
      "##raf": 7324,
      "roberts": 7325,
      "marines": 7326,
      "agency": 7327,
      "parties": 7328,
      "partial": 7329,
      "secured": 7330,
      "blocks": 7331,
      "teeth": 7332,
      "paras": 7333,
      "accur": 7334,
      "simps": 7335,
      "estate": 7336,
      "##ropol": 7337,
      "distributed": 7338,
      "classical": 7339,
      "1937": 7340,
      "legs": 7341,
      "believes": 7342,
      "walk": 7343,
      "destroyers": 7344,
      "brien": 7345,
      "rooms": 7346,
      "wilde": 7347,
      "jerusal": 7348,
      "bringing": 7349,
      "adults": 7350,
      "skye": 7351,
      "bono": 7352,
      "documentary": 7353,
      "picked": 7354,
      "intersection": 7355,
      "behavi": 7356,
      "recommended": 7357,
      "##ranean": 7358,
      "francisco": 7359,
      "fungus": 7360,
      "organizations": 7361,
      "amateur": 7362,
      "extremely": 7363,
      "nightingale": 7364,
      "simpsons": 7365,
      "jerusalem": 7366,
      "bure": 7367,
      "diet": 7368,
      "gone": 7369,
      "gather": 7370,
      "ml": 7371,
      "pir": 7372,
      "sections": 7373,
      "wic": 7374,
      "##iable": 7375,
      "##eor": 7376,
      "##hi": 7377,
      "##gas": 7378,
      "##asions": 7379,
      "##rected": 7380,
      "##eland": 7381,
      "##umps": 7382,
      "##avada": 7383,
      "clay": 7384,
      "adam": 7385,
      "adams": 7386,
      "carter": 7387,
      "genre": 7388,
      "showing": 7389,
      "annivers": 7390,
      "missed": 7391,
      "1955": 7392,
      "godd": 7393,
      "listen": 7394,
      "streets": 7395,
      "##iveness": 7396,
      "windows": 7397,
      "##ivalent": 7398,
      "surviving": 7399,
      "nevertheless": 7400,
      "hamilton": 7401,
      "territories": 7402,
      "languages": 7403,
      "multi": 7404,
      "banai": 7405,
      "immediate": 7406,
      "surrounded": 7407,
      "olympics": 7408,
      "concerns": 7409,
      "rifle": 7410,
      "diameter": 7411,
      "extreme": 7412,
      "tunnel": 7413,
      "argentina": 7414,
      "municipal": 7415,
      "isolated": 7416,
      "learning": 7417,
      "expansion": 7418,
      "3d": 7419,
      "82": 7420,
      "89": 7421,
      "dipl": 7422,
      "gor": 7423,
      "hoc": 7424,
      "lanc": 7425,
      "option": 7426,
      "pale": 7427,
      "sons": 7428,
      "tick": 7429,
      "vac": 7430,
      "wants": 7431,
      "##nic": 7432,
      "##ping": 7433,
      "##ois": 7434,
      "##inals": 7435,
      "##ester": 7436,
      "##eness": 7437,
      "##rets": 7438,
      "##adow": 7439,
      "1900": 7440,
      "existed": 7441,
      "prer": 7442,
      "##ears": 7443,
      "##oven": 7444,
      "firing": 7445,
      "mans": 7446,
      "web": 7447,
      "flat": 7448,
      "##wealth": 7449,
      "retreat": 7450,
      "armor": 7451,
      "cris": 7452,
      "gerard": 7453,
      "1958": 7454,
      "protests": 7455,
      "tries": 7456,
      "detail": 7457,
      "detailed": 7458,
      "commonwealth": 7459,
      "heaven": 7460,
      "mole": 7461,
      "ceratops": 7462,
      "ruler": 7463,
      "approached": 7464,
      "inhabit": 7465,
      "institutions": 7466,
      "arrangement": 7467,
      "emerged": 7468,
      "encouraged": 7469,
      "admiral": 7470,
      "compounds": 7471,
      "ryan": 7472,
      "reunion": 7473,
      "portrait": 7474,
      "inspiration": 7475,
      "anniversary": 7476,
      "fern": 7477,
      "kit": 7478,
      "las": 7479,
      "na": 7480,
      "pip": 7481,
      "sight": 7482,
      "##ooth": 7483,
      "##itals": 7484,
      "##inger": 7485,
      "##rell": 7486,
      "##elet": 7487,
      "##iling": 7488,
      "stem": 7489,
      "asc": 7490,
      "bear": 7491,
      "mega": 7492,
      "cob": 7493,
      "##ensis": 7494,
      "flo": 7495,
      "songwrit": 7496,
      "pointed": 7497,
      "counties": 7498,
      "1949": 7499,
      "1977": 7500,
      "designation": 7501,
      "implement": 7502,
      "corp": 7503,
      "triple": 7504,
      "videos": 7505,
      "internal": 7506,
      "attempting": 7507,
      "treated": 7508,
      "crossed": 7509,
      "equal": 7510,
      "suffering": 7511,
      "regularly": 7512,
      "admitted": 7513,
      "sequel": 7514,
      "norman": 7515,
      "institution": 7516,
      "choir": 7517,
      "hoped": 7518,
      "giant": 7519,
      "climate": 7520,
      "apparent": 7521,
      "lbw": 7522,
      "roger": 7523,
      "unusual": 7524,
      "eggs": 7525,
      "renew": 7526,
      "freedom": 7527,
      "lennon": 7528,
      "07": 7529,
      "63": 7530,
      "kid": 7531,
      "lam": 7532,
      "ped": 7533,
      "pion": 7534,
      "sulf": 7535,
      "sessions": 7536,
      "tales": 7537,
      "##pret": 7538,
      "##yon": 7539,
      "##ook": 7540,
      "##arf": 7541,
      "anek": 7542,
      "##using": 7543,
      "##rif": 7544,
      "##unt": 7545,
      "##antly": 7546,
      "##uda": 7547,
      "herge": 7548,
      "relative": 7549,
      "desert": 7550,
      "serial": 7551,
      "aged": 7552,
      "goffman": 7553,
      "fled": 7554,
      "indeed": 7555,
      "assumed": 7556,
      "acknow": 7557,
      "airline": 7558,
      "transition": 7559,
      "musicians": 7560,
      "meteor": 7561,
      "##roll": 7562,
      "owner": 7563,
      "medium": 7564,
      "13th": 7565,
      "imposs": 7566,
      "verse": 7567,
      "harv": 7568,
      "visible": 7569,
      "##inking": 7570,
      "approved": 7571,
      "convoy": 7572,
      "possession": 7573,
      "##aurus": 7574,
      "footage": 7575,
      "strongly": 7576,
      "statistics": 7577,
      "##ombat": 7578,
      "rhodes": 7579,
      "identity": 7580,
      "improve": 7581,
      "kilmer": 7582,
      "duties": 7583,
      "hundreds": 7584,
      "janeiro": 7585,
      "wearing": 7586,
      "reconstruction": 7587,
      "crusad": 7588,
      "saprang": 7589,
      "caval": 7590,
      "protagonist": 7591,
      "initiative": 7592,
      "resources": 7593,
      "franchise": 7594,
      "prohib": 7595,
      "06": 7596,
      "93": 7597,
      "bce": 7598,
      "cater": 7599,
      "craft": 7600,
      "hi": 7601,
      "kin": 7602,
      "pure": 7603,
      "wings": 7604,
      "##pe": 7605,
      "##rates": 7606,
      "##tw": 7607,
      "##wen": 7608,
      "ina": 7609,
      "##icts": 7610,
      "##uses": 7611,
      "heat": 7612,
      "shif": 7613,
      "shakes": 7614,
      "##odies": 7615,
      "proport": 7616,
      "dean": 7617,
      "##ables": 7618,
      "##eare": 7619,
      "reconna": 7620,
      "ages": 7621,
      "partly": 7622,
      "meets": 7623,
      "preced": 7624,
      "##prising": 7625,
      "intercept": 7626,
      "accused": 7627,
      "embar": 7628,
      "winner": 7629,
      "starling": 7630,
      "armour": 7631,
      "1983": 7632,
      "medal": 7633,
      "collabor": 7634,
      "trials": 7635,
      "easily": 7636,
      "1920": 7637,
      "lawton": 7638,
      "debate": 7639,
      "cycle": 7640,
      "##whel": 7641,
      "##encies": 7642,
      "looked": 7643,
      "indicated": 7644,
      "practices": 7645,
      "camera": 7646,
      "richardson": 7647,
      "##ometric": 7648,
      "hunting": 7649,
      "jean": 7650,
      "completion": 7651,
      "concerned": 7652,
      "pleasure": 7653,
      "attracted": 7654,
      "owen": 7655,
      "watershed": 7656,
      "cabin": 7657,
      "specimen": 7658,
      "terminus": 7659,
      "doubt": 7660,
      "fixed": 7661,
      "adjacent": 7662,
      "dramatic": 7663,
      "concerts": 7664,
      "jesus": 7665,
      "##bledon": 7666,
      "georgia": 7667,
      "circumst": 7668,
      "wimbledon": 7669,
      "behaviour": 7670,
      "prerog": 7671,
      "reconnaissance": 7672,
      "ax": 7673,
      "boss": 7674,
      "hat": 7675,
      "jag": 7676,
      "ky": 7677,
      "mant": 7678,
      "pink": 7679,
      "rated": 7680,
      "ward": 7681,
      "##how": 7682,
      "##zen": 7683,
      "##organ": 7684,
      "##imate": 7685,
      "shots": 7686,
      "##umin": 7687,
      "prol": 7688,
      "##allow": 7689,
      "##ishing": 7690,
      "spaces": 7691,
      "##oking": 7692,
      "aggress": 7693,
      "pool": 7694,
      "parks": 7695,
      "recordings": 7696,
      "understand": 7697,
      "ministry": 7698,
      "artific": 7699,
      "162": 7700,
      "metall": 7701,
      "##ahl": 7702,
      "persp": 7703,
      "destruction": 7704,
      "patron": 7705,
      "moral": 7706,
      "effectively": 7707,
      "influences": 7708,
      "falling": 7709,
      "verte": 7710,
      "settled": 7711,
      "composer": 7712,
      "queens": 7713,
      "reduce": 7714,
      "cambridge": 7715,
      "traveled": 7716,
      "exhaust": 7717,
      "emerg": 7718,
      "publishing": 7719,
      "purchase": 7720,
      "rhythm": 7721,
      "diamond": 7722,
      "somalia": 7723,
      "doctor": 7724,
      "sculpture": 7725,
      "congreg": 7726,
      "incorporated": 7727,
      "korean": 7728,
      "remnants": 7729,
      "download": 7730,
      "05": 7731,
      "58": 7732,
      "ak": 7733,
      "ace": 7734,
      "bert": 7735,
      "cant": 7736,
      "hob": 7737,
      "kombat": 7738,
      "nom": 7739,
      "sb": 7740,
      "##hu": 7741,
      "##yard": 7742,
      "##cia": 7743,
      "##bie": 7744,
      "##vis": 7745,
      "##itated": 7746,
      "##emet": 7747,
      "aniston": 7748,
      "##opl": 7749,
      "##ifer": 7750,
      "recalled": 7751,
      "grace": 7752,
      "afterwards": 7753,
      "displ": 7754,
      "impl": 7755,
      "overwhel": 7756,
      "parish": 7757,
      "accomm": 7758,
      "somewh": 7759,
      "mayor": 7760,
      "##aware": 7761,
      "driving": 7762,
      "obtained": 7763,
      "operating": 7764,
      "lob": 7765,
      "advis": 7766,
      "attacking": 7767,
      "storms": 7768,
      "aviation": 7769,
      "1910": 7770,
      "restoration": 7771,
      "eleven": 7772,
      "keamy": 7773,
      "solar": 7774,
      "##attered": 7775,
      "victims": 7776,
      "stands": 7777,
      "1909": 7778,
      "merch": 7779,
      "selection": 7780,
      "meetings": 7781,
      "holiday": 7782,
      "pitcher": 7783,
      "funds": 7784,
      "measures": 7785,
      "##going": 7786,
      "garcia": 7787,
      "painted": 7788,
      "seemed": 7789,
      "absol": 7790,
      "essential": 7791,
      "recovered": 7792,
      "controversial": 7793,
      "architecture": 7794,
      "behavior": 7795,
      "bridges": 7796,
      "puppet": 7797,
      "pupils": 7798,
      "context": 7799,
      "accommod": 7800,
      "somewhat": 7801,
      "08": 7802,
      "cave": 7803,
      "cake": 7804,
      "ira": 7805,
      "matt": 7806,
      "oak": 7807,
      "pier": 7808,
      "rag": 7809,
      "tone": 7810,
      "##hm": 7811,
      "##oom": 7812,
      "##arth": 7813,
      "##icate": 7814,
      "##real": 7815,
      "##thosaurus": 7816,
      "##idae": 7817,
      "islam": 7818,
      "fraser": 7819,
      "unp": 7820,
      "spend": 7821,
      "##achus": 7822,
      "abd": 7823,
      "manus": 7824,
      "flower": 7825,
      "interaction": 7826,
      "param": 7827,
      "consc": 7828,
      "preserved": 7829,
      "poland": 7830,
      "generals": 7831,
      "divor": 7832,
      "origins": 7833,
      "##annah": 7834,
      "directors": 7835,
      "johnston": 7836,
      "barr": 7837,
      "germans": 7838,
      "##eera": 7839,
      "1935": 7840,
      "1931": 7841,
      "1912": 7842,
      "convin": 7843,
      "lowest": 7844,
      "representing": 7845,
      "destroyer": 7846,
      "praise": 7847,
      "circulation": 7848,
      "researchers": 7849,
      "rebels": 7850,
      "hosted": 7851,
      "escort": 7852,
      "normally": 7853,
      "panel": 7854,
      "linked": 7855,
      "arabic": 7856,
      "opposite": 7857,
      "throwing": 7858,
      "cancer": 7859,
      "distinguished": 7860,
      "passengers": 7861,
      "elizabeth": 7862,
      "plunketts": 7863,
      "corythosaurus": 7864,
      "goddess": 7865,
      "crisis": 7866,
      "shakesp": 7867,
      "68": 7868,
      "bone": 7869,
      "bapt": 7870,
      "covers": 7871,
      "dc": 7872,
      "fate": 7873,
      "fia": 7874,
      "fold": 7875,
      "gib": 7876,
      "icon": 7877,
      "pad": 7878,
      "sab": 7879,
      "tong": 7880,
      "tailed": 7881,
      "ust": 7882,
      "wine": 7883,
      "##rus": 7884,
      "##cement": 7885,
      "##uz": 7886,
      "thro": 7887,
      "##atures": 7888,
      "##olay": 7889,
      "##ira": 7890,
      "##otic": 7891,
      "answ": 7892,
      "sees": 7893,
      "enth": 7894,
      "recur": 7895,
      "clock": 7896,
      "income": 7897,
      "disaster": 7898,
      "carp": 7899,
      "interpret": 7900,
      "forming": 7901,
      "##ribed": 7902,
      "monuments": 7903,
      "defences": 7904,
      "defended": 7905,
      "willing": 7906,
      "helmet": 7907,
      "expensive": 7908,
      "returns": 7909,
      "##tendo": 7910,
      "1932": 7911,
      "waterfall": 7912,
      "trading": 7913,
      "propag": 7914,
      "crosses": 7915,
      "palmy": 7916,
      "covering": 7917,
      "programme": 7918,
      "equipped": 7919,
      "limit": 7920,
      "audio": 7921,
      "difficulties": 7922,
      "satur": 7923,
      "stayed": 7924,
      "judge": 7925,
      "responsibility": 7926,
      "princess": 7927,
      "nintendo": 7928,
      "junior": 7929,
      "carrying": 7930,
      "mobile": 7931,
      "elsewhere": 7932,
      "vessel": 7933,
      "sisters": 7934,
      "stanley": 7935,
      "marlborough": 7936,
      "infrast": 7937,
      "archbishop": 7938,
      "hockey": 7939,
      "inaug": 7940,
      "prerogative": 7941,
      "artificial": 7942,
      "shakespeare": 7943,
      "az": 7944,
      "bang": 7945,
      "cull": 7946,
      "cemet": 7947,
      "eric": 7948,
      "hay": 7949,
      "ken": 7950,
      "lith": 7951,
      "voted": 7952,
      "wag": 7953,
      "##put": 7954,
      "##ugh": 7955,
      "##burn": 7956,
      "##ware": 7957,
      "##xts": 7958,
      "##onica": 7959,
      "integr": 7960,
      "##icide": 7961,
      "##reh": 7962,
      "##ithic": 7963,
      "alter": 7964,
      "comments": 7965,
      "##ishment": 7966,
      "spur": 7967,
      "fei": 7968,
      "agree": 7969,
      "otherwise": 7970,
      "canter": 7971,
      "##amps": 7972,
      "ell": 7973,
      "elabor": 7974,
      "supporters": 7975,
      "stead": 7976,
      "occasions": 7977,
      "confeder": 7978,
      "geoff": 7979,
      "arrested": 7980,
      "glad": 7981,
      "1911": 7982,
      "universal": 7983,
      "internet": 7984,
      "switch": 7985,
      "promote": 7986,
      "villages": 7987,
      "1921": 7988,
      "1929": 7989,
      "patri": 7990,
      "patrick": 7991,
      "lawrence": 7992,
      "##scop": 7993,
      "defeating": 7994,
      "horiz": 7995,
      "burning": 7996,
      "tribut": 7997,
      "catech": 7998,
      "ambass": 7999,
      "bombard": 8000,
      "thousand": 8001,
      "legislation": 8002,
      "pushed": 8003,
      "environmental": 8004,
      "beautiful": 8005,
      "survivors": 8006,
      "elder": 8007,
      "citizens": 8008,
      "netherlands": 8009,
      "diplom": 8010,
      "fernand": 8011,
      "impossible": 8012,
      "manuscript": 8013,
      "bore": 8014,
      "citing": 8015,
      "dens": 8016,
      "gates": 8017,
      "holl": 8018,
      "nad": 8019,
      "pin": 8020,
      "pig": 8021,
      "rib": 8022,
      "tight": 8023,
      "tale": 8024,
      "##rich": 8025,
      "##rating": 8026,
      "theor": 8027,
      "##eries": 8028,
      "##arm": 8029,
      "##ician": 8030,
      "##acle": 8031,
      "##etime": 8032,
      "##uting": 8033,
      "chron": 8034,
      "##ifies": 8035,
      "##oceratops": 8036,
      "##oster": 8037,
      "abund": 8038,
      "amino": 8039,
      "margin": 8040,
      "charity": 8041,
      "acclaim": 8042,
      "underst": 8043,
      "understanding": 8044,
      "retained": 8045,
      "161": 8046,
      "crush": 8047,
      "1962": 8048,
      "mediter": 8049,
      "1959": 8050,
      "raj": 8051,
      "raff": 8052,
      "raise": 8053,
      "1938": 8054,
      "streak": 8055,
      "periods": 8056,
      "##quez": 8057,
      "equivalent": 8058,
      "involving": 8059,
      "voiced": 8060,
      "atlanta": 8061,
      "tribute": 8062,
      "closer": 8063,
      "observatory": 8064,
      "objects": 8065,
      "intensified": 8066,
      "products": 8067,
      "pitman": 8068,
      "accompany": 8069,
      "disappo": 8070,
      "garden": 8071,
      "##heim": 8072,
      "doctr": 8073,
      "sleep": 8074,
      "vessels": 8075,
      "cryst": 8076,
      "batsman": 8077,
      "##iques": 8078,
      "cambodia": 8079,
      "preferred": 8080,
      "unsuccessful": 8081,
      "resistance": 8082,
      "criminal": 8083,
      "stefani": 8084,
      "cemetery": 8085,
      "67": 8086,
      "86": 8087,
      "cbs": 8088,
      "dor": 8089,
      "gent": 8090,
      "gust": 8091,
      "hou": 8092,
      "nur": 8093,
      "nurs": 8094,
      "rect": 8095,
      "sic": 8096,
      "u2": 8097,
      "va": 8098,
      "wet": 8099,
      "##rator": 8100,
      "##fare": 8101,
      "##uv": 8102,
      "##erry": 8103,
      "stable": 8104,
      "##iform": 8105,
      "##aboration": 8106,
      "notably": 8107,
      "twin": 8108,
      "committed": 8109,
      "appropri": 8110,
      "formal": 8111,
      "reveals": 8112,
      "subspec": 8113,
      "phr": 8114,
      "slide": 8115,
      "helic": 8116,
      "collaps": 8117,
      "collaboration": 8118,
      "raf": 8119,
      "furt": 8120,
      "myst": 8121,
      "latex": 8122,
      "convection": 8123,
      "temples": 8124,
      "1920s": 8125,
      "causes": 8126,
      "criticised": 8127,
      "needs": 8128,
      "fallen": 8129,
      "doesn": 8130,
      "narrative": 8131,
      "antiqu": 8132,
      "housing": 8133,
      "absence": 8134,
      "caes": 8135,
      "visitors": 8136,
      "moments": 8137,
      "aerith": 8138,
      "saved": 8139,
      "##rupted": 8140,
      "sharp": 8141,
      "laboratory": 8142,
      "apparently": 8143,
      "spiritual": 8144,
      "overseas": 8145,
      "proposal": 8146,
      "deployed": 8147,
      "palestine": 8148,
      "democratic": 8149,
      "biographer": 8150,
      "dialogue": 8151,
      "phillies": 8152,
      "canterbury": 8153,
      "catechism": 8154,
      "mediterranean": 8155,
      "subspecies": 8156,
      "09": 8157,
      "dele": 8158,
      "hok": 8159,
      "hull": 8160,
      "kann": 8161,
      "sale": 8162,
      "saves": 8163,
      "##dy": 8164,
      "##rabb": 8165,
      "##math": 8166,
      "##coming": 8167,
      "##boy": 8168,
      "##vn": 8169,
      "##vada": 8170,
      "##vements": 8171,
      "##graf": 8172,
      "##inje": 8173,
      "toll": 8174,
      "##illy": 8175,
      "##lete": 8176,
      "forb": 8177,
      "##igation": 8178,
      "ready": 8179,
      "shipping": 8180,
      "deem": 8181,
      "degr": 8182,
      "##apers": 8183,
      "##illed": 8184,
      "##ocy": 8185,
      "trick": 8186,
      "recon": 8187,
      "manga": 8188,
      "intense": 8189,
      "usd": 8190,
      "canyon": 8191,
      "formally": 8192,
      "warning": 8193,
      "followers": 8194,
      "musician": 8195,
      "loan": 8196,
      "expand": 8197,
      "modified": 8198,
      "considers": 8199,
      "extension": 8200,
      "restrict": 8201,
      "skull": 8202,
      "refers": 8203,
      "markgraf": 8204,
      "posted": 8205,
      "suggesting": 8206,
      "represents": 8207,
      "jackrabb": 8208,
      "representative": 8209,
      "stationed": 8210,
      "inher": 8211,
      "republican": 8212,
      "platoon": 8213,
      "corner": 8214,
      "productions": 8215,
      "krak": 8216,
      "colorado": 8217,
      "journalist": 8218,
      "imagine": 8219,
      "drums": 8220,
      "dawn": 8221,
      "nickn": 8222,
      "trouble": 8223,
      "grammy": 8224,
      "##otype": 8225,
      "##onomy": 8226,
      "submarine": 8227,
      "exposure": 8228,
      "mamm": 8229,
      "bureau": 8230,
      "anekant": 8231,
      "raffles": 8232,
      "helicop": 8233,
      "furtado": 8234,
      "bou": 8235,
      "baker": 8236,
      "cec": 8237,
      "lose": 8238,
      "mud": 8239,
      "nic": 8240,
      "nhl": 8241,
      "tam": 8242,
      "yo": 8243,
      "##lec": 8244,
      "##cements": 8245,
      "##vati": 8246,
      "##esco": 8247,
      "andre": 8248,
      "##ili": 8249,
      "##lets": 8250,
      "##etts": 8251,
      "forg": 8252,
      "##chang": 8253,
      "sholay": 8254,
      "##agas": 8255,
      "seas": 8256,
      "##abled": 8257,
      "##udes": 8258,
      "##iped": 8259,
      "aftermath": 8260,
      "resign": 8261,
      "actual": 8262,
      "remember": 8263,
      "thereaf": 8264,
      "engines": 8265,
      "cape": 8266,
      "166": 8267,
      "obst": 8268,
      "disturb": 8269,
      "depending": 8270,
      "barker": 8271,
      "annually": 8272,
      "persu": 8273,
      "reprodu": 8274,
      "extent": 8275,
      "140": 8276,
      "valky": 8277,
      "communications": 8278,
      "sugar": 8279,
      "ordin": 8280,
      "grounds": 8281,
      "networks": 8282,
      "predators": 8283,
      "innov": 8284,
      "informed": 8285,
      "dominican": 8286,
      "materials": 8287,
      "poorly": 8288,
      "happened": 8289,
      "ranges": 8290,
      "displays": 8291,
      "aware": 8292,
      "ensure": 8293,
      "recovery": 8294,
      "sacred": 8295,
      "purposes": 8296,
      "muscaria": 8297,
      "vehicle": 8298,
      "orbit": 8299,
      "reservoir": 8300,
      "ille": 8301,
      "cotton": 8302,
      "saturday": 8303,
      "deleg": 8304,
      "thereafter": 8305,
      "jenn": 8306,
      "kim": 8307,
      "liv": 8308,
      "lists": 8309,
      "mail": 8310,
      "pull": 8311,
      "rates": 8312,
      "vel": 8313,
      "##life": 8314,
      "##hang": 8315,
      "##oes": 8316,
      "##gam": 8317,
      "##oma": 8318,
      "##owiec": 8319,
      "##osl": 8320,
      "shear": 8321,
      "##ager": 8322,
      "##apy": 8323,
      "##una": 8324,
      "plane": 8325,
      "##ishn": 8326,
      "##acked": 8327,
      "##iang": 8328,
      "boom": 8329,
      "scar": 8330,
      "ago": 8331,
      "coins": 8332,
      "##ricted": 8333,
      "blow": 8334,
      "teen": 8335,
      "consult": 8336,
      "throne": 8337,
      "writings": 8338,
      "driven": 8339,
      "starlings": 8340,
      "obl": 8341,
      "15th": 8342,
      "1940s": 8343,
      "models": 8344,
      "useful": 8345,
      "maggie": 8346,
      "blacks": 8347,
      "childhood": 8348,
      "entitled": 8349,
      "easy": 8350,
      "supern": 8351,
      "radiation": 8352,
      "richmond": 8353,
      "situated": 8354,
      "representatives": 8355,
      "influential": 8356,
      "factors": 8357,
      "fifa": 8358,
      "readers": 8359,
      "salv": 8360,
      "strip": 8361,
      "honour": 8362,
      "talking": 8363,
      "mexican": 8364,
      "camer": 8365,
      "watching": 8366,
      "injuries": 8367,
      "layer": 8368,
      "withdrew": 8369,
      "israeli": 8370,
      "publisher": 8371,
      "opportunities": 8372,
      "excavation": 8373,
      "advertising": 8374,
      "wisni": 8375,
      "nichol": 8376,
      "simultaneously": 8377,
      "infrastructure": 8378,
      "wisniowiec": 8379,
      "02": 8380,
      "78": 8381,
      "900": 8382,
      "benn": 8383,
      "bald": 8384,
      "cass": 8385,
      "jar": 8386,
      "pagan": 8387,
      "ri": 8388,
      "tag": 8389,
      "wel": 8390,
      "##aver": 8391,
      "##eit": 8392,
      "##hol": 8393,
      "##mat": 8394,
      "##mont": 8395,
      "##tav": 8396,
      "##va": 8397,
      "##inian": 8398,
      "##ilst": 8399,
      "##emat": 8400,
      "anime": 8401,
      "analy": 8402,
      "shark": 8403,
      "ark": 8404,
      "spoke": 8405,
      "enfor": 8406,
      "##ogy": 8407,
      "##teenth": 8408,
      "ammun": 8409,
      "roth": 8410,
      "commem": 8411,
      "partially": 8412,
      "brick": 8413,
      "pret": 8414,
      "interests": 8415,
      "norway": 8416,
      "deck": 8417,
      "parvati": 8418,
      "##ugosl": 8419,
      "movements": 8420,
      "driver": 8421,
      "severely": 8422,
      "generated": 8423,
      "101": 8424,
      "123": 8425,
      "originated": 8426,
      "installed": 8427,
      "operate": 8428,
      "155": 8429,
      "113": 8430,
      "passion": 8431,
      "harm": 8432,
      "deliver": 8433,
      "personality": 8434,
      "victories": 8435,
      "moore": 8436,
      "1928": 8437,
      "historically": 8438,
      "funer": 8439,
      "massachus": 8440,
      "burned": 8441,
      "excess": 8442,
      "turb": 8443,
      "fundament": 8444,
      "sequences": 8445,
      "##itzer": 8446,
      "properties": 8447,
      "athletics": 8448,
      "robin": 8449,
      "portugal": 8450,
      "adventures": 8451,
      "instruments": 8452,
      "struggle": 8453,
      "bulls": 8454,
      "wrestling": 8455,
      "jacob": 8456,
      "plateau": 8457,
      "substantial": 8458,
      "circumstances": 8459,
      "anekantavada": 8460,
      "ammunition": 8461,
      "massachusetts": 8462,
      "84": 8463,
      "92": 8464,
      "cov": 8465,
      "esh": 8466,
      "fert": 8467,
      "gary": 8468,
      "gwen": 8469,
      "hamp": 8470,
      "lud": 8471,
      "osc": 8472,
      "rav": 8473,
      "rising": 8474,
      "sans": 8475,
      "tast": 8476,
      "tide": 8477,
      "vast": 8478,
      "yugosl": 8479,
      "##kes": 8480,
      "##oh": 8481,
      "##western": 8482,
      "##onic": 8483,
      "##aled": 8484,
      "##ilation": 8485,
      "##lying": 8486,
      "whilst": 8487,
      "##owa": 8488,
      "fred": 8489,
      "frig": 8490,
      "frust": 8491,
      "shells": 8492,
      "##aku": 8493,
      "price": 8494,
      "spores": 8495,
      "recip": 8496,
      "twins": 8497,
      "contest": 8498,
      "intr": 8499,
      "relie": 8500,
      "agents": 8501,
      "carved": 8502,
      "weigh": 8503,
      "poison": 8504,
      "remark": 8505,
      "sole": 8506,
      "surg": 8507,
      "miller": 8508,
      "metropol": 8509,
      "##ucing": 8510,
      "##yll": 8511,
      "anyone": 8512,
      "raaf": 8513,
      "listing": 8514,
      "1927": 8515,
      "amongst": 8516,
      "hurricanes": 8517,
      "everyone": 8518,
      "casting": 8519,
      "survive": 8520,
      "looks": 8521,
      "mixture": 8522,
      "predomin": 8523,
      "departure": 8524,
      "khand": 8525,
      "biggest": 8526,
      "wilson": 8527,
      "garrison": 8528,
      "establishing": 8529,
      "thinking": 8530,
      "loud": 8531,
      "eaton": 8532,
      "swedish": 8533,
      "affairs": 8534,
      "acknowled": 8535,
      "emergency": 8536,
      "ustase": 8537,
      "kannada": 8538,
      "celt": 8539,
      "caves": 8540,
      "gill": 8541,
      "jr": 8542,
      "kam": 8543,
      "mack": 8544,
      "mental": 8545,
      "pag": 8546,
      "tiss": 8547,
      "wives": 8548,
      "zoo": 8549,
      "##piece": 8550,
      "##uge": 8551,
      "##bal": 8552,
      "##greg": 8553,
      "##inery": 8554,
      "##ares": 8555,
      "##oux": 8556,
      "##state": 8557,
      "wasn": 8558,
      "forty": 8559,
      "bearing": 8560,
      "##agement": 8561,
      "herald": 8562,
      "residence": 8563,
      "resigned": 8564,
      "marry": 8565,
      "marquez": 8566,
      "playoff": 8567,
      "cars": 8568,
      "overl": 8569,
      "##kend": 8570,
      "##weight": 8571,
      "blues": 8572,
      "paraly": 8573,
      "consp": 8574,
      "howe": 8575,
      "divers": 8576,
      "armored": 8577,
      "instance": 8578,
      "ports": 8579,
      "178": 8580,
      "downtown": 8581,
      "loose": 8582,
      "westward": 8583,
      "offices": 8584,
      "##onto": 8585,
      "midge": 8586,
      "classification": 8587,
      "1933": 8588,
      "restored": 8589,
      "harsh": 8590,
      "trek": 8591,
      "trend": 8592,
      "formerly": 8593,
      "compete": 8594,
      "##encing": 8595,
      "sung": 8596,
      "techniques": 8597,
      "fifteen": 8598,
      "burial": 8599,
      "veronica": 8600,
      "select": 8601,
      "creative": 8602,
      "documents": 8603,
      "interesting": 8604,
      "occupation": 8605,
      "boxing": 8606,
      "simpson": 8607,
      "pictures": 8608,
      "experiences": 8609,
      "neighbor": 8610,
      "reinforcements": 8611,
      "tanks": 8612,
      "premiered": 8613,
      "delayed": 8614,
      "gilbert": 8615,
      "terrorist": 8616,
      "corporation": 8617,
      "stewart": 8618,
      "phoenix": 8619,
      "##friend": 8620,
      "yanke": 8621,
      "wicca": 8622,
      "khandoba": 8623,
      "cow": 8624,
      "code": 8625,
      "dak": 8626,
      "denn": 8627,
      "josh": 8628,
      "mall": 8629,
      "mood": 8630,
      "mys": 8631,
      "mcl": 8632,
      "rig": 8633,
      "ride": 8634,
      "##lie": 8635,
      "##mate": 8636,
      "##uable": 8637,
      "##gro": 8638,
      "##ori": 8639,
      "##isters": 8640,
      "##the": 8641,
      "##roit": 8642,
      "wasp": 8643,
      "forcing": 8644,
      "reh": 8645,
      "##ulating": 8646,
      "prove": 8647,
      "succ": 8648,
      "##apse": 8649,
      "plus": 8650,
      "trained": 8651,
      "complic": 8652,
      "resolution": 8653,
      "prep": 8654,
      "attrib": 8655,
      "format": 8656,
      "peach": 8657,
      "##ologies": 8658,
      "drain": 8659,
      "surge": 8660,
      "supplement": 8661,
      "founder": 8662,
      "smooth": 8663,
      "165": 8664,
      "##yline": 8665,
      "continental": 8666,
      "designs": 8667,
      "##ontin": 8668,
      "weekend": 8669,
      "1957": 8670,
      "detroit": 8671,
      "harmon": 8672,
      "universe": 8673,
      "skills": 8674,
      "differences": 8675,
      "frelim": 8676,
      "federation": 8677,
      "21st": 8678,
      "sounds": 8679,
      "toronto": 8680,
      "scientists": 8681,
      "audiences": 8682,
      "wright": 8683,
      "recognised": 8684,
      "costs": 8685,
      "measured": 8686,
      "achieve": 8687,
      "inhg": 8688,
      "clearly": 8689,
      "martial": 8690,
      "preparation": 8691,
      "weapon": 8692,
      "illustrated": 8693,
      "application": 8694,
      "minimum": 8695,
      "jurchen": 8696,
      "imprison": 8697,
      "moderate": 8698,
      "mulder": 8699,
      "retirement": 8700,
      "hudson": 8701,
      "mozambique": 8702,
      "proportion": 8703,
      "wisniowiecki": 8704,
      "frelimo": 8705,
      "bones": 8706,
      "foss": 8707,
      "fasc": 8708,
      "kansas": 8709,
      "mbar": 8710,
      "ns": 8711,
      "pf": 8712,
      "pec": 8713,
      "sant": 8714,
      "tack": 8715,
      "ww": 8716,
      "wonder": 8717,
      "zomb": 8718,
      "##ses": 8719,
      "##rat": 8720,
      "##mus": 8721,
      "##tles": 8722,
      "##cer": 8723,
      "##bn": 8724,
      "##vant": 8725,
      "thor": 8726,
      "##onia": 8727,
      "##rees": 8728,
      "##oli": 8729,
      "##olen": 8730,
      "enh": 8731,
      "clin": 8732,
      "scully": 8733,
      "commons": 8734,
      "usage": 8735,
      "coff": 8736,
      "jobs": 8737,
      "engage": 8738,
      "symp": 8739,
      "defending": 8740,
      "scheme": 8741,
      "starred": 8742,
      "crops": 8743,
      "battlec": 8744,
      "artwork": 8745,
      "163": 8746,
      "crake": 8747,
      "depicts": 8748,
      "##elsen": 8749,
      "barry": 8750,
      "##atherine": 8751,
      "variation": 8752,
      "magdal": 8753,
      "characterized": 8754,
      "christoph": 8755,
      "kevin": 8756,
      "temporary": 8757,
      "promised": 8758,
      "presentation": 8759,
      "cleared": 8760,
      "expert": 8761,
      "elections": 8762,
      "sufficient": 8763,
      "condem": 8764,
      "satisf": 8765,
      "archaeologist": 8766,
      "err": 8767,
      "huge": 8768,
      "objective": 8769,
      "ranging": 8770,
      "badly": 8771,
      "russia": 8772,
      "giants": 8773,
      "grown": 8774,
      "revolutionary": 8775,
      "victorian": 8776,
      "draf": 8777,
      "fatal": 8778,
      "excavations": 8779,
      "mechanical": 8780,
      "##criptions": 8781,
      "ethnic": 8782,
      "cubs": 8783,
      "tactics": 8784,
      "philosophy": 8785,
      "coleman": 8786,
      "cinema": 8787,
      "voyage": 8788,
      "remarked": 8789,
      "convinced": 8790,
      "battlecru": 8791,
      "03": 8792,
      "aster": 8793,
      "bun": 8794,
      "bind": 8795,
      "cel": 8796,
      "dave": 8797,
      "gamb": 8798,
      "hub": 8799,
      "kong": 8800,
      "lia": 8801,
      "nu": 8802,
      "pc": 8803,
      "ruth": 8804,
      "vote": 8805,
      "##night": 8806,
      "##ien": 8807,
      "##right": 8808,
      "##rants": 8809,
      "##yce": 8810,
      "##inus": 8811,
      "##edy": 8812,
      "##inge": 8813,
      "##asm": 8814,
      "##icity": 8815,
      "##icia": 8816,
      "render": 8817,
      "##char": 8818,
      "isot": 8819,
      "##emies": 8820,
      "chanc": 8821,
      "##aints": 8822,
      "##odr": 8823,
      "##opp": 8824,
      "##unction": 8825,
      "nebr": 8826,
      "##akum": 8827,
      "##ategy": 8828,
      "unre": 8829,
      "spar": 8830,
      "boot": 8831,
      "relation": 8832,
      "fee": 8833,
      "feathers": 8834,
      "partner": 8835,
      "cargo": 8836,
      "interpre": 8837,
      "decides": 8838,
      "texts": 8839,
      "warren": 8840,
      "regiments": 8841,
      "revival": 8842,
      "strategy": 8843,
      "install": 8844,
      "crab": 8845,
      "describe": 8846,
      "persian": 8847,
      "designer": 8848,
      "publications": 8849,
      "corb": 8850,
      "arriving": 8851,
      "restricted": 8852,
      "inscription": 8853,
      "eleph": 8854,
      "valuable": 8855,
      "explo": 8856,
      "communication": 8857,
      "1926": 8858,
      "opponent": 8859,
      "cyt": 8860,
      "claiming": 8861,
      "peters": 8862,
      "hamlet": 8863,
      "factory": 8864,
      "davis": 8865,
      "##efa": 8866,
      "striking": 8867,
      "ranking": 8868,
      "closest": 8869,
      "diagn": 8870,
      "quarterback": 8871,
      "duty": 8872,
      "displayed": 8873,
      "mrs": 8874,
      "frequent": 8875,
      "intellect": 8876,
      "magnetic": 8877,
      "magnitude": 8878,
      "aspect": 8879,
      "graphics": 8880,
      "boundary": 8881,
      "determine": 8882,
      "schedule": 8883,
      "protestant": 8884,
      "alleged": 8885,
      "neutral": 8886,
      "feeding": 8887,
      "dwarf": 8888,
      "impressed": 8889,
      "false": 8890,
      "drug": 8891,
      "benefit": 8892,
      "residential": 8893,
      "predecessor": 8894,
      "styles": 8895,
      "inhabitants": 8896,
      "cavalry": 8897,
      "ambassador": 8898,
      "hokies": 8899,
      "oscar": 8900,
      "01": 8901,
      "dies": 8902,
      "dual": 8903,
      "erected": 8904,
      "hans": 8905,
      "jet": 8906,
      "mes": 8907,
      "mitch": 8908,
      "pic": 8909,
      "sas": 8910,
      "tut": 8911,
      "tenth": 8912,
      "##ao": 8913,
      "##bing": 8914,
      "##gov": 8915,
      "##icit": 8916,
      "##eled": 8917,
      "##ecraft": 8918,
      "##acles": 8919,
      "aside": 8920,
      "##iders": 8921,
      "isbn": 8922,
      "chan": 8923,
      "chagas": 8924,
      "uniform": 8925,
      "##ellar": 8926,
      "clust": 8927,
      "abby": 8928,
      "allen": 8929,
      "amph": 8930,
      "##oko": 8931,
      "roots": 8932,
      "##ignment": 8933,
      "brill": 8934,
      "offs": 8935,
      "coin": 8936,
      "outbreak": 8937,
      "centers": 8938,
      "decay": 8939,
      "attained": 8940,
      "charged": 8941,
      "##graph": 8942,
      "revol": 8943,
      "releases": 8944,
      "belg": 8945,
      "armament": 8946,
      "millenn": 8947,
      "##ertain": 8948,
      "deput": 8949,
      "##aham": 8950,
      "commandment": 8951,
      "considering": 8952,
      "arrive": 8953,
      "refuge": 8954,
      "difference": 8955,
      "possess": 8956,
      "explains": 8957,
      "bands": 8958,
      "highways": 8959,
      "argues": 8960,
      "1905": 8961,
      "turks": 8962,
      "machines": 8963,
      "satell": 8964,
      "ruling": 8965,
      "cruise": 8966,
      "dominant": 8967,
      "malley": 8968,
      "strengthened": 8969,
      "anthem": 8970,
      "batteries": 8971,
      "newspapers": 8972,
      "bulk": 8973,
      "degrees": 8974,
      "waiting": 8975,
      "liberal": 8976,
      "leslie": 8977,
      "mathews": 8978,
      "definition": 8979,
      "jonathan": 8980,
      "premiere": 8981,
      "adaptation": 8982,
      "prompted": 8983,
      "exclusively": 8984,
      "updated": 8985,
      "kelly": 8986,
      "settlements": 8987,
      "pioneer": 8988,
      "perspective": 8989,
      "wagner": 8990,
      "deemed": 8991,
      "valkyria": 8992,
      "paralymp": 8993,
      "bom": 8994,
      "banned": 8995,
      "fib": 8996,
      "nut": 8997,
      "nash": 8998,
      "uefa": 8999,
      "##iac": 9000,
      "##hem": 9001,
      "##ko": 9002,
      "##wer": 9003,
      "##jan": 9004,
      "infer": 9005,
      "##anth": 9006,
      "##itively": 9007,
      "##ilty": 9008,
      "##urer": 9009,
      "##roph": 9010,
      "stu": 9011,
      "##olithic": 9012,
      "rend": 9013,
      "shield": 9014,
      "comics": 9015,
      "prosp": 9016,
      "suicide": 9017,
      "deity": 9018,
      "##aki": 9019,
      "export": 9020,
      "exists": 9021,
      "##arte": 9022,
      "herze": 9023,
      "clark": 9024,
      "scattered": 9025,
      "amid": 9026,
      "amaz": 9027,
      "resumed": 9028,
      "carn": 9029,
      "impression": 9030,
      "brain": 9031,
      "coinc": 9032,
      "upset": 9033,
      "earn": 9034,
      "charm": 9035,
      "assess": 9036,
      "assisted": 9037,
      "northward": 9038,
      "northeastern": 9039,
      "artistic": 9040,
      "obv": 9041,
      "metre": 9042,
      "##ucks": 9043,
      "landings": 9044,
      "##rows": 9045,
      "expect": 9046,
      "exposed": 9047,
      "magadh": 9048,
      "inscriptions": 9049,
      "deliber": 9050,
      "handled": 9051,
      "##box": 9052,
      "furthermore": 9053,
      "tourist": 9054,
      "profile": 9055,
      "seek": 9056,
      "jackets": 9057,
      "heroes": 9058,
      "structural": 9059,
      "fifty": 9060,
      "talent": 9061,
      "crews": 9062,
      "testing": 9063,
      "injured": 9064,
      "amounts": 9065,
      "cheval": 9066,
      "celebrated": 9067,
      "investigation": 9068,
      "chronicles": 9069,
      "globe": 9070,
      "distinctive": 9071,
      "defenders": 9072,
      "kurt": 9073,
      "disappeared": 9074,
      "brooks": 9075,
      "##borne": 9076,
      "##burgh": 9077,
      "bertin": 9078,
      "iraq": 9079,
      "nurse": 9080,
      "commemor": 9081,
      "celtic": 9082,
      "nebraska": 9083,
      "##govina": 9084,
      "magadheera": 9085,
      "cod": 9086,
      "cous": 9087,
      "cash": 9088,
      "dd": 9089,
      "dict": 9090,
      "eg": 9091,
      "haz": 9092,
      "lies": 9093,
      "laugh": 9094,
      "pyr": 9095,
      "soph": 9096,
      "wander": 9097,
      "zinc": 9098,
      "##eb": 9099,
      "##rad": 9100,
      "##mouth": 9101,
      "##wa": 9102,
      "##atically": 9103,
      "##icial": 9104,
      "##reet": 9105,
      "##omtav": 9106,
      "##urally": 9107,
      "##adier": 9108,
      "stores": 9109,
      "forth": 9110,
      "##olia": 9111,
      "asomtav": 9112,
      "anch": 9113,
      "chain": 9114,
      "sure": 9115,
      "pryce": 9116,
      "spac": 9117,
      "enters": 9118,
      "abol": 9119,
      "##okovic": 9120,
      "disband": 9121,
      "carre": 9122,
      "carmel": 9123,
      "sheff": 9124,
      "coordin": 9125,
      "pref": 9126,
      "prefect": 9127,
      "paran": 9128,
      "peaking": 9129,
      "emmy": 9130,
      "quant": 9131,
      "southeastern": 9132,
      "guilty": 9133,
      "##endar": 9134,
      "##inton": 9135,
      "117": 9136,
      "runners": 9137,
      "ideal": 9138,
      "triang": 9139,
      "demands": 9140,
      "harold": 9141,
      "swim": 9142,
      "organisation": 9143,
      "approval": 9144,
      "tempor": 9145,
      "basement": 9146,
      "1925": 9147,
      "1924": 9148,
      "referring": 9149,
      "sunk": 9150,
      "tooth": 9151,
      "trophy": 9152,
      "turrets": 9153,
      "circle": 9154,
      "circuit": 9155,
      "1890": 9156,
      "magazines": 9157,
      "madrid": 9158,
      "memor": 9159,
      "rebell": 9160,
      "keys": 9161,
      "murray": 9162,
      "violent": 9163,
      "uncertain": 9164,
      "matth": 9165,
      "prevented": 9166,
      "djokovic": 9167,
      "tournaments": 9168,
      "demonstrated": 9169,
      "delivery": 9170,
      "pursue": 9171,
      "executed": 9172,
      "alfred": 9173,
      "assassination": 9174,
      "nielsen": 9175,
      "substitute": 9176,
      "meteorological": 9177,
      "houston": 9178,
      "yankees": 9179,
      "herzegovina": 9180,
      "asomtavruli": 9181,
      "bible": 9182,
      "dat": 9183,
      "fulf": 9184,
      "gets": 9185,
      "jen": 9186,
      "jur": 9187,
      "lor": 9188,
      "por": 9189,
      "ump": 9190,
      "wik": 9191,
      "##noon": 9192,
      "##hy": 9193,
      "##went": 9194,
      "##vised": 9195,
      "##gars": 9196,
      "##inations": 9197,
      "##esi": 9198,
      "tox": 9199,
      "##adi": 9200,
      "sting": 9201,
      "stood": 9202,
      "##iri": 9203,
      "##ivated": 9204,
      "altered": 9205,
      "congo": 9206,
      "chen": 9207,
      "chest": 9208,
      "##essee": 9209,
      "expression": 9210,
      "##sex": 9211,
      "##arya": 9212,
      "scand": 9213,
      "gran": 9214,
      "afternoon": 9215,
      "feels": 9216,
      "disagre": 9217,
      "evolution": 9218,
      "brack": 9219,
      "weir": 9220,
      "canon": 9221,
      "##osex": 9222,
      "noble": 9223,
      "genetic": 9224,
      "liked": 9225,
      "buy": 9226,
      "acre": 9227,
      "acute": 9228,
      "phen": 9229,
      "string": 9230,
      "##atched": 9231,
      "##ieties": 9232,
      "conclusion": 9233,
      "170": 9234,
      "runway": 9235,
      "edges": 9236,
      "sixteen": 9237,
      "helium": 9238,
      "commandos": 9239,
      "conflic": 9240,
      "1934": 9241,
      "sket": 9242,
      "soci": 9243,
      "valve": 9244,
      "initiated": 9245,
      "anglo": 9246,
      "philip": 9247,
      "berlin": 9248,
      "innoc": 9249,
      "madison": 9250,
      "territorial": 9251,
      "jews": 9252,
      "hostile": 9253,
      "indicating": 9254,
      "employees": 9255,
      "melody": 9256,
      "ninet": 9257,
      "subjects": 9258,
      "tennessee": 9259,
      "adopt": 9260,
      "translation": 9261,
      "succeed": 9262,
      "suspended": 9263,
      "hawaii": 9264,
      "recommend": 9265,
      "advertis": 9266,
      "pounds": 9267,
      "typh": 9268,
      "cosm": 9269,
      "warrior": 9270,
      "carpent": 9271,
      "eshmun": 9272,
      "bib": 9273,
      "dud": 9274,
      "gap": 9275,
      "gosp": 9276,
      "gift": 9277,
      "kon": 9278,
      "lis": 9279,
      "lumber": 9280,
      "mit": 9281,
      "ndh": 9282,
      "omar": 9283,
      "oreg": 9284,
      "sult": 9285,
      "tip": 9286,
      "yield": 9287,
      "##nie": 9288,
      "##rom": 9289,
      "##kon": 9290,
      "##bel": 9291,
      "##wick": 9292,
      "##gers": 9293,
      "##inth": 9294,
      "##nda": 9295,
      "toured": 9296,
      "##urst": 9297,
      "ontar": 9298,
      "stav": 9299,
      "strict": 9300,
      "##ulu": 9301,
      "##osing": 9302,
      "##estyle": 9303,
      "##agen": 9304,
      "enzy": 9305,
      "##ieth": 9306,
      "##iney": 9307,
      "components": 9308,
      "abc": 9309,
      "scout": 9310,
      "percept": 9311,
      "mariana": 9312,
      "evans": 9313,
      "##active": 9314,
      "dece": 9315,
      "consol": 9316,
      "underne": 9317,
      "liqu": 9318,
      "##enden": 9319,
      "receives": 9320,
      "125": 9321,
      "cress": 9322,
      "114": 9323,
      "signs": 9324,
      "reducing": 9325,
      "chrom": 9326,
      "##isms": 9327,
      "harbour": 9328,
      "swiss": 9329,
      "valid": 9330,
      "sentiment": 9331,
      "realized": 9332,
      "1000": 9333,
      "requested": 9334,
      "##shore": 9335,
      "ordering": 9336,
      "seeking": 9337,
      "walking": 9338,
      "##itarian": 9339,
      "romanian": 9340,
      "programming": 9341,
      "presidential": 9342,
      "1908": 9343,
      "biological": 9344,
      "reader": 9345,
      "putting": 9346,
      "colleagues": 9347,
      "venues": 9348,
      "respective": 9349,
      "potentially": 9350,
      "theatrical": 9351,
      "certainly": 9352,
      "catal": 9353,
      "renov": 9354,
      "birthday": 9355,
      "benj": 9356,
      "keeping": 9357,
      "conservative": 9358,
      "bidd": 9359,
      "architectural": 9360,
      "sorra": 9361,
      "measurements": 9362,
      "withdrawal": 9363,
      "kirk": 9364,
      "eliminated": 9365,
      "culmin": 9366,
      "orchestra": 9367,
      "rebuilt": 9368,
      "paramount": 9369,
      "pretty": 9370,
      "sympath": 9371,
      "chevaliers": 9372,
      "sheffield": 9373,
      "oregon": 9374,
      "ontario": 9375,
      "underneath": 9376,
      "dust": 9377,
      "hast": 9378,
      "kw": 9379,
      "liz": 9380,
      "lakes": 9381,
      "linc": 9382,
      "mg": 9383,
      "nam": 9384,
      "ost": 9385,
      "riding": 9386,
      "vig": 9387,
      "veter": 9388,
      "##sis": 9389,
      "##low": 9390,
      "##equ": 9391,
      "##father": 9392,
      "##aski": 9393,
      "##star": 9394,
      "##rose": 9395,
      "stere": 9396,
      "asian": 9397,
      "asks": 9398,
      "##vereign": 9399,
      "##odore": 9400,
      "##ardine": 9401,
      "leigh": 9402,
      "tracy": 9403,
      "##rae": 9404,
      "resol": 9405,
      "rook": 9406,
      "uss": 9407,
      "aggreg": 9408,
      "##pled": 9409,
      "brut": 9410,
      "##enses": 9411,
      "outl": 9412,
      "earning": 9413,
      "parody": 9414,
      "##orship": 9415,
      "sovereign": 9416,
      "presby": 9417,
      "operates": 9418,
      "barbar": 9419,
      "##azer": 9420,
      "provinc": 9421,
      "peoples": 9422,
      "anne": 9423,
      "dams": 9424,
      "trium": 9425,
      "christine": 9426,
      "harrison": 9427,
      "visiting": 9428,
      "organised": 9429,
      "stream": 9430,
      "personally": 9431,
      "bases": 9432,
      "kills": 9433,
      "1923": 9434,
      "sentences": 9435,
      "##minster": 9436,
      "shoulder": 9437,
      "nettles": 9438,
      "rhys": 9439,
      "wrapped": 9440,
      "animation": 9441,
      "rounds": 9442,
      "wider": 9443,
      "ernest": 9444,
      "parliamentary": 9445,
      "sympt": 9446,
      "semif": 9447,
      "observation": 9448,
      "fishing": 9449,
      "coaching": 9450,
      "autumn": 9451,
      "removal": 9452,
      "chicks": 9453,
      "cougars": 9454,
[...]
